#version: 0.2
d e
Ġ e
Ġ de
Ġ l
Ġ p
Ġ c
o s
Ġ a
e n
r a
Ġ s
e s
o n
e r
c i
t a
Ġl a
Ġ m
u e
o r
a r
a s
Ġe n
i n
r e
u n
Ã ³
q ue
t e
Ġ y
a n
d o
Ġe s
t i
Ġ que
Ġe l
a l
d a
t o
Ġ n
d i
Ġc on
Ã³ n
Ã Ń
Ġ un
Ġ h
Ã ¡
r o
Ġ f
Ġ v
Ġs e
o m
ci Ã³n
Ġ t
r i
c a
i s
Ġl os
l a
Ġ o
Ġ in
Ġ re
Ġp a
Ġ b
l e
l i
Ġ g
Ġs u
Ã ©
Ġc om
Ġde l
Ġp or
r es
Ġa l
Ġpa ra
Ġ di
i en
Ġla s
m a
m p
l o
t u
Ġh a
d os
Ġn o
e c
t ra
m en
Ã ±
ci on
Ġun a
Ġp ro
da d
c o
ÃŃ a
c u
q u
t os
Ġc u
b i
â Ģ
u s
v i
Ġp er
Ġc a
Ġs i
Ġ d
Ġm e
c h
Ã¡ s
Ġ i
o l
m os
Ġde s
ra n
t er
Ġl o
ci a
z a
c e
Ġ j
Ġ 2
Ġes ta
p a
t es
g u
Ġ to
Ġ (
Ã º
b a
m i
f i
e l
e ra
s i
Ġs o
Ġ ta
g o
t en
. .
Ġm u
Ġ 1
m o
Ġe x
Ġcom o
t r
g a
Ġ ti
men te
b re
s e
ar i
t or
cion es
Ġm a
al i
Ġm Ã¡s
ti v
d as
Ġt ra
t ro
Ġa n
Ġp ar
Ġp o
Ġv i
u es
qu i
Ġ te
ta r
ta s
Ġa c
Ġs er
d u
l es
an do
de s
ta n
Ġm i
Ġ2 0
o ra
Ġl e
Ã¡ n
al es
de n
m ien
b le
p i
Ġ res
Ġa p
g i
d or
a do
l os
en te
Ġ âĢ
er o
m in
Ġa r
Ġsu s
Ġp ue
Ġc o
Ġp re
p e
Ġa s
Ġn a
v a
r u
c on
j o
m e
Ġdi s
c as
Ġt en
mien to
u l
or ma
c er
Ġes te
tu ra
Ġes t
Ġ20 1
v er
j e
Ġc i
Ġm an
ta l
Ġcom p
m bi
Ġl i
t re
p o
m an
l as
Ã© n
c os
âĢ Ŀ
s a
en ta
n o
Ġper o
i a
Ġa Ã±
Ġc as
Ġs in
t in
c ar
l an
ci o
Ã© s
Ġp res
Ġi mp
tr os
c es
Ġm o
g ra
s on
j a
Ġm ar
Ġin ter
l ar
g un
de r
Ġp r
Ġt u
Ġp ri
g ar
n a
i o
Ġcon s
Ġo b
Ġ or
Ġv e
m as
Ġf a
ĠâĢ ľ
.. .
Ġin f
on es
v o
Ġn i
0 0
i Ã³n
Ġti en
Ġs on
g en
p or
v en
c an
Ġp as
ra s
m b
v e
Ġper son
Ġv er
Ġn ues
z ar
Ġc ar
n i
e mp
Ġ u
Ġa u
ci al
Ġso bre
c ciÃ³n
Ġme di
Ġc or
Ġ qu
Ġ us
Ġ r
f er
Ġex p
Ġs a
Ġp e
Ġe mp
os i
Ġm is
da des
Ġen tre
b er
x i
Ġ Â
in a
ci as
Ġl le
b e
Ġn os
Ġy a
Ġj u
t ri
Ġc h
i r
Ġc re
c en
b li
Ġmu ch
un i
Ġ do
Ġto do
Ġl u
Ġn ue
u er
ti ca
Ġb a
Ġ w
p on
Ġs al
Ġ 3
Ġmu y
Ġin s
Ġ da
Ġ ro
en tes
ci os
Ġf in
or es
Ġf ue
Ġa b
l u
en cia
Ġm en
Ġme j
Ġd u
ec es
Ġ "
fi ca
tra s
d r
ÃŃ s
Ġp i
mbi Ã©n
Ġpri m
tiv o
Ġg ra
Ã± a
Ġtra ba
Ġ ra
Ã± o
Ġg ran
ari o
Ġpar ti
Ġta n
ÃŃ as
g an
ec h
cion al
Ãº n
ta do
Ġta mbiÃ©n
Ġha b
Ġb u
Ġh i
Ġ -
z o
Ġest Ã¡
Ġdes de
g os
is ta
es ti
tiv a
r en
Ġse gu
ra r
Ġp u
dor es
Ġs an
ĠaÃ± os
Ġin c
Ġha y
s o
Ġpue de
Ġpro du
l la
Ġg en
Ġcu ando
Ġun i
Ġc an
Ġre ali
Ġma y
Ġes pa
qui er
r os
c ri
c om
as ta
Ġto dos
c tor
ter i
e b
Ġf orma
Ġt er
bi li
j er
e m
Ġf i
Ġ Ãº
p u
Ġs en
o y
m ar
ÃŃ n
Ġ dos
Ġd on
Ġes p
e mos
Ġcu al
Ġf un
en do
f ec
Ġha cer
Ġser vi
er i
Ġo p
Ġtien e
ta ciÃ³n
Ġ k
d ar
Ġc os
l l
Ġcon tra
Ġn e
on a
an a
en a
ca ciÃ³n
Ġh asta
Ġa d
Ġv a
ch a
Ġn eces
a ciÃ³n
t Ã³
m Ã¡s
Ġcon o
Ġa de
) .
Ġas ÃŃ
Ġh u
Ġes pe
Ġ ri
Ġ 4
tr u
ca do
Ġh an
c to
ti tu
al a
is i
Ġal gun
ci p
ali dad
ta ri
Ġsu p
Ġb ien
l lo
Ġc ol
Ġm un
Ġp la
em bre
an te
Ġp lan
la ciÃ³n
i do
Ġde ci
Ġti emp
b o
Ġpar te
is te
Ġdon de
Ġc en
Ġgen era
r Ã¡
Ġca da
tan te
Ġt ran
âĢ ¦
Ġ 5
b u
Ġc er
Ġm in
) ,
Ġd ÃŃa
Ġp osi
ch o
ari os
Ġes tu
Ġg o
Ġinf orma
ti co
Ġdi re
ÃŃ cu
Ġv al
Ġa y
Ġv en
ran te
lo g
Ġf or
pa ra
Ġre p
Ġpor que
Ġa h
b les
Ġve z
l ti
Ġ1 9
cu r
n os
b an
ol u
ri s
g Ãºn
Ġc al
Ġtiemp o
za ciÃ³n
bi er
j os
si Ã³n
ue l
Ġp ol
men to
Ġci u
ĠaÃ± o
Ġemp res
ce p
c al
Ġg u
Ġun o
f es
di o
ti li
Ġha ce
ti r
de ra
Ġe qui
Ġes to
ar ro
a da
ien do
Ġmej or
Ġ Ã©
en to
Ġvi da
Ġb o
tiv os
un to
Ġimp or
g e
Ġo f
Ġm as
Ġre g
Ġm on
Ġpro pi
Ã± os
Ġp en
e z
j ar
i l
ti s
ĠÂ ¿
ÃŃ an
ec to
Ãº bli
Ġa m
l us
e a
tor i
v is
Ġperson as
Ġh is
er on
Ġb as
gu a
al mente
a dos
Ġciu dad
t on
p ues
Ġinforma ciÃ³n
Ġcom uni
tra r
Ġf uer
n e
Ġre ci
Ġh ora
h a
Ġg a
bili dad
Ġac tu
Ġmay or
Ġca mbi
Ġu tili
Ġo tros
Ġdes arro
Ġj ue
c re
er os
Ġbu en
m Ã¡
Ġ Ã¡
Ġm es
Ġmun do
Ġy o
Ġmis mo
Ġc Ã³
cu en
Ġpa ÃŃs
Ġh er
Ġh om
Ġpr in
Ġtran s
Ġf e
Ġsi g
Ġde re
ci ales
Ġlu gar
Ġb ar
Ġ qui
i on
Ġesta do
p ar
Ġtraba jo
Ġp on
Ġ20 0
Ġf u
Ġpo dr
Ġe ra
Ġp ues
ti cas
Ġde n
emp re
Ġli b
ien te
in e
Ġ 6
Ġin di
za do
v ar
Ġm om
tor ia
Ġb us
Ġ z
Ġdu rante
Ġso lo
ta dos
Ġh e
Ġe u
Ġdi fer
Ġp Ãºbli
ci dad
Ġa cu
Ġneces i
ti vi
Ġp es
Ġtan to
Ġsi empre
ĠÃº lti
Ġen con
Ġes o
Ġmu jer
Ġpol ÃŃ
b ri
b ra
y a
Ġs iste
Ġcu enta
men tos
Ġm Ã©
ari a
Ġf o
c or
se gu
Ġest Ã¡n
Ġl es
Ġmuch o
ces o
âĢĿ ,
den te
i da
Ġca mp
v an
li a
Ġnues tro
Ġh ech
f or
Ġt Ã©
fi ci
v el
Ġen cuen
Ġin te
Ġl la
Ã³ lo
Ġcu l
Ġnues tra
Ġpro fes
Ġw eb
Ġtra s
Ġm er
Ġpu bli
Ġcomp le
mien tos
in o
Ġp os
is mo
Ġper mi
c k
p en
li ca
Ġre la
Ġa un
Ġes tos
Ġqu ien
Ġprim era
ver si
Ġcas o
Ġay u
Ġade mÃ¡s
Ġcon si
Ġten er
f a
Ġor gan
in g
is tra
pu Ã©s
Ġo tro
Ġpro y
Ġel e
Ġh o
Ġes e
Ġal go
Ġc li
Ġde f
ch e
c tos
Ġof re
ta mente
Ġres ul
Ġnue vo
Ġto da
b ora
Ġg ru
ci miento
es ta
âĢĿ .
Ġf al
2 0
Ġmen os
Ġma d
Ġcual quier
is ten
Ġse a
Ġpo co
Ġj a
Ġg us
Ġfa mi
li o
p os
Ġd ar
Ġto das
Ġah ora
Ġ ru
an o
Ġ 7
Ġsi do
i ca
Ġe di
c Ã³
u m
Ġda tos
Ġle y
ci do
Ġpo der
e dad
Ġti po
Ġmom ento
Ġpue den
c la
Ġes cri
Ġv ol
di do
ti do
di a
c tu
Ġgenera l
Ġin v
Ġcas a
Ġdes puÃ©s
d an
Ġin i
Ġc e
Ġpro gra
Ġob je
Ġna cional
ti cos
s os
Ġt ri
te ra
ec e
Ġ 8
Ġa mb
Ġh oy
Ġtra v
Ġtra ta
Ġan tes
Ġnue va
i co
Ġd ÃŃas
o k
or i
Ġman era
Ġexp er
Ġap ar
Ġ1 0
j es
Ġi de
Ġe du
is tas
Ġ 9
Ġperson a
v os
Ġj un
Ġin ten
Ġaun que
man a
Ġar t
Ġpro ble
Ġn or
Ġcon tin
g as
Ġs Ã³lo
Ġv isi
Ġm al
Ġa li
Ġde be
Ġel ec
Ġe con
Ġ os
Ġin g
an tes
en e
ÃŃ o
Ġtrav Ã©s
Ġsi gu
Ġgo bier
Ġcon ta
ga do
Ġse gun
qu ÃŃ
Ġt res
log ÃŃa
Ġsal u
Ġservi cios
Ġb an
u r
Ã¡ c
in i
Ġhab ÃŃa
cu l
Ġo tra
v as
Ġcom er
Ġorgan i
tiv as
pa Ã±
Ġf r
c ÃŃa
Ġus u
Ġi r
Ġsiste ma
Ġqu Ã©
Ġres pon
Ġn om
Ġcor re
Ġpres i
Ġc ien
ce l
v al
e o
ra ciÃ³n
ri o
Ġes a
g in
cion a
Ġse Ã±
Ġmedi o
Ġ x
ec u
Ġb i
Ġesta r
Ġinc lu
Ġe fec
Ġo tras
Ġa le
m on
j as
Ġtien en
Ġac tivi
ra c
Ġa g
! !
i e
c ni
Ġ ,
ri dad
Ġestu di
Ã³ gi
tan do
Ġesta s
ch os
con o
Ġni vel
Ġca pa
Ġhech o
ĠcÃ³ mo
Ġun os
h o
Ġa ca
Ġso cial
Ġdi se
Ġa que
l en
Ġt or
Ġan te
Ġau to
Ġdeci r
Ġna da
Ġel los
Ġa mi
Ġhis toria
z as
Ġsi tu
Ġf ran
Ġcu a
Ġus o
Ġcon ten
t s
Ġcon fi
Ġgobier no
mp li
Ġno vi
tan tes
ci l
Ġre f
Ġespe cial
Ġinter na
Ġ201 8
m u
Ġa ten
Ġap ro
tin a
Ġte mp
Ġpro te
un a
Ġsi ti
ra do
m is
la do
Ġuni versi
Ġservi cio
Ġnues tros
Ġpe que
Ġab ri
tra n
Ġ on
Ġs ol
t h
Ġna tura
Ġp Ã¡
Ġta r
Ġci er
Ġm Ã¡
Ġcen tro
ga ciÃ³n
Ġv o
" ,
ci pi
Ġprim er
min istra
Ġpar e
Ġmi ll
teri or
Ġha bi
Ġcu r
Ġprin cip
Ġe je
p er
ari as
Ġgru po
Ġe mb
y o
Ġn in
ue go
Ġc alidad
er do
Ġsin o
Ġeu ro
Ġn Ãº
ĠtÃ© cni
Ġvi a
cu lar
ĠÃº ni
ta les
Ã© r
Ġan ti
Ġmuch os
Ġ .
g ue
Ġ1 5
Ġsegu ridad
Ġser Ã¡
ĠÃ© l
vi l
Ġs ali
Ġcul tura
Ã³ mi
ten er
Ġco le
te l
Ġg an
er ÃŃa
00 0
Ġa quÃŃ
Ġinter es
Ġgra cias
ti l
Ġcon tro
Ġprofes ion
cion ales
f e
ta d
Ġexper ien
Ġempres a
Ġinv esti
b ar
Ġpres enta
Ġequi po
Ġesta ble
Ġprogra ma
Ġs ÃŃ
Ġpas ado
Ġla r
Ġm ien
Ġv is
Ġdesarro llo
ta da
Ġre cu
Ġc r
o tros
ï ¿
ï¿ ½
za da
Ġins titu
Ġalgun os
h i
l ÃŃ
Ġinf or
bi r
ÃŃcu lo
os a
Ġmien tras
ĠÂ ¡
âĢ ľ
Ġespa Ã±a
Ġso li
Ġcos as
Ġreali zar
Ġad ministra
fica ciÃ³n
Ġp an
Ġeje mp
ci Ã³
l or
p ti
Ġch i
Ġel la
Ġse gÃºn
e x
t Ã¡
Ġrep res
Ġte c
f o
Ġprodu ctos
Ġhora s
Ġc las
den cia
Ġhu man
v es
ĠâĢ ĵ
Ġi gu
Ġlla ma
Ġta l
Ġdis pon
Ġor i
Ġ is
Ġcons tru
Ġi ma
Ġc ris
Ġt us
Ġg as
Ġp ala
g ina
ĠnÃº m
Ġcon di
Ġdes a
ci endo
m Ã³
Ġa gua
Ġor den
ÃŃ si
tri bu
olu ciÃ³n
p osi
tari o
Ġ |
i dos
tor es
Ġ ...
Ġp un
d ro
es te
Ġimpor tante
Ġ 0
b en
Ġfin al
Ġmuch as
Ġto tal
Ġmill ones
c tura
Ġc Ã¡
ch i
20 1
Ġfun da
Ġes ti
Ġj o
Ġ quier
p era
" .
er te
Ġmej ora
te d
m es
Ġha cia
Ġan i
Ġdifer entes
Ġg ente
Ġre cor
Ġcontin u
Ġs ue
Ġl uego
ti dad
Ġmujer es
Ġsalu d
Ġfa v
Ġ1 8
Ġnovi embre
b lo
Ġcom paÃ±
ri d
Ġden tro
Ġc la
c ta
Ġ201 7
Ġde ber
Ġv eces
di r
Ãº s
Ġcom en
tor io
de mos
Ġes c
Ġdis f
p ec
u al
b res
ri ca
Ġsiti o
Ġcu er
Ġj us
Ġse x
i es
Ġcono cer
Ġm uni
Ġemb ar
a m
Ġe vi
Ġpr Ã³
Ġencon trar
Ġob s
ci na
er n
Ġle g
ca da
Ġesta ba
d re
Ġdo min
Ġproy ecto
Ġposi ble
di Ã³
ran do
Ġdis tin
Ġsu b
tan cia
Ġinc lus
ĠpolÃŃ tica
di da
g er
Ġin d
Â »
y e
Ġse mana
Ġaque l
Ġba jo
Ġpro ceso
di s
vi a
Ġp el
ue la
ul ar
de o
Ġel lo
esti Ã³n
v in
Ġcas i
bi do
Ġmo de
Ġop era
h e
er va
ctu bre
i ones
Ġrespon sa
Ġen tra
Ġa si
Ġperson al
Ġap li
Ġsup er
Ġr en
Ġ1 2
Ġ201 6
ra l
en cias
Ġma teri
Ġexperien cia
xi co
Ġpre gun
Ġm us
Ġc in
b ol
Ġnom bre
Ġo ctubre
Ġso ci
d on
t Ã³n
ta ciones
t Ã©
z Ã³
Ġmis ma
Ġse ctor
Ġecon Ã³mi
er g
Ġlle gar
Ġm Ãº
pi tal
Ġde por
Ġespe ci
Â º
Ġnos otros
p ro
Ġlib ro
Ġju lio
Ġejemp lo
Ġdere chos
Ġse le
Ġesp era
p re
ci embre
on i
Ġter min
Ã± as
Ġre cono
Ġm ÃŃ
Ġpue des
Ġcomp ar
Ġha ber
Ġacu erdo
Ġca min
Ġpresi dente
re a
Ġgran des
Ġdisf ru
f un
p as
Ġpres en
e ta
ne t
Ġdere cho
Ġ [
Ġdi jo
Ġap ren
s u
Ġni Ã±os
Ġp unto
Ġdi ciembre
ci n
r ero
ar on
Ġp uer
Ġv uel
an os
Ġd in
z Ã³n
Â ¿
pti embre
Ġf Ã¡
Ġembar go
ĠnÃºm ero
Ġdi ver
Ġex tra
Ġempres as
Ġam or
k e
Ġins ta
Ġemp le
Ġexp res
Ġdo cu
Ġre com
Ġesp ec
ĠprÃ³ xi
âĢ Ļ
a c
Ġh ar
ri os
Ġap oy
Ġsu r
Ġmej ores
Ġfo to
Ġz ona
Ġne go
Ġre gi
Ġse ptiembre
tin o
Ġs om
un ca
Ġre cur
Ġ201 5
Ġce le
vi r
Ġe j
d ÃŃa
Ġmi e
t c
ech a
us tri
Ġigu al
Ġcar re
Ġp in
Ġmad rid
Ġc ri
or p
Ġhom bre
Ġfuer on
on o
Ġm os
t ÃŃ
Ġm or
mp le
Ġu r
Ġa cep
por t
Ġmin is
Ġa segu
Ġcon ver
fi co
Ġen erg
Ġg i
Ġcol or
Ġfami lia
p ecto
Ġcomp ro
Ġpas a
Ġmay o
v ado
Ġbu ena
er ra
Ã¡ l
f orma
Ġmin u
Ã± ol
Ġpo li
ĠpÃºbli co
Ġte le
z an
Ġl ÃŃn
Ġmer cado
Ġas o
r Ã³
lar es
Ġau tori
Ġjun io
en da
ci r
Ġespa Ã±ol
Ġdi ri
Ġ1 1
Ġdes cu
Ġsa b
Ġe m
ton ces
Ġmo vi
Ġten dr
Ġuniversi dad
d ra
Ġ /
ba do
d al
Ġh emos
tari a
Ġsoli ci
Ġinclus o
Ġcons ul
Ġla n
Ġten go
Ġcu an
Ġv ien
Ġre laciÃ³n
cion ar
t Ã¡n
Ġre al
Ġa i
di ca
ci ar
Ġo fi
m al
Ġre v
b as
Ġn unca
Ġpr Ã¡c
Ġin vi
b al
g n
g or
m or
gra f
Ġcom pe
Ġfin an
Ġa fi
Ġ3 0
Ġlle var
Ġdes ta
Ġedu caciÃ³n
Ġfami li
ien tes
ĠmÃ© xico
Ġcons titu
Ġmar zo
Ġten emos
Ġl ÃŃ
Ġparti cip
Ġcondi ciones
Ġinterna cional
pues ta
ter min
Ġb lan
Ġre fer
Ġ201 4
Ġabri l
Ġdi os
Ġc ru
Ġcon se
gen cia
c ciones
Ġind ustri
Ġan un
Ġesta dos
os o
Ġv enta
g ro
Ġdis posi
Ġen ero
Ġso ciales
Ġtraba ja
an za
ci pa
Ġmes es
Ġpar ece
ter io
Ġjue go
Ġ za
Ġac er
j u
Ġcambi o
Ġdi a
Ġno ti
Ġca us
tr Ã³n
Ġn u
Ġv ÃŃ
g Ã³
Ġparti do
fi car
Ġtec no
Ġaso cia
Ġla do
Ġ1 4
or d
Ġen tonces
1 9
Ġv an
Ġna ve
Ġun as
ÃŃ tu
en sa
Ġalgun as
Ġsegu ir
s ar
Ġga ran
Ġci r
Ġ #
Ġca rac
s as
Ġe jer
Ġart ÃŃculo
t t
Ġcuer po
si ones
Ġconsi dera
tura s
Ġofre ce
g res
da mente
li dad
Ġsa ber
za dos
Ġpre cio
Ġper fec
Ġi den
qu Ã©
Ġte x
Ġf eb
ĠÂ «
Ġb al
Ġco ok
Ġproy ec
Ġal can
p s
Ġel i
Ġde jar
Ġsoci edad
Ġse cre
Ġencuen tra
Ġa Ãºn
res pon
ga da
c ando
Ġob ra
dos e
Ġalgun a
Ġcu mpli
Ġfue ra
Ġcom enta
Ġco la
ca ciones
era s
Ġar gen
Ġpel ÃŃcu
Ġte ma
Ġa do
Ġmi l
ra da
Ġactivi dades
Ġ1 3
Ġpo demos
Ġaten ciÃ³n
r ÃŃa
Ġj unto
Ġch a
z os
gos to
Ġfr ente
Ġayu da
Ġdise Ã±o
Ġe ven
Ġe tc
Ġprodu cto
Ġpi e
Ġcua tro
Ġ1 6
Ġparti r
Ġ201 3
cipi o
Â ¡
Ġproble mas
Ġdire cciÃ³n
Ġb ene
Ġlo c
Ġf ir
Ġal ta
Ġus ted
c lus
Ġu bi
Ġa gosto
Ġde j
Ġo port
Ġobje tivo
Ġg ol
Ġinte gra
ĠpÃ¡ gina
Ġb ra
Ġa fec
Ġusu ario
Ġlle va
Ġcons u
Ġb ol
ci s
Ġen fer
Ġex isten
ol Ã³gi
Ġpas o
Ġre du
Ã¡ pi
Ġde tal
Ġinter net
Ġin de
tu d
Ġf on
di ente
vis iÃ³n
di al
Ġac ceso
Ġmu es
ĠmÃº si
Ġpro ce
Ġ Ã©s
Ġsig ni
1 0
Ġg uer
Ġespa cio
Ġ Ã³
Ġob li
Ġcook ies
Ġver dad
Ġde termin
ar d
l ine
Ġpas ar
de z
Ġman i
Ġe r
cri p
Ġin ver
Ġsitu aciÃ³n
Ġmedi ante
Ġpro mo
Ġmar ca
Ġv arios
Ġo cas
Ġami gos
Ġque da
Ġfeb rero
Ġj or
Ġb log
Ġser ie
Ġten ÃŃa
qu es
Ġdispon i
ten cia
Ġpre mi
di e
Ġcon ven
Ġa mp
Ġa tra
eri or
Ġb el
Ġj os
Ġencon tra
Ġcon du
in as
Ġdi ce
Ġac om
ali zar
com o
Ġpon er
p el
Ġno che
bi a
tru ctura
Ġla bora
Ġproble ma
Ġ2 5
Ġdire c
Ġa gra
Ġcon segu
b ras
un ta
ĠÃºlti mo
Ġcor respon
Ġcre a
Ġelec trÃ³n
Ġlar go
Ġre co
Ġpodr ÃŃa
r on
Ġpermi te
Ġminu tos
Ġfe li
z ando
Ġcre o
Ġcontro l
Ġr Ã¡pi
Ġes cu
Ġpro vin
Ġnue vos
Ġper io
Ġlo gra
Ġc lar
- -
Ġfav or
Ġb e
Ġs iendo
Ġ1 7
Ġman o
por te
a d
gi a
Ġbas e
Ġa z
Ġli bre
Ġes tra
gi r
. -
Ġfal ta
Ġpri va
le za
ca dos
Ġcen tra
ma do
can o
Ġpr ue
Ġ201 2
Ġg estiÃ³n
Ġusu arios
Ġima gen
w w
Ġri es
Ġsegun da
Ġre d
ÃŃcu los
Ġvi r
ali zaciÃ³n
ĠfÃ¡ cil
di endo
Ġej ecu
Ġdire ctor
ci da
Ġpro ces
Ġactivi dad
tar on
i t
Ġca p
Ġreali dad
Ġuni dos
.. ..
Ġdi f
Ġparti cipa
men tal
Ġtemp ora
ten i
Ġpo p
r ÃŃ
g re
om ÃŃa
Ġqu er
Ġforma ciÃ³n
i dad
Ġs os
Ġdin ero
Ġesta mos
ĠpaÃŃs es
Ġo l
Ġgus ta
Ġb ri
v ien
Ġjue gos
Ġi g
v ÃŃa
Ġori gin
Â Ń
Ġca be
Ġpo b
ran o
3 0
ues to
Ġsigu iente
Ġesto y
Ġcur so
t ÃŃa
la da
Ġres ta
Ġmen sa
b el
Ġab s
gi o
Ã© is
Ġcomuni dad
Ġa van
ec er
Ġex i
l Ã¡s
Ġoport uni
Ġen vi
Ġf ra
a das
Ġayu dar
Ġnue vas
ta mos
on e
Ġca ra
Ġgra tis
Ġj e
Ġmun dial
Ġval or
Ġreg is
Ġa f
Ġeuro pe
ci dos
ti on
Ġf re
Ġm ol
ĠlÃŃn ea
Ġexp li
Ġap lica
Ġa gu
Ġto mar
Ġdes e
Ġsegun do
la ciones
Ġbus ca
Ġas es
Ġpue blo
Ġtu r
Ġdes car
p ero
Ġpre cios
ti en
i cos
Ġsigni fica
Ġjus ti
Ġen can
ĠmÃ¡ xi
Ġca pital
Ġresul tados
to do
Ġnues tras
Ġd an
Ġinvesti gaciÃ³n
Ġsa be
Ġl ec
Ġmo do
Ġp is
Ġal gÃºn
ÃŃs ticas
Ġf echa
Ġo cur
Ġpun tos
Ġhi zo
ch ar
tar se
l Ã©
Ġcomuni caciÃ³n
Ġh os
Ġinter i
Ġprote cciÃ³n
Ġg al
Ġpres ente
Ġimp res
Ġsen tido
Ġju an
d Ã³
di co
ĠâĢ ĺ
Ġtien es
Ġcol om
Ġle er
Ġtra di
d res
Ġd Ã©
Ġestu dio
men taciÃ³n
Ġm Ã³
Ġhom bres
Ġcom b
ti ene
ar e
Ġan terior
Ġquien es
Ġju ga
mÃ¡ tica
Ġ2 4
l Ã¡
tu al
Ġsi mple
Ġcas os
Ġap or
ar es
Ġen ten
ĠmÃºsi ca
Ġpla ta
l las
Ġa ta
Ġcer ca
Ġmode lo
Ġcon ci
Ġon line
ti Ã³
Ġprim ero
Ġcal le
Ġmejora r
tari os
t ÃŃn
Ġsegu ro
Ġes os
Ġ19 9
ter o
Ġcarac ter
Ġneces ario
ÃŃtu lo
cu lo
Ġcre ar
Ġprofesion al
Ġprincip al
Ġhay a
tar Ã¡
Ġsu f
Ġmie mb
Ġf is
Ġcu ar
en o
Ġ1 00
r in
Ġgu ar
Ġes co
g on
Ġ :
Ġcu en
Ġmayor ÃŃa
is is
gen es
Ġf ÃŃsi
Ġrecur sos
Ġfu tu
Ġnatura l
Ġcli entes
ll er
cu pa
Ġcon te
Ġmedi os
Ġprodu cciÃ³n
Ġcuan to
Ġdi cho
Ġ201 1
ĠpÃºbli ca
mi ca
Ġnin gun
Ġcamin o
Ã± ana
Ġenerg ÃŃa
Ġtar de
Ġresta u
Ġres pecto
lu b
Ġ '
Ġal to
Ġt he
Ġemp e
us o
Ġher ra
Ġal um
f t
Ġtrata miento
Ġp al
Ġcon cep
lan te
Ġiden ti
Ġpro por
Ġutili zar
tar ÃŃa
Ġclar o
ta das
Ġca te
Ġide a
Ġar te
Ġso y
Ġing res
Ġes cen
Ġpues to
Ġl in
can a
osi ciÃ³n
ch as
Ġbuen o
za das
Ġli ber
Ġb or
Ġpa ci
Ġnin gÃºn
Ġde ja
Ġf an
graf ÃŃa
Ġen f
Ġcola bora
Ġcon j
Ġa bier
Ġco lo
Ġejer ci
Ġherra mien
2 00
Ġti tu
Ġcapa cidad
1 1
ĠÃºni ca
Ġen tr
Ġv ista
Ġini cia
cion ado
om a
Ã© rica
ter na
Ġha cen
Ġcin co
ri a
Ġal ma
t bol
ĠtÃ© r
Ġti erra
un es
Ġde cla
Ġsup erior
Ġlu z
Ġen se
Ġinc re
Ġv ari
Ġeu ros
Ġfa ci
Ġofi cial
Ġex cel
j us
Ġc ine
tin g
Ġl en
Ġg ar
Ġins tru
de ro
ri do
Ġ5 0
ctor es
di entes
Ġjos Ã©
g ando
Ġac ciÃ³n
Ġref le
Ġo fer
Ġmuni cip
Ġdi gi
Ġde ben
Ġpa pel
ĠÃºni co
in os
Ġc lub
Ġfo tos
Ġtraba j
Ġorgani zaciÃ³n
Ġadministra ciÃ³n
di miento
gu ien
Ġfa bri
Ã¡l isis
Ġa di
Ġca bo
i to
Ġvi deo
Ġma Ã±ana
Ġnor te
re as
c un
Ġa da
Ġrepres enta
Ã £
i i
Ġapli caciÃ³n
Ġfe dera
Ġde pen
Ġli mp
Ġcomp ra
n as
Ġdef ini
Ġbas tante
Ġprofesion ales
Ġf er
ran tes
Ġc ora
Ġpe li
m er
k a
a dor
Ġconten ido
Ġbene fi
Ã¡n do
Ġc ali
r or
i va
Ġentra da
Ġgran de
Ġlle ga
Ġtecno logÃŃa
Ġde bido
Ġv arias
Ġe dad
Ġe mo
Ġpropi o
o co
Ġho tel
Ġre gu
Ġb Ã¡s
Ġde ba
ĠseÃ± al
ĠÃºlti mos
Ġhab lar
Ġa ce
Ġs orp
l lar
Ġedu ca
Ġr os
me dia
bili dades
Ġfun cion
Ġpue da
Ġproyec tos
Ġcier to
Ġcan tidad
Ġcamp o
Ġjo ven
Ġpre para
p Ã³
Ã ¼
ta ble
Ġinteri or
5 0
Ġpre ci
Ġpare ja
Ġ2 1
Ġter cer
ĠÃºlti ma
Ġter ri
Ġsig ue
Ġsele c
Ġres i
qui era
Ġconta cto
Ġamb iente
Ġ201 0
Ġel las
Ġha ciendo
Ġac ciones
Ġade cu
Ġlo cal
Ġal lÃŃ
Ġmad re
Ġde li
Ġper man
tro du
Ġen car
a u
Ġh or
k i
Ġcamp a
Ġob ras
ga dos
Ġde mÃ¡s
Ġparti cular
Ġ q
Ġpr on
fici ente
Ġpro fun
Ġus ar
da do
c ti
t y
Ġinter Ã©s
âĢ Ķ
Ġesti lo
Ġquier e
a de
Ġna die
Ġal guien
Ġcons ecu
Ġre des
Ġcon f
den tes
Ġactu al
Ġargen tina
Ġcu ales
l in
Ġsan ta
Ġdu da
Ġbus car
Ġpropi a
Ġgaran ti
c ra
Ġher man
Ġc el
Ġedi ciÃ³n
Ġp si
Ġto ma
Ġpala bras
Ġman tener
1 2
Ġest Ã©
Ã© c
Ġva mos
ri co
Ġob tener
cur so
gi do
g na
men tar
cel ona
Ġenfer me
Ġpa dre
Ġguer ra
Ġmedi das
Ġsig lo
er e
Ġmedi da
Ġba ja
ÃŃs tica
tivi dad
re mos
tal la
Ġcorre o
Ġmedi a
Ġde di
Ġres pe
Ġpi el
pues to
Ġmuch a
Ġapoy o
Ġestudi os
Ġmo di
Ġfutu ro
al o
Ġbuen os
ĠâĢ Ķ
ĠpelÃŃcu la
val u
Ġsal a
Ġar chi
h u
Ġai re
Ġcos a
Ġser ÃŃa
Ġno ve
ĠcompaÃ± ÃŃa
Ġig les
ven es
Ġresul tado
tiva mente
Ġcon for
ter ia
Ġeli min
mi r
Ġada p
Ġinde pen
Ġdisfru tar
Ġdis tribu
ci mientos
Ġconsegu ir
Ġpop ular
Ġcli ente
Ġh on
Ġminis terio
Ġlib ros
Ġfun ciona
Ġah ÃŃ
Ġcele bra
ma ra
Ġcom ien
a ciones
Ġevi tar
Ġa t
Ġtraba jar
ho la
g el
Ġcomp rar
Ġel a
Ġve h
Ġpes ar
par ta
Ġpodr Ã¡
Ġj Ã³
Ġrepres en
Ġvi ol
Ġvol ver
Ġs Ã¡
gen tes
p h
Ġcate gor
Ġconstru cciÃ³n
bi Ã³
Ġaquel los
Ġpres u
Ġcarre ra
Ġpen sa
ĠprÃ¡c tica
Ġa ma
en tos
Ġda do
tr Ã³
Ġest re
ec en
b es
ĠprÃ³xi mo
mon io
Ġse an
Ġ2 2
c lu
e t
Ġte mas
ti a
Ġesta n
Ġprincip ales
ĠjÃ³ venes
Ġin trodu
m ul
r y
m s
vi du
es to
Ġhuman os
Ġan Ã¡lisis
Ġmu erte
e te
ĠtÃ©r min
s an
Ġes f
ĠÂ ·
Ġcom is
ch es
Ġfi l
Ġfuer za
Ġde mo
isten cia
de dor
Ġafi r
o g
Ġesc uela
g ente
l er
c ro
Ġmues tra
Ġen v
za mos
Ġindi vidu
mÃ¡ genes
Ġhi jos
re z
Ġrecom enda
Ġfinan ci
Ġol vi
Ġli mi
Ġcu ida
Ġpa tri
Ġcambi ar
Ġcon vi
Ġv as
Ġhis tÃ³
cion ados
Ġes tructura
Ġso la
Ġres to
qu isi
Ġpob laciÃ³n
Ġbar celona
Ġdif ÃŃ
Ġpre ven
s al
Ġcomp ren
Ġmateri al
Ġinf an
Ġvia je
Ġencuen tro
ĠÃ© xi
e ran
ta li
za ciones
Ġofre cer
Ġs es
Ġex clus
p le
Ġi mÃ¡genes
de os
Ġimpor tantes
Ġacer ca
Ġpo ten
Ġes as
Ġtu vo
Ġde mas
er to
Ġequi pos
Ġvis to
Ġhab la
c le
Ġco cina
Ġgra tu
Ġe ran
Ġoportuni dad
Ġde parta
co l
Ġf as
Ġta ma
tr Ã¡s
Ġrecu pera
g h
Ġj es
Ġfi gu
Ġman os
Ġt ro
Ġmi li
Ġfaci li
b or
Ġs Ã©
Ġjor na
d s
ĠÃ¡ rea
Ġte lÃ©
/ /
Ġau tor
Ġde r
ri Ã³
Ġhi jo
Ġque dar
Ġen la
Ġqui ero
Ġense Ã±
Ġma ra
Ġe valu
Ġg ri
bo ok
me tros
Ġsu pon
y endo
Ġgru pos
Ġre y
Ġeuro pa
Ġ Ã¡n
Ġmo der
ali dades
Ġcom e
ti endo
fica do
r Ã¡n
Ġdomin go
ĠtelÃ© f
Ġclas e
Ġl ista
Ġnecesi ta
Ġdesarro lla
y en
ar se
crip ciÃ³n
Ġa ven
i ta
la dos
Ġay unta
j an
Ġregi Ã³n
Ġsiste mas
Ġres puesta
Ġpre o
Ġtempora da
Ġrela ciones
Ġver siÃ³n
Ġpa go
Ġprin cipio
Ġde co
cre to
p la
Ġposi bilidad
Ġde man
m Ã¡n
Ġme xi
Ġac ce
Ġnecesi dad
Ġestudi antes
pa rar
Ġestra te
Ġfuer te
Ġparticipa ciÃ³n
1 8
m ales
Ġre almente
Ġtu ris
Ġo fici
Ġela bora
Ġries go
Ġele mentos
Ġdi o
Ġ2 3
Ġvien e
Ġcabe za
Ġapro v
Ġs olu
Ġpres encia
cen cia
cipi os
Ġpro ba
tor no
Ġprim eros
Ġsegu i
on as
Ġmis mos
Ġser Ã¡n
Ġsi r
ĠaÃ± a
Ġh as
Ġm ari
Ġten ga
Ġpue do
ĠcÃ³ di
Ġse man
Ġo jos
Ġex ten
l Ã©s
Ġcentra l
fi cos
: //
Ġningun a
Ġamb os
Ã©c tri
Ġjusti cia
Ġin no
Ġdef en
Ġpla zo
Ġpa dres
Ġcien tÃŃ
ar Ã¡
ern es
Ġsen ti
Ġliber tad
Ġfun ciÃ³n
Ġten ido
u ra
Ġfon do
Ã© di
Ġd or
Ġentre ga
vo ca
teri ores
Ġver da
Ġinstitu to
Ġcr ÃŃ
Ġleg is
i Ã³
te c
Ġconse jo
1 5
f as
Ġven ez
Ġal re
Ġconfi r
ĠâĢ ¦
d Ã©
Ġac on
Ġsigu ientes
b rar
Ġex tre
do ra
Ġsali r
Ġsex o
Ġhu bi
Ġcambi os
Ġvisi ta
Ġma teria
Ġefec tos
Ġespecial mente
Ġ200 9
ĠmÃŃ ni
Ġecon omÃŃa
s in
Ġpes o
Ġpa z
Ġconsi de
gres o
Ġreci bir
di os
ĠelectrÃ³n ico
c ente
Ġconj unto
w are
en as
Ġ4 0
Ġag re
Ġtrabaja dores
Ġmiemb ros
p res
Ġvi vien
Ġnoti cias
Ġp ul
Ġpeque Ã±o
Ġprovin cia
Ġor ien
Ġmu lti
Ġra dio
Ġpro ta
Ġen ci
Ġw i
Ġvi ernes
gen i
Ġigles ia
men ta
Ġespa Ã±o
Ġmar ÃŃa
ĠÃ©xi to
Ġlo g
Ġcomis iÃ³n
cu ando
du l
Ġgu a
Ġcar los
Ġnego cio
e as
Ġop ciÃ³n
da ble
Ġdifer encia
Ġcaracter ÃŃsticas
Ġm ec
Ġperson ales
l los
Ġcono cimiento
mp oco
Ġmar co
Ġlu is
Ġtoda vÃŃa
mis o
Ġv oy
gi da
ĠespaÃ±o la
ri r
Ġac ces
Ġnecesi dades
Ġing lÃ©s
rÃ¡ fico
ĠÃ© po
l le
Ã¡c ter
Ġespec ÃŃ
Ġpre ten
Ġre li
Ġcar go
Ġsen ci
b un
Ġmon ta
Ġman e
Ġedi fi
Ġcar Ã¡cter
Ġv esti
ari dad
Ġsom os
Ġpue dan
e e
Ġayunta miento
ina ciÃ³n
Ġg lo
Ġpos t
Ġci c
Ġel Ã©ctri
Ġhacer lo
ci eron
Ġra zÃ³n
Ġex iste
w s
pues tas
Ġar ri
pi a
tori al
Ġconten idos
Ġre un
ga m
Ġasocia ciÃ³n
Ġprue ba
Ġefec to
Ġb en
Ġcon tar
Ġcor te
Ġop in
Ġcole c
Ġsu ce
Ġop ciones
âĢ ĵ
Ġma es
fer encia
Ġar tis
Ġve rano
Ġi lus
Ġmateri ales
Ġtotal mente
Ġvi e
Ġplan te
l ena
Ġne gro
Ġg ana
Ġci vil
ma ciÃ³n
Ġutili za
Ġb lo
Ġcora zÃ³n
va ciÃ³n
ra mente
Ġd Ã³
ter ÃŃa
Ġinter pre
con s
Ġme z
di eron
teni miento
Ġpar tes
len o
gin as
Ġinclu ye
es o
Ġcom Ãºn
Ġde mos
Ġpen sar
Ġide al
Ġcon ec
Ġ2 8
Ġinvesti ga
Ãº a
Ġn um
Ġuni ver
Ġdigi tal
Ġt ÃŃtulo
Ġmay ores
Ġrecu er
des de
. ,
Ġpen s
Ġcomple to
Ġf es
Ġexp lo
Ġcomenta rios
Ġdescu bri
Ġesf uer
Ġeven to
m bre
â Ĥ
Ġcultura l
Ġm ora
on al
Ġin media
can os
si to
Ġn orma
âĤ ¬
Ġ *
Ġcre cimiento
Ġper ten
Ġse gam
ĠdifÃŃ cil
Ġtendr Ã¡
Ġtex to
Ġli tera
Ġbi bli
es e
Ġvi vir
ber na
Ġcomer cial
Ġmen or
Ġbu r
Ġfa ce
Ġart ÃŃculos
Ġpro me
Ġcre aciÃ³n
âĢ¦ ]
Ġresponsa bilidad
u ales
Ġf ar
ca pa
Ġa mpli
Ġta mpoco
Ġve lo
Ġnatura leza
Ġcompar tir
Ġpo d
Ġni Ã±o
Ġme tros
Ġl on
Ġreg istra
Ġza pa
Ġlugar es
m ando
Ġqui z
Ġmovi miento
Ġ2 6
ÃŃ do
Ġb oni
p ora
j i
Ġclas i
cu los
Ġf ru
Ġe mi
Ġblan co
Ġcolom bia
Ġlen gua
ti da
Ġacom paÃ±
un o
Ġsi mi
Ġte a
1 4
is a
ci ente
ĠsÃ¡ bado
es tas
ri tu
Ġfor mas
Ġqu in
Ġse is
og le
Ġorigin al
Ġalum nos
Ġa jus
Ġconfi gu
Ġt es
i ado
Ġa us
Ġpla za
Ġay er
ie za
titu d
i cas
Ġfor o
in es
ĠpolÃŃ ticas
Ġchi le
Ġmunicip al
Ġpropi e
tori as
Ġju gar
Ġpoli cÃŃa
Ġcas ti
Ġcon tribu
can te
Ġindustri a
ĠcÃ¡ mara
Ġbien es
Ġimp a
i te
Ġp ien
ru p
Ġsele cciÃ³n
Ġres erva
Ġh tt
Ġimpor tancia
Ġdi pu
Ġe ta
an as
Ġcir cu
ĠtÃ©cni co
Ġt h
Ġar ti
Ġide as
or k
Ġindi ca
Ġdi ario
Ġden un
Ġencuen tran
Ġ2 7
Ġta ller
l y
mi co
Ġcer ti
ĠcÃ³di go
Ġtrans porte
Ġcon ce
u da
Ġes tr
vi eron
du ra
mÃ¡ tico
Ġfis cal
Ġcol ores
Ġori gen
Ġprogra mas
l ando
Ġra z
Ġdeci siÃ³n
Ġ ÃŃn
Ġho gar
Ġab an
Ġv in
Ġi z
v ista
Ġsup era
Ġt ru
Ġdire cto
Ġalre dedor
ue lo
Ġtien da
Ġau di
Ġh al
Ġsa tis
Ġgu i
Ġrefer encia
Ġval ores
Ġmom entos
ĠtelÃ©f ono
f f
i os
1 3
Ġtra du
Ġentr ena
ĠtÃ©cni ca
Ġ $
Ġejerci cio
to dos
tan a
Ġanti gu
o o
es a
Ġb rin
p an
Ġl unes
Ġfre cu
Ġdo lor
ble mente
tori os
ali zado
ci to
ĠÃ©po ca
Ġab o
ta ba
c ales
Ġr Ã©
d Ã³n
ol ver
ÃŃ os
Ġb re
Ġtama Ã±o
Ġg Ã©n
ĠseÃ± or
la das
Ġmani fes
Ġcom i
g ros
vi o
in s
Ġcampa Ã±a
Ġ19 8
Ġvi ctor
ĠeconÃ³mi ca
Ġreg res
Ġproces os
Ġcen tros
Ġdef ensa
i m
Ġtraba jos
Ġherramien tas
Ġinc orp
Ġsali da
Ġmensa je
m Ã³n
y as
Ġvol un
Ġco ord
Ã© tica
Ġcaus a
Ġpa gar
Ġinte li
ar t
Ġcr Ã©di
am eri
Ġresponsa ble
Ġlu cha
Ġincorp ora
Ġpropi edad
Ġdesarro llar
a h
Ġplan ta
Ġca tal
Ġf ern
Ġreg la
Ġ200 8
Ġde v
Ġsorp ren
de l
di dos
Ãº tbol
ci das
y s
jer os
Ġimp ul
Ġtran qui
ĠtÃ©cni cas
Ġal lÃ¡
Ã¡n dose
ĠeconÃ³mi co
Ġur ban
Ġsu ficiente
Ġobli ga
j ado
ĠÃ¡ mbi
Ġcamp e
Ġs ien
Ġcomer cio
Ġcris is
Ġpar que
Ġpresenta ciÃ³n
Ġuni dad
min a
Ġquier es
Ġal cal
Ġconte mp
Ġt Ãº
Ġhuman o
g al
Ġ +
Ġ2 9
Ġl is
Ġpan talla
Ġdes i
Ġini cio
l ores
Ġen ca
ĠmÃ¡xi mo
Ġempe zar
Ġar tes
sa ciÃ³n
Ġcan dida
Ġdeparta mento
Ġmes a
Ġ[ âĢ¦]
y Ã³
Ġperio dis
1 6
v era
ca das
Ġreli gi
Ġconsu mo
Ġdemas iado
Ġre ti
Ġ ul
1 7
Ġc ari
Ġre quier
Ġpremi o
Ġc lÃ¡s
Ġreali za
Ġlogra r
b ro
Ġf Ãºtbol
mb o
ma il
g ni
Ġre vis
Ġcontra rio
Ġper der
ti les
p al
Ġal terna
Ġd ra
ce ra
Ãºbli ca
Ġdetal les
Ġregis tro
Ġor o
Ġn ar
Ġob ten
Ġgo ogle
Ġex cep
Ġemple o
Ġposi ciÃ³n
Ġapro xi
e d
Ġele gir
Ġpeque Ã±a
Ġsen tir
Ġem ba
Ġin geni
Ġex a
Ġobje tivos
Ġdisposi ciÃ³n
Ġtemp era
2 5
dr Ã¡
Ġtar je
Ġmus i
Ġinf lu
Ġa men
Ġan d
Ġinfor me
Ġinver siÃ³n
Ġsup uesto
Ġcapa ci
Ġpala bra
i d
para ciÃ³n
Ġs uel
Ã³ s
Ġiz quier
Ġgan ar
Ġpi er
Ġdirec tamente
ti dos
Ġdocu mento
Ġlabora l
co les
Ġcom ida
Ġr us
Ġdistin tos
Ġac to
Ġparti dos
j ero
er var
Ġcor ri
tu r
Ġbra si
_ _
Ġca pi
i vo
c s
den a
Ġfa mos
Ġdis tancia
Ġcor pora
lo go
Ġseman as
Ġsimple mente
Ġautori dades
Ġma tri
Ġhab ÃŃan
Ġapren der
Ġcompe ti
Ġden om
Ġinsta laciones
ba jo
Ġado p
Ġan ton
Ġa dul
Ġo c
Ġmi g
e go
e tas
Ġexp eri
Ġamb ien
Ġamp lia
Ġrep Ãºblica
Ġpla ya
Ġpodr Ã¡s
Ġjes Ãºs
Ġa ra
Ġali mentos
Ġdo ble
Ġpeque Ã±os
ti dades
Ġun iÃ³n
Ġface book
Ġvo z
Ġabs olu
Ġenci ma
tr on
fi l
Ġvi o
Ġenten der
Ġexcel ente
ĠdÃ³ lares
Ġco che
cÃ³ mo
Ġm ue
Ġjuga dores
Ġinter ven
Ġmas a
Ġz onas
Ġpersona jes
Ġvuel ta
Ġjorna da
Ġb om
Ġi ba
Ġcono ce
Ġmo da
Ġami go
Ġpregun ta
b us
Ġcon greso
Ġt re
Ġpr ensa
Ġmi ra
Ġe v
qu ina
Ġs oluciÃ³n
Ġfr on
Ã³ li
Ġnivel es
Ġj ard
Ġsal va
Ġtri bun
mi a
Ġpropi as
e lo
Ġdisponi ble
Ġv ÃŃa
Ãºs que
Ġparticip ar
is mos
r er
Ġpo dÃŃa
Ġher mos
ues tos
Ġaprov ech
Ġ6 0
Ġcomen zar
Ġpuer ta
Ġad qui
Ġexp lica
ente mente
Ġr ÃŃo
ra dos
cen tes
Ġade lante
Ġmar cha
Ġdistin tas
u u
Ġk a
a mos
Ġlle gÃ³
Ġactu almente
Ġro pa
Ġa vis
tan cias
Ġespa cios
Ġam Ã©rica
Ġcategor ÃŃa
Ġpo cos
y os
Ġrep ro
Ġaplica ciones
Ġap re
Ġmode los
Ġel ecto
pa Ã±a
o te
Ġfunda ciÃ³n
log ÃŃas
v isi
ÃŃs tico
vi les
b la
Ġfu ente
Ġmos trar
Ġb ro
Ġb Ãºsque
Ġlib era
Ġmuni cipio
Ġfun ciones
Ġtiemp os
Ġmar tÃŃn
Ġtec n
ĠÃ³ r
Ġopin iÃ³n
Ġper s
Ġpodr Ã¡n
Ġdes tin
Ġalma cen
fi cas
Ġman ten
Ġk il
Ġcomple ta
men tales
Ġin ci
mi te
Ġpre fer
Ġdi bu
Ġti pos
Ġdis co
Ġal o
Ġcien to
bi da
Ġagra de
Ġhos pital
Ġar qui
Ġsu je
Ġcontinu aciÃ³n
Ġe res
Ġju rÃŃ
Ġreali zado
Ġv ues
Ġbuen as
ĠpÃ¡ ginas
Ġa co
Ġllama do
Ġ200 7
Ġah or
mp a
Ġloc ales
Ġp Ã©r
pec tos
i mos
Ġban da
Ġen trar
Ġba Ã±o
Ġcos ta
k o
Ġre fi
Ġpuer to
Ġes pi
Ġfran cis
Ġfes tiv
Ġsue lo
Ġviol encia
Ġre le
Ġbenefi cios
on ar
Ġpro pon
Ġobje to
Ġcris ti
!! !
ĠpolÃŃ tico
Ġo cupa
tra do
Ġesta ban
Ġmo tivo
le ra
Ġfamili as
is o
Ã©r coles
Ġeven tos
Ġpaci entes
ba mos
Ġpr os
Ġjue ves
o f
Ġb io
ĠtÃ©rmin os
w a
Ġban co
er s
di cos
Ġch ar
ade mÃ¡s
vi Ã³
min u
Ġcar ta
Ġocas iÃ³n
us iÃ³n
Ġpro vo
ali zada
Ġre cla
Ġg re
Ġresul ta
Ġtercer os
Ġlle v
Ġacce der
Ġest Ã¡s
vi dad
Ġ )
den cias
Ġsa car
Ġcla ve
Ġch ica
Ġdes emp
Ġturis mo
Ġmar ke
Ġquer emos
Ġcar ga
Ġne u
Ġdifer ente
Ġen torno
Ġcompro miso
Ã³n ica
ĠvÃŃ cti
Ġle van
Ġpubli caciÃ³n
6 0
a mente
Ġpro puesta
4 0
p p
Ġar re
Ġg e
Ġgra do
Ġval encia
b os
c ÃŃ
Ġac ci
fica ciones
Ġdi ez
Ġde le
Ġinte g
Ġas pectos
ca mbi
Ġis la
in ado
ali za
Ġal ber
Ġmi Ã©rcoles
Ġpron to
Ġf lu
Ġprota gon
Ġar ma
Ġtecn olÃ³gi
Ġplata forma
Ġofer ta
Ġdi cha
w it
Ġve ci
Ġh ue
Ġver de
Ġcontra to
Ġam eri
Ġsu erte
Ġman tenimiento
Ġval ora
mb ien
Ġju di
Ġinteres ante
Ġsan gre
Ġemp ren
Ġpro ve
Ġfunda mental
Ġen or
Ġren o
Ġpresen tar
Ġnatura les
Ġar ro
min is
o pera
min aciÃ³n
Ġcuida do
Ġha ga
ĠpÃºbli cos
Ġpubli cidad
Ġescri bir
dal u
vi lla
Ġani males
Ġcru z
Ġciu dades
Ġso ft
Ġvelo cidad
Ġba ra
ĠmÃ³ vil
du ras
Ġcon cen
ĠÃ©s te
Ġse cciÃ³n
Ġos cu
Ġpon e
Ġpos terior
ĠfÃŃsi ca
Ġcono cido
Ġescri to
Ġconver tir
Ġamen a
mor ia
Ġdi fi
Ġdes ea
Ġbo ca
Ġinterna cionales
ĠmÃ© dico
Ġhech os
Ġfav ori
Ġk i
Ġcien cia
f ra
Ġfi esta
s er
Ġca bal
Ġobs erva
Ġcumpli r
Ġdes tino
Ġmo tor
Ġ ran
Ġen tidad
Ġf lo
Ġen fo
a miento
Ġimp osi
Ġprin cipios
s es
Ġkil Ã³
? ?
Ġ &
Ġex tran
Ġ3 1
Ġva caciones
Ġb er
Ġex terior
, ,
te ras
Ġocas iones
Ġanton io
ti que
Ġcom pa
Ġciudad anos
ta mbiÃ©n
ĠgÃ©n ero
Ġvivien da
om as
Ġres oluciÃ³n
Ġespe ran
Ġas u
Ã³gi ca
mis iÃ³n
Ġch ina
ÃŃ ritu
Ġb eb
tra ciÃ³n
Ġfir ma
os os
ul as
Ġpe lo
Ġvi lla
ja ja
ĠpÃºbli cas
f Ã©
f in
Ġconf li
Ġcu esti
on os
Ġespec ta
Ġno ta
Ġtea tro
Ġpes os
d ÃŃ
ri que
2 4
Ġesp ero
Ġdes cri
g rÃ¡
Ġnego cios
Ġcons tante
Ġleg al
Ġp rac
Ġmu er
Ġclas es
di za
Ġb os
Ã± ar
Ġinstitu ciones
h er
Ġtrans forma
Ġres pec
Ġme moria
Ġfedera l
ĠbÃºsque da
Ġ19 7
Ġenferme dad
ra les
Ġg er
a un
Ġau tÃ³n
Ġqui Ã©n
Ġsiti os
Ġo tor
Ġins pi
ĠpelÃŃcu las
Ġrev ista
ma damente
s or
Ġnor mal
Ġcal or
Ġdescar gar
Ġsatis fa
Ġcon cre
Ġre ce
Ġ %
Ġdis cu
Ġus a
Ġcomp on
Ġad mi
Ġofici na
Ġni e
cia do
Ġbo li
Ġan al
ez as
ha y
cul tura
Ġab or
Ġe fica
Ġdeber ÃŃa
ra ciones
u do
Ġtele visiÃ³n
Ġsoft ware
Ġex is
Ġdeber Ã¡
Ġcuar to
n ues
Ġes ca
Ġpreci sa
Ġperfec to
ter os
ĠÃ¡mbi to
Ġp ena
Ġm ala
Ġesp ÃŃritu
mu la
Ġcole gio
pÃ³ sito
Ġnor mas
ĠrÃ¡pi do
Ġdifi cul
Ġcur sos
ĠpolÃŃ ticos
z ca
Ġactu alidad
d ri
Ġju ven
Ã± ado
cia ciÃ³n
Ġterri torio
Ġre a
Ġme ta
tia go
Ġdiver sos
Ġconcep to
Ġimpa cto
ĠÃ¡ reas
Ġcapa z
se gÃºn
Ġdeman da
s en
Ġbus cando
za miento
Ġaz ul
Ġreun iÃ³n
e ar
Ġse mi
gi ca
Ġrepro du
Ġespe ciales
Ġfamili ar
Ġai res
Ġcu yo
Ġsi ete
Ġdisponi bles
Ġfrancis co
Ġdepor te
Ġfor ta
Ġfunciona miento
Ġref orma
Ġfin es
ta miento
Ġru ta
uni den
Ġconsul ta
Ġi i
Ġmie do
Ġeurope a
Ġlec tura
Ġpubli cado
Ġmu l
Ġaca dÃ©
ĠâĢ ¢
cu la
Ġaca ba
di das
Ġpa blo
Ġman da
i as
pe z
Ġpresu puesto
Ġtradi cional
Ġter ren
Ġmar tes
Ġk m
Ġcolabora ciÃ³n
Ġman uel
Ġbar rio
Ġgenera ciÃ³n
Ġen cu
Ġsu ma
Ġfue go
gu ar
Ġprue bas
Ġe e
Ġdes tru
Ġapli car
z on
Ġmus eo
Ġcual quiera
Ġequi pa
Ġsuper fici
Ġvictor ia
Ġde ri
Ġpe dido
Ġexp osiciÃ³n
Ġnu tri
Ġf le
Ġre for
Ġal tura
Ġre uni
Ġmi les
Ġh Ã¡
Ġenf ren
Ġfuer zas
Ġcom ba
Ġdis minu
g Ã³n
Ġenvi ar
Ġs h
i cio
tari as
i das
Ġindustri al
Ġs ÃŃn
Ġcas as
Ġcu estiÃ³n
Ġli cencia
Ġestrate gia
Ġmar cas
gen cias
Ġ8 0
Ġpreo cupa
Ġale man
Ġprodu c
u t
2 3
Ġimp le
lÃŃ ni
in aria
Ġminis tro
Ġmi tad
Ġlegis la
Ġma dera
on ia
Ġter cera
Ġmarke ting
Ġ ras
p ri
gan te
Ġmon e
Ġses iÃ³n
Ġinf ra
i mo
Ġf res
Ġde ten
Ġneces aria
h oy
Ġinsta laciÃ³n
Ġcan al
Ġado les
Ġmig uel
Ġllama da
Ã¡n dez
Ġestado uniden
Ġdes cono
ĠÃ¡ r
dre mos
l Ã³
te les
p li
Ġt ÃŃ
Ġgar cÃŃa
ti ble
d y
Ġal qui
Ġplan tas
Ġgo berna
Ġdiver sas
Ġfestiv al
Ġdi v
Ġpropi os
Ġvis iÃ³n
Ġpregun tas
Ġalcan zar
vi er
Ġenla ce
g ÃŃa
Ġe p
Ġg esti
c ero
Ġmi cro
Ġs or
Ġdocu mentos
Ġa vi
Ġesta rÃ¡
Ġvenez uela
es t
ues ta
Ġsolu ciones
Ġd ando
Ġfin almente
le y
ĠvÃŃ deo
d ando
Ġar gu
Ġchi cas
Ġevalu aciÃ³n
Ġhab rÃ¡
Ġconfi anza
Ġtribun al
c lar
en tre
ti rÃ¡
Ġcons erva
Ġeta pa
c Ã³n
Ġpe dro
ĠkilÃ³ metros
te o
tu vo
Ġgenera les
mi ci
Ġarri ba
cion ada
ĠcrÃ©di to
ue las
* *
Ġpor no
Ġinicia tiva
Ġestu vo
le o
Ġveh ÃŃculos
Ġau mento
Ġje fe
Ġa trÃ¡s
mÃ¡ ticas
g Ã¼
Ġca ja
Ã©n dose
Ġcole cciÃ³n
Ġw in
Ġgra ve
Ġne ga
Ġedifi cio
b los
Ġvisi tar
Ġdesa par
Ġesfuer zo
m m
Ġan dalu
Ġfigu ra
Ġdebe mos
Ġse de
Ġperio do
ĠlÃŃ der
Ġre cha
de res
Ġde creto
Ġg on
Ġcomp or
o li
âĢ ¢
Ġam ista
Ġc lÃŃni
Ġsi l
Ġgu ÃŃa
Ġjus to
Ġinteres es
Ġc m
Ġten iendo
Ġqu eri
wit ter
Ġm ente
or ÃŃa
Ġsu a
201 8
aun que
Ġes cal
y ec
Ġan a
as ÃŃ
Ġv ino
2 2
Ġa ero
Ġo cho
Ġco opera
Ġau dio
Ġlla mar
Ġarqui te
Ġco pa
Ġas is
Ġmis mas
Ġmara vil
Ġelec ciones
Â °
Ġgus to
p ol
Ġf ol
us i
Ġba i
Ġindepen diente
Ġhubi era
er no
Ġap enas
Ġla tino
Ġf lor
Â» .
ÃŃsi mo
Ġsan tiago
Ġcomer ciales
Ġdi cen
Ġvi deos
Ġgol pe
Ġcu ba
Ġjun ta
gue z
di mos
Ġapar ece
Ġ9 0
Ġta les
Ġblo que
Ġcon curso
Ġfran cia
i al
i z
ĠÃºlti mas
tien en
Ġtra tar
Ġo li
Ġcumpli miento
Ġizquier da
Ġl ech
Ġcal les
Ġre por
gi men
un tos
Ġries gos
Ġen e
Ġco ti
Ġt v
Ġasegu rar
Ġnum eros
os as
Ġna cionales
mi dad
Ġmensa jes
ĠÃ¡n gel
ĠÃ¡ l
Ġf en
Ġb ru
Ġven tas
Ġconsi gu
t res
Ġfu entes
Ġl lu
Ġdo mici
Ġrequier e
Ġesta d
Ġconsu mi
d ario
Ġinfan til
le z
Ġdise Ã±a
ĠhÃ¡ bi
Ġan teriores
Ġapren diza
Ġt esti
Ġcor to
Ġcir cun
Ġca ma
Ġqu erÃŃa
Ġdes can
Ġ om
ca te
Ġvi vo
Ġra di
Ġcomen zÃ³
ĠÃ©s ta
Ġprofes or
Ġcien cias
Ġfeli z
Ġinstitu ciÃ³n
f u
Ġd ue
Ġacom paÃ±a
era l
Ġveh ÃŃculo
Ġac or
Ġmez cla
p l
vi mos
Ġre pe
Ġcu ya
ba ciÃ³n
p ue
x to
Ġlar ga
Ġcompro me
Ġi di
Â «
Ġdu ra
Ġtien das
Ġyo u
Ġpe dir
Ġhabi taciones
ĠÂ »
Ġtri tura
Ġglo bal
ciona das
Ġnave gaciÃ³n
Ġcono cimientos
n er
ra mos
es tructura
Ġen tidades
Ġres u
Ġpre via
Ã©n do
Ġhi ja
Ġace ite
Ġcomple tamente
Ġg eo
Ġaban don
Ġro mp
Ġli ga
Ġquier en
Ġcele brar
Ġlle gado
Ġe cu
m ue
Ġdef in
ĠrÃ© gimen
Ġa gencia
Ġh ol
Ġdel ante
Ġorgani zaciones
Ġdere cha
Ġfamili ares
Ġdu das
ĠlÃŃn eas
di dad
Ġpe or
. âĢĿ
Ġabri r
Ġenferme dades
Ġen rique
Ġpres iÃ³n
Ġhu mana
Ġ xi
Ġempres ari
Ġtrabaj ando
r ue
gra cias
b Ã³
Ġre qu
Ġredu cir
Ġgaranti zar
Ġpermi ten
g era
Ġgan as
Ġs ho
Ġpri ma
ĠprÃ¡c ticas
Ġpriva cidad
Ġsola mente
Ġl Ã³
Ġre quisi
Ġfin ales
da mos
Ġsan i
Ġ7 0
g us
ww w
Ġrespe to
Ġdistribu ciÃ³n
Ġestable cer
Ġmen ores
Ġpermi tir
p uer
Ġcons en
Ġencan ta
Ġfa cul
us e
Ã¡ r
Ġrecor dar
Ġle jos
s s
Ġma g
Ġdi Ã¡
Ġter ror
Ġcon voca
Ġpo bre
Ġprove e
Ġpromo ciÃ³n
Ġse cun
Ġes en
Ġalgun o
Ġgas tos
Ġhtt p
Ġpersona je
Ã³n de
Ġ3 5
Ġsegu ros
Ġnave ga
t un
Ġbel leza
Ġcuen tas
Ġsabe mos
a a
Ġri t
Ġmin i
Ġcon clu
Ġa man
Ġy ork
Ġplan es
mi go
qui lla
Ġas cen
Ġpas os
isi ones
Ġpro hi
fica dos
Ġespera r
ver s
Ġsal Ã³n
til las
Ġimp lica
ca ra
Ġo cul
Ġdi go
Ġr on
Ġal u
Ġfor mul
Ġcompe tencia
8 0
Ġn Âº
ech o
Ġabier to
Ġb la
Ġplan i
Ġdar le
Ġpi ezas
Ġvia jes
-- --
Ġrecu erdo
Ġtecno logÃŃas
a y
bi o
Ġfor mar
Ġprimera s
Ġab ra
Ġgon z
Ġpsi co
Ġpu do
Ġenv ÃŃo
gi as
Ġherramien ta
Ġsitu aciones
Ġre i
Ġaque lla
cial mente
9 9
e os
l on
Ġo cu
Ġr ue
Ġro de
Ġreg al
ch ez
m ismo
ĠlÃ³ pez
pu bli
Ġv ali
Ġaquel las
Ġca mi
du rante
Ġimp er
Ġem er
Ġtitu lar
t Ã©n
Ġproce dimiento
Ġap er
Ġdeci siones
p les
Ġper iÃ³
Ġd Ã³nde
Ġsolici tud
p es
Ġper ÃŃo
d f
ti ma
Ġcon vir
m Ã©
Ġcre ado
Ġescu char
Ġl len
di ce
Ġsus pen
Ġca u
Ġ @
ta des
Ġci ta
ri as
Ġcomenta rio
Ġde bes
Ġemp a
Ġcu mple
Ġsex ual
Ġmec an
Ġexclus iva
fici encia
Ġobs tante
Ġa bajo
Ġtempera tura
mÃ¡ ticos
cep ciÃ³n
Ġali mentaciÃ³n
Ġpreven ciÃ³n
Ġsue Ã±o
Ġveci nos
Ġcom un
Ġas pecto
Ġsen si
Ġcontinu ar
ĠmÃ¡xi ma
Ġaprendiza je
Ã³ r
Ġb il
car se
Ġhabi taciÃ³n
da dos
Ġenor me
Ġvari edad
Ġpie dra
Ġnove la
Ġc ue
Ġcic lo
da ciÃ³n
Ġf ri
Ġexper tos
Ġpuer tas
ti lla
ÃŃ r
Ġdi vi
Ġamb as
f on
Ġdes pe
ĠpÃ©r dida
Ġp Ã©
Ġrecono cimiento
Ġfoto grafÃŃa
gi dos
Ġintegra l
Ġlle gada
Ġval en
Ġbibli ote
Â ª
Ġin au
Ġx x
x a
men es
Ġpresi den
Ġval le
ah ora
Ġfas e
Ġpar la
Ġemba ra
Ġescen ario
Ġr enta
ĠmÃº lti
Ġsecre tario
Ġsal e
ĠmÃŃni mo
Ġentre vista
Ġrecor rido
Ġpue blos
Ġdeba te
mi cos
Ġarchi vos
ori os
Ġcel ular
d in
Ġc Ã¡n
Ġre to
Ġha cÃŃa
Ġopera ciones
Ġjuga dor
Ġf lores
Ġcomp u
Ġcolom bi
Ġi do
Ġconse jos
l ina
Ġmo to
Ġagu as
n es
Ġh eri
Ġro jo
ros o
c Ã©s
e i
v iendo
Ġ200 6
Ġconsecu encia
ex iÃ³n
Ġposi bilidades
gi co
Ġve o
Ã¡n ica
Ġsector es
in ci
Ġre ino
Ġopera ciÃ³n
) ;
Ġley endo
Ġmili tar
Ġrestau rante
Ġtarje ta
Ġquiz Ã¡s
Ġan o
Ġren dimiento
ti o
si on
Ġconside rar
Ġdor mi
Ġposi bles
ð Ł
Ġp p
ÃŃ da
Ġpor ta
vi d
Ġca bel
Ġsus titu
Ġuni dades
Ġa se
Ġexperien cias
Ġcompe ten
Ġre mo
Ġpro puestas
Ġder ro
el l
Ġbrasi l
Ã³gi co
in ar
Ġtor re
teri os
Ġnoti cia
ĠcompaÃ± eros
Ġtor ne
rup ciÃ³n
Ġhu bo
ĠhistÃ³ rico
car on
Ġs Ã¡n
Ġh uel
Ġinno vaciÃ³n
gua y
Ġofer tas
Ġinau gu
Ġd r
Ġw ww
Ġtrans par
Ġgenera r
p Ã¡
Ġpremi os
Ġforta le
Ġse para
Ġforma to
Ġf om
Ġfal le
Ġ â
Ġau men
Ġla bor
Ġfe men
Ġdesemp e
Ġpor tal
Ġhi cieron
Ġorgani za
Ġcon tiene
Ġle Ã³n
Ġcomuni dades
Ġi tali
Ġqu ÃŃ
Ġenf r
Ġme tro
Ġmedi ca
Ġatra c
Ġac tiv
Ġpo tencia
gh t
Ġsuperfici e
Ġch o
Ġpeque Ã±as
Ġres olver
2 7
Ġrep ar
Ġcircun s
li do
cu ra
der os
Ġconfigu raciÃ³n
Ġcomien za
Ġas isten
Ġadul tos
Ġsom e
a t
2 1
Ġ >
d ante
Ġir re
Ġalo ja
Ġter ra
tis mo
Ġaproxi madamente
Ġtri un
gu i
Ġt witter
Ġdis pu
Ġdi c
Ġfa ctores
Ġiden tidad
Ġexisten cia
Ġer r
Ġv aria
en os
te des
Ġma te
Ġac re
Ġten gan
Ġsue le
tu ales
ali zados
le t
Ġvuel ve
Ġf la
Ġer ror
Ġdis tri
Ġcli ma
Ġja p
Ġzapa tos
e la
Ġconstitu ciÃ³n
Ġincre ÃŃ
tu mb
Ġinclu yendo
Ġt rÃ¡
en se
Ġv ar
l lan
cra cia
m un
Ġop ti
Ġprincip almente
Ġinter cambi
gi Ã³
Ġrela cionados
Ġca fÃ©
Ġd ul
Ġimposi ble
Ġv olu
Ġreali zÃ³
h n
Ġperman ente
can tes
Ġaper tura
Ġcos to
Ġv ul
Ġasi gna
Ġmaravil los
Ġper Ãº
me tro
ĠseÃ± ala
Ġraz ones
b y
z co
Ġre ca
tri z
graf ÃŃas
Ġvin cu
u la
Ġch e
ec ÃŃa
Ġas pi
Ġrecupera r
Ġu ru
ÃŃ gen
Ġhis torias
Ġubi caciÃ³n
Ġi lu
Ġrecuer da
Ġpodr ÃŃan
Ġherman o
Ġsenci lla
Ġsenci llo
3 3
Ġtermin ar
Ġexpres iÃ³n
Ġson ido
ĠmÃ© todo
2 6
c Ã©
ti mos
Ġgratu ita
Ġsupon e
Ġl Ã¡
Ġcondi ciÃ³n
Ġpeli gros
g es
Ġamista d
Ġv os
Ġdu raciÃ³n
Ġofre cen
Ġelec ciÃ³n
Ġcomer ci
Ġpre vis
tis ta
Ġespeci e
Ġin cen
Ġdes eo
ÃŃtu los
Ġhab rÃŃa
olu cion
Ġata que
m ero
Ġhi er
Ġd ro
ĠprÃ³xi ma
Ġadi cional
Ġsimi lar
Ġque dÃ³
Ġnor m
Ġna ciÃ³n
Ġpri vado
Ġconstru ir
Ġte j
ri cos
Ġejecu tivo
Ġcu bier
Ġfar ma
f al
Ġta ri
Ġsigu en
me j
Ġingres os
k y
ti miento
Ġpo dido
Ġutili zando
Ġelecto ral
ĠÃ¡r bol
Ġcon cur
Ġpa isa
Ġdes per
Ġcap ÃŃtulo
Ġjudi cial
p ren
Ġali men
Ġjun tos
Ġvi ta
Ġcorrespon diente
Ġdes cen
Ġcul pa
Ġblan ca
Ġley es
ĠcÃ¡ r
Ġres istencia
Â» ,
Ġartis tas
Ġde b
Ġju z
Ġga ma
Ġac tos
cular es
Ġdetal le
Ġt ris
Ġte ra
Ġman ual
Ġas istencia
ech as
Ġ19 6
Ġarchi vo
Ġpen al
Ġdesta ca
Ġamp lio
i tos
k er
Ġc Ã©
Ġdire cta
Ġpues tos
Ġfi los
Ġoportuni dades
ga das
Ġne gra
Ġpas Ã³
Ġequi li
Ġinte le
Ġar mas
Ġambien tal
Ġta mbien
Ġci elo
Ġins tal
Ġso porte
Ġp c
Ġtran si
Ġus tedes
Ġmusi cal
Ġde trÃ¡s
Ġca dena
Ġelimin ar
c rÃ¡
Ġanun cios
Ġpis o
Ġin con
Ġdisposi tivos
Ġcarac teri
mi tes
Ġinfor mÃ³
a ba
Ġconstitu cional
Ġsos teni
Ġaleman ia
Ġpatri monio
Ġper ju
Ġprote ger
om e
Ġap un
Ġdej Ã³
res a
Ġpre fi
Ġfon dos
Ġpres entes
Ġinten tar
Ġadecu ada
Ġha ci
Ġprodu ce
Ġe tique
Ġv era
Ġt ren
Ġg or
ga mos
Ġhar Ã¡
Ġregi onal
s to
s ado
Ġsi len
Ġper fil
z i
ĠtÃ©cni cos
Ġasegu ra
Ġal co
3 9
Ġtrans mi
ha ce
Ġsecre tarÃŃa
ti eron
Ġac os
Ġdomici lio
Ġfer ia
ma da
Ġmo d
ciona miento
y an
Ġedi torial
Ã¡ mica
Ġhace mos
Ġcla ra
bi das
ÃŃs ticos
Ġeurope o
4 5
Ġplan eta
u ro
Ġdu ro
Ġjor ge
Ġcan ciÃ³n
tu des
ĠrÃ¡pi da
Ġalcan ce
Ġlimp ieza
g ran
Ġdes con
Ġhay an
Ġapar ta
Ġobje tos
ĠperÃŃo do
le ta
Ġemp ez
Ġej Ã©r
2 8
Ġacep ta
ĠsÃ¡n chez
Ġmi c
ja da
Ġsan to
Ġinfra estructura
Ġci ru
Ġmis iÃ³n
Ġverda dera
Ġ =
Ġrit mo
Ġconci encia
Ġde dica
Ġp lena
Ġa go
Ġdes pi
Ġaca bar
Ġherman os
Ġlitera tura
ti das
Ġsu i
Ġinfor mar
Ġencontra mos
Ġartis ta
Ġcon exiÃ³n
ĠespaÃ±ol es
Ġaero puer
0 9
ph one
Ġcan ciones
Ġvi ve
Ġade lan
Ġp ana
Ġgaran tÃŃa
Ġan alizar
Ġintele ctu
Ġca tÃ³
Ġesc ala
Ã¡ is
t Ã¡s
Ġser es
qu inas
Ġgus tarÃŃa
Ġprome dio
men t
Ġrequisi tos
er ta
Ġpa que
mi cas
i de
Ġesta ciÃ³n
Ġes con
Ġre da
Ġpro pÃ³sito
Ġvi gi
Ġten ÃŃan
Ġver i
Ġini ciar
Ġsecun d
di mientos
ĠÃ³r gan
Ġpas ando
ona to
ĠvÃŃcti mas
Ġesta tal
Ġsen tencia
Ġorgan ismo
Ġconta c
Ġantigu o
Ġca mis
Ġco inci
Ġcier re
Ġr in
ado ra
Ġreci bido
n ia
Ġac tiva
Ġmiemb ro
ÃŃ z
k s
ta lia
Ġau tores
Ġterren o
Ġr osa
Ġro ck
b ana
Ġhi po
Ġpare jas
Ġpers pec
di era
om o
Ġman tiene
Ġparticip antes
Ġinterven ciÃ³n
Ġp lÃ¡s
Ġbol sa
Ġ3 6
Ãº car
Ġest Ã©n
3 5
Ġp lu
Ġprecisa mente
Ġcar ne
versi dad
Ġg rÃ¡
Ġsi quiera
Ġfran ces
in te
Ġreali zaciÃ³n
Ġjue z
Ġag ri
Ġsoli d
Ġdisposi tivo
al e
Ġma gn
Ġpre parar
Ġex pe
Ġpri ori
Ġima gin
2 9
Ġv es
Ġfa ctura
Ġcer eb
ter s
Ġllev Ã³
g ri
r Ã©
Ġpor tu
de dores
Ġhabi tantes
Ġemple ados
an i
Ġso cio
Ġautori dad
Ġpi es
Ġva ya
p lan
) :
ĠmÃºlti ples
Ġda Ã±o
Ġcli c
Ġau mentar
Ġrev oluciÃ³n
Ġa la
va da
Ġcontro lar
Ġcal en
Ġsir ve
Ġbre ve
u d
Ġre ac
Ġfin alidad
Ġ4 5
Ġescen a
Ġimp e
am ble
de ras
Ġs te
sa ciones
Ġpriva da
ÃŃa mos
Ġpar ecer
Ġdepor tes
Ġabier ta
Ġse villa
Ġev oluciÃ³n
Ġvi ven
Ġsen saciÃ³n
Ġsab or
Ġdescubri r
Ġa gentes
Ġfu tbol
Ġestadouniden se
Ġju icio
dr ÃŃ
Ġni Ã±as
ma to
Ġmi rada
Ġubi cado
u tili
Ġdi cta
Ġdeba jo
Ġt on
Ġba jar
Ġhon or
e dades
Ġconver tido
Ġen sa
Ġc l
Ġna vidad
Ġcre e
Ġtex tos
Ġre lo
Ġfi estas
Ġp leno
Ġc ro
Ġf ras
Ġdes en
Ġres pi
Ġmane jo
Ġmedi cina
un g
Ġen a
ĠtÃ©rmin o
t ch
Ġcu mp
Ġval e
Ġapar e
Ġde tec
an ce
Ġtri bu
Ġloc alidad
Ġacces orios
Ġalcal de
drÃŃ guez
p in
Ġinf ec
Ġfern ando
Ġcon ferencia
qu en
tien de
Ġta rea
Ġrecono cer
ari ciÃ³n
Ġpe ti
Ġcontin Ãºa
Ġextra ord
Ġocur re
om os
Â ³
ĠtÃŃ pi
Ġneces arios
Ġri co
Ġtrans por
Ġnom bres
Ġconte xto
Ġtorne o
Ġas amble
Ġexp an
pues tos
Ġsu bir
ĠseÃ±al Ã³
Ġro man
Ġestable ce
Ġar ran
Ġpreo cu
do ws
es pera
Ġque dan
Ġpro bar
Ġcan ce
Ġgas tron
Ġpaci ente
Ġrus ia
Ġla tina
Ġdi men
tu be
Ġda vid
Ġtor no
Ġin versi
Ġpes e
Ġigual dad
c ÃŃas
cios o
Ġpos ee
Ġmovi mientos
Ġf ren
Ġpo cas
Ġsolici tar
Ġencontra do
vi era
Ġespec tÃ¡
3 6
r do
Ġcon den
Ġcamp os
ta lidad
qui a
Ġ5 00
Ġreg alo
Ġinclu ir
tran do
Ġvolu men
Ġro bo
fica da
Ġuniver so
Ġlech e
i vos
ci entes
Ġsa ben
c tamente
Ġdes pla
des puÃ©s
Ġe co
ta dor
Ġbas es
Ġsitu ado
li zaciÃ³n
Ġro drÃŃguez
Ġfran cÃ©s
Ġargen tino
Ġdeco raciÃ³n
Ġinten ciÃ³n
Ġacep tar
Ġli dera
Ġreci ente
ĠbÃ¡s ica
Ġinten si
es ÃŃa
Ġaz Ãºcar
capa cidad
w n
k ing
Ġanti gua
Ġestra tÃ©
ĠenseÃ± anza
Ġtru mp
Ġve ge
Ġlle van
ha t
th e
Ġfan tas
Ġofrece mos
Ġformul ario
Ġexpli car
cas o
Ġpresenta do
Ġdeber Ã¡n
Ġpin tura
Ġdej ado
Ġenfr enta
Ġpe da
Ġconta ctos
li co
Ġinvi erno
Ġarre g
Ġbenefi cio
r us
Ġv istas
Ġch il
Ġfedera ciÃ³n
Ġv el
ĠestÃ¡n dar
Ġvia jar
Ġmatri monio
Ġex ac
u p
osi dad
Ġti er
Ġres er
Ġdis cip
Ġutili zaciÃ³n
Ġbi ci
Ġn er
Ġin o
Ġper dido
Ġprofes ores
ĠfÃŃsi co
Ġjard ÃŃn
Ġpreten de
Ġaca de
ĠejÃ©r cito
Ġde jo
ter ra
ĠmÃ© dicos
Ġcarre tera
Ġlengua je
Ġch ico
Ġerr ores
tado ra
Ġdan i
Ġp uso
Ġa tribu
Ġconsul tar
Ġad ver
Ġejecu ciÃ³n
Ġexpli cÃ³
ĠÃºnica mente
Ġsuel en
Ġda Ã±os
n era
mi l
Ġperfec ta
Ġven der
Ġa is
w i
Ġesta tu
Ġten dencia
Ġalqui ler
ar te
an ÃŃa
Ġj er
Ġbienes tar
di ciÃ³n
Ġper u
Ġza ra
Ġpensa miento
Ġbeb Ã©
ra el
Ġex por
Ġdecla raciÃ³n
b s
Ġintrodu cciÃ³n
Ġcomp li
Ġinclu yen
Ġcris to
j al
Ġpro gres
ĠrÃ¡pi damente
Ġrestau rantes
Ġmo tivos
Ġhabi tual
Ġinteli gencia
e le
ti mo
Ġcons iste
a dores
Ġcelebra ciÃ³n
Ġesperan za
ci en
Ġpas ada
Ġing re
lan d
Ġrespon der
Ġcon tes
Ġdispon e
Ġrepresen tantes
Ġwin dows
Ġv Ã¡
ven cia
Ġcuen tan
Ġal ar
Ġnavega dor
Ġtaller es
Ġcu bri
Ġfunda mentales
Ġresponsa bles
Ġafir ma
Ġcono cida
u Ã±a
Ġme tal
Ġsegu ra
Ġfuncion arios
Ì ģ
Ġni Ã±a
Ġtan tos
7 0
Ġma du
t ones
Ġpro to
Ã¡ lez
Ġcom para
eri ores
Ġmin era
Ġpa pa
Ġha bilidades
Ġpues ta
Ġag res
Ġprovin cial
Ġta reas
Ġvisi tas
ĠÃº til
f re
Ġescu ch
Ġimpres ion
Ġvenez ol
Ġoc ci
Ġk e
Ġale g
Ġs pa
Ġpresen tÃ³
Ġsab es
Ġtendr Ã¡n
Ġprodu cir
Ġcabel lo
Ġnave gando
Ġconfor me
Ġ ..
Ġimpor ta
Ġsien to
tra l
Ġadecu ado
Ġpropie dades
Ġbibliote ca
Ġsu ces
ĠmÃ¡ quina
d ona
Ġefec tu
Ġesc uelas
Ġdomin io
Ġdi visiÃ³n
Ġcons oli
Ġami ga
" :
Ġingeni erÃŃa
Ã³ men
Ġref u
Ġchi cos
ĠcÃ¡n cer
Ġe d
Ġop osiciÃ³n
ĠmÃ³ viles
Ġl lena
po li
Ġconsecu encias
el es
u ri
Ġcomp ras
Ġ200 5
Ġmer cados
p ul
Ġau ton
ĠnÃºm eros
Ġbri tÃ¡n
o t
s ores
Ġa bre
Ġtele f
as e
j Ã³
t Ãº
Ġde m
Ġreci biÃ³
Ġactu aciÃ³n
Ġredu cciÃ³n
es tos
Ġsol ar
Ġfacili tar
Ġcomi tÃ©
Ġgoberna dor
Ġma pa
Ġesp al
Ġneces arias
Ġaeropuer to
te m
Ġentra das
Ġpun ta
Ġasegu rÃ³
Ġlabora les
Ġfrecu encia
Ġrequ eri
Ġt rÃ¡fico
Ġofi ciales
Ġsegui miento
Ġcon clus
Ġemp ieza
Ġhora rio
Ġpubli car
Ġsupera r
o logÃŃa
Ġbene fici
Ġ3 00
l is
Ġreci be
Ġcri min
Ġprac ti
Ġmi rar
Ġcar b
ini ones
es iÃ³n
Ġja vier
b ros
Ġsua ve
Ã© tico
Ġmaes tro
Ġcon creto
Ġestable cido
Ġan ual
ir se
Ġgonz Ã¡lez
Ġutili zado
Ġases ina
Ġentre gar
Ġdesa y
Ġquiz Ã¡
3 4
gi os
Ġpe le
ra das
Ġpas e
Ġcultura les
Ġacu er
Ġmer can
Ġcer rar
Ġfinanci era
Ġvolun tad
Ġsal vo
Ġpos e
Ġasi mismo
que z
Ġna ciones
Ġru ral
Ġor g
Ġfen Ã³men
Ġmu r
Ġcomple jo
Ġcu i
Ġsegun dos
Ġindividu al
mar t
mes tre
Ġpro tes
gan tes
5 5
Ġfras es
Ġfi ja
Ġestrate gias
Ġh Ã©
ha bili
Ġmos tra
Ġau tÃ©n
il las
Ġop iniones
Ġorden ador
Ġverda dero
Ġtris te
Ġga fas
Ġcontinu a
Ġdi pl
bi os
com uni
Ġdepor tivo
Ġcomb ina
ta res
Ġac la
ĠelectrÃ³n ica
ri endo
grÃ¡ fica
Ġta sa
Ġhab lando
Ġorgani zado
do ras
Ġale jan
ĠcrÃŃ tica
ĠaÃ±a dir
Ġidenti ficar
bu r
ber n
Ġdemo crÃ¡
Ġdemo cracia
ci ta
Ġi b
v enta
Ġin mo
Ġan dro
Ġpi lo
Ġhu mor
Ġis rael
Ġfuer tes
Ġavis o
Ġempresari al
ĠprÃ³xi mos
Ġa ir
Ġnecesi tas
Ġas tu
Ġas unto
Ġele mento
Ġapar tado
Ġl leno
Ġch u
Ġx vi
Ã³s tico
Ġca er
Ġ201 9
Ġne w
m Ã©s
Ġor gu
tes is
gra do
Ġestudi ar
Ġhuman idad
Â ´
Ġima gina
Ġdesta car
Ġvie jo
Ġa mar
Ġcier ta
Ġcha t
olÃ³gi co
Ġarquite ctura
g s
Ġre ve
Ġres pal
Ġpeli gro
Ġso le
Ġw il
Ġsup re
Ġdi eta
Ġfr ÃŃo
o la
Ġuni do
Ġdistri to
. )
Ġso f
Ġfle xi
Ġnorma tiva
b r
Ġa qui
Ġclasi ficaciÃ³n
d ras
Ġto ca
Ġmani fi
h ol
Ġcon ti
tis tas
Ġnecesi tan
Ġso por
9 0
Ġho teles
Ġre ales
% .
Ġt r
Ġpue das
Ġtrans for
Ġpala cio
Ġtradi ciÃ³n
Ġt in
Ġpla cer
Ġini cial
Ġposterior mente
Ġdi aria
Ġe ficiencia
ma ti
vien e
Ġconfli cto
Ġuniver sal
Ġju ris
Ġpis cina
Ġex ter
Ġconvi erte
Ġacci dente
Ġena mo
m ÃŃ
Ġser ies
Ġve mos
Ġnove dades
Ġri ca
Ġreci Ã©n
ci les
c ÃŃan
Ġci f
Ġcorrespon de
Ġregla mento
t Ãºa
re ra
Ġbo le
Ġperfec tamente
ĠdÃ© cada
an da
bi l
Ġlu jo
ĠseÃ± ora
Ġre tro
Ġi talia
Ġta b
Ġjo hn
en das
Ġco cin
Ġbien ven
Ġvien en
ĠpÃ© rez
Ġcom unes
Ġdes cripciÃ³n
Ġnue ve
Ġins cri
Ġrefle xi
t z
Ġinclu ido
Ġv iendo
pen sa
Ġs ta
Ġro ber
Ġde cÃŃa
d d
s ÃŃ
Ġl lo
Ġhar ry
Ġrepresenta ciÃ³n
ma ras
Ġpu ente
Ġdi eron
bri o
Ġaten der
5 00
co la
Ġmon te
Ġases ora
Ġfilos of
Ġha go
Ġ20 00
Ġinf erior
Ġcua dro
Ġsalva dor
Ġg r
Ġca ÃŃda
Ġauto mÃ¡tica
Ġte orÃŃa
Ġle tras
ĠÃŃn dice
Ġinvestiga ciones
? ,
Ġf echas
Ġolvi dar
Ġco ber
0 7
Ġpens ando
Ġcompor tamiento
Ġfacul tad
i ona
Ġin e
Ġres puestas
Ġcategor ÃŃas
Ġelabora ciÃ³n
Ġacon te
Ġcons ta
Ġro l
Ġaven tura
di lla
Ġgan an
Ġesco lar
Ġlle vado
Ġpu tas
gu en
Ġingres o
Ġestre llas
Ġmonta Ã±a
Ġpros titu
ĠsÃŃn to
0 1
Ġa pa
!! !!
Ġparticular es
Ġsub s
Ġsi mp
Ġesp osa
Ġefec tivo
Ġevi dente
in ter
me z
Ġl or
Ġvi das
ĠeconÃ³mi cos
Ġgi ra
Ġdenom ina
Ġprepara ciÃ³n
Ġmexi cano
Ġprotagon ista
Ġdem ues
Ġre paraciÃ³n
Ġasamble a
Ġp df
Ġa para
Ã¡ tico
Ġmen tal
Ġpoten cial
Ġrecupera ciÃ³n
Ġal tos
. "
lan o
Ġimp uestos
ĠmartÃŃn ez
vers ario
Ġcu esta
tan o
Ġac tor
Ġinf ini
Ġja mÃ¡s
Ġa j
Ġcu Ã¡l
Ġdefini tiva
Ġconvoca toria
Ġ âĤ¬
... )
ĠvÃŃ deos
Ġcon vo
Ġpan tal
Ġvien to
Ġdepen de
m ba
Ġcomuni cado
Ġrefi ere
te la
to l
Ġconcep tos
Ġb ea
Ġacre di
Ġvul nera
Ġrecur so
Ġactu ales
Ã³lo go
Ġapar ecen
Ġfoto grafÃŃas
Ġcor rupciÃ³n
Ġbus can
Ġqueda do
- ,
ĠclÃ¡s ico
Ġi v
Ġcier tos
ĠmÃ© todos
Ġanun ciÃ³
j ue
cion alidad
Ġpropor cionar
3 8
Ġcal iente
Ġher n
Ġdescar ga
bu eno
ĠelÃ©ctri ca
Ġdescu ento
Ġedifi cios
Ġelec tri
or Ã¡n
Ġdi fun
Ġpie za
Ġas untos
Ġrecom ien
z z
Ġdesa f
don os
Ġcasti llo
0 8
er en
di re
tr ÃŃa
Ġexp on
Ġexp ec
Ġadqui rir
ĠhistÃ³ rica
Ġaque llo
ĠprÃ¡ctica mente
Ġsimi lares
Ġlon dres
Ġperiodis ta
Ġdise Ã±ado
Ġreali zan
Ġco pi
Ġreg las
am Ã©rica
go za
Ġreci bi
Ġinv olu
Ġbla ck
Ġandro id
ue los
Ġequi val
Ġcompren der
Ġse cu
âĢĻ ,
p to
Ġnueva mente
Ġyou tube
Ã ł
Ġcas tel
va dos
Ġhi ci
Ġvir tual
ĠespecÃŃ fica
Ġpa tr
Ġprograma ciÃ³n
ar do
Ġestre lla
Ġconsen timiento
Ġinver tir
f era
Ãº l
be tes
Ġimp ar
Ġeduca tiva
Ġdia gn
Ġinflu encia
li p
qu ÃŃa
Ġmue bles
c enta
ri to
Ġdo ctor
Ġmon i
vi do
Ġreali zada
Ġdetermin ar
Ġing les
c ru
Ġme todo
Ġap os
Ġcolo car
Ġar ena
me di
Ġelec tro
Ġpar ÃŃs
Ġcomp lica
ĠcompaÃ± ÃŃas
Ġproce dimientos
Ġdenun cia
Ġcontemp orÃ¡n
Ġgra sa
Ġcolec tivo
t ÃŃas
un cia
Ġdej ando
Ġc d
h is
Ġdis puesto
Ġcomuni caciones
ĠmÃ³ du
Ġllu via
4 8
Ġe mail
ci an
Ġpi de
Ġdesarro ll
Ġejerci cios
Ġperson alidad
Ġcos tos
Ġes que
Ġregu lar
h an
Ġventa jas
Ġconven io
c r
ar ca
jer on
ar o
di ble
Ġintegra ciÃ³n
Ġvesti do
Ġb es
Ġfa ctor
Ġpropor ciona
i mp
Ġactu ar
Ġcon qu
la dor
Ġpas eo
Ġmen udo
Ġcandida to
Ġlib res
Ġdifer encias
Ġus ando
Ġcre er
Ġcaus as
Ġa v
Ġna cimiento
Ġ200 4
Ġmuni cipios
Ġfern Ã¡ndez
Ġfilosof ÃŃa
. Â»
3 7
Ġcos te
Ġbo tÃ³n
Ġfra se
Ġproba blemente
Ġl una
Ġi le
Ġrev olucion
ena je
Ġeduca tivo
Ġofici nas
Ġba talla
Ġcu Ã¡n
vi le
Ġto le
Ġreci entemente
Ġinterpre taciÃ³n
Â ®
Ġto que
Ġac tores
Ġobs er
Ġobs ervar
Ġcon ces
ri cas
tar Ã¡n
Ġutili zan
Ġpresen tan
Ġenla ces
Ġso cios
Ġcu ri
% ,
or g
Ġindi cÃ³
Ġingre dientes
Ġpromo ver
Ġqueri do
Ġesta dio
Ġcol um
Ġandalu cÃŃa
Ġs iente
Ġan si
Ġcan ales
Ġescri biÃ³
Ġanun cio
ĠfÃ¡cil mente
Ġs Ã³li
âĢ ĭ
Ġsegu ramente
Ġam ari
Ġm m
do min
a ctu
s us
dr os
Ġani mal
Ġvir gen
Ġentrena miento
Ġpas iÃ³n
Ġreco pi
Ġconci erto
Ġacon di
Ġhtt ps
Ġmuer tos
z go
Ġres al
tin os
Ġhi ce
Ġhacer se
Ġleg ales
0 5
n u
Ġch an
mu y
Ġdesarrolla do
w e
Ġa Ã©
Ġgran ada
Ġgui tar
da da
Ġagra dable
Ġpopular es
Ġrey es
Ġban c
jer ÃŃa
b ran
Ġha z
Ġno ches
Ġep iso
f ue
Ġt ono
Ġcri terios
Ġsab ÃŃa
19 9
3 1
za ba
Ġimp on
Ġnom bra
Ġregis trar
ĠautÃ³n oma
j era
vi e
Ġe van
Ġdeci diÃ³
Ġdia betes
Ġa gen
Ġes cas
Ġind ÃŃgen
Ġcomb us
Ġalterna tiva
Ġtan tas
Ġopti mi
Ġintelectu al
Ġle tra
Ġdos is
ne y
i ma
Ġw al
Ġdedi cado
Ġrece ta
Ġinversi ones
Ġcor ta
Ġf Ã³r
Ã¡n ico
Ġli qui
can as
Ġespeci es
Ġindepen dencia
Ġdefen der
Ġaz u
Ġqu isi
Ġfabri caciÃ³n
Ġrele van
Ġre ll
Ġac cion
Ġle e
Ġtier ras
Ġsu minis
hu a
Ġconvertir se
Ġempez Ã³
isten te
Ġcarre ras
olÃ³gi ca
Ġdipu tados
Ġre ina
Ġper ci
gu lar
mb ol
Ġdeci dido
Ġinte ra
Ġdiri gido
Ġ3 8
Ġemo cional
i g
Ġ ðŁ
Ġcompon entes
0 6
l Ã¡n
Ġac titud
Ġas ien
Ġpermi tirÃ¡
i ble
Ġt ÃŃtulos
Ġprim aria
Ġrela cionadas
Ġecon om
Ġlegis laciÃ³n
Ġde uda
Ġ3 2
fici entes
Ġau xi
Ġaprovech ar
ĠdiÃ¡ logo
Ġpes ca
Ġcampe onato
__ __
Ġcuesti ones
. âĢĶ
m eri
Ġgobier nos
Ġlan zar
Ġcorre cto
Ġcircuns tancias
Ġgen ial
Ġinten ta
Ġfan tÃ¡s
Ġcomien zo
m ol
Ġto ur
Ġpresi dencia
Ġan dr
Ġap ple
Ġten dencias
Ġpri vile
Ġmon o
Ġinstru mentos
mu laciÃ³n
Ġdemos trar
Ġcircu ito
Ġta bla
Ġcar tas
Ġidi oma
ma dos
Ġva c
Ġbo go
Ġestable cimiento
Ġna ciÃ³
Ġcu o
Ġver ti
Ġresi du
Ġcu ban
Ġbar ra
Ġconta mos
Ġa ver
Ġdi chos
Ġi ii
Ġvi gente
ĠlÃŃ qui
Ġdesapar e
l Ã³n
Ġc ala
Ġson ri
den tal
Ġpre vio
Ġmexi cana
Ġtransforma ciÃ³n
to ra
Ġ3 4
Ġvisi tantes
Ġdocu mentaciÃ³n
Ġafir mÃ³
Ġin ven
Ġgra du
Ġg ala
Ġsi erra
Ġtu ve
Ġventa ja
Ġcui dar
Ġba u
Ġhom enaje
Ġsali Ã³
Ġinteres antes
ĠlÃŃ deres
Ġaudi encia
Ġminu to
Ġlan zamiento
Ġregistra do
m l
Ġin qui
Ġcor rer
Ġra to
Ġ4 8
tera l
ĠclÃŃni ca
li ar
Ġdi je
Ġdis curso
Ġci tas
Ġinf o
ÃŃsi ma
ra dor
Ġtra yec
Ġlog rÃ³
Ġnovi a
Ġdisponi bilidad
Ġzara goza
0 4
Ġpubli ca
Ġcoti di
Ġ zo
Ġo jo
ran cia
car do
to logÃŃa
Ġag ru
Ġidenti ficaciÃ³n
Ġaleg rÃŃa
Ġest ri
Ġcomb inaciÃ³n
Ġros tro
qu er
cons tru
Ġcoopera ciÃ³n
Ġindi s
Ġsorp resa
c y
Ġs ar
Ġcapa ces
x iÃ³n
cto ra
Ġefica z
Ġsilen cio
Ġg Ã³
Ġpres ti
Ġrealizar Ã¡
Ã± e
Ġdo c
Ġdefini ciÃ³n
n y
Ġher e
v ante
Ġh in
Ġca b
ba dos
Ġqui era
ĠeconÃ³mi cas
Ġservi r
Ġbo da
Ġs Ãº
Ġap o
Ġsus ten
Ġuru guay
Ġhier ro
ni dad
Ġcompro bar
Ġs tar
men tado
Ġmal o
Ġorgani zar
Ġvivien das
3 2
Ġani versario
in t
Ġes cor
Ġinten to
Ġespecial istas
Ġresu men
i dente
Ã¡ les
Ġconsegu ido
ĠincreÃŃ ble
c cion
l ero
Ġmodi ficar
Ġperspec tiva
er tos
Ġac tivo
Ġra fa
Ġmer ece
Ġcier tas
Ġespi ri
te ca
Ġpor centa
Ġ19 5
Ġha bili
Ġto car
Ġac tivos
Ġser ia
Ġecu ador
Ġs mart
ta dores
Ġdi ego
Ġsuce de
Ġaloja miento
Ġemp i
Ġhi dro
Ġvo tos
Ġguar dar
Ġj oy
gi das
Ġsuf ri
? .
Ġap p
Ġcris tal
Ġfir me
Ġal tas
Ġtal ento
co lo
ĠbÃ¡s ico
Ġac ero
Ġli ma
Ġestudi ante
Ġcoord inaciÃ³n
Ġner vi
Ġacade mia
Ġau tos
Ġexpec ta
Ġ200 3
Ġcorre cta
l s
Ġre visiÃ³n
c tiva
Ġher mana
Ġtradi cionales
Ġjorna das
e p
Ġbrin dar
Ġle a
Ġale mÃ¡n
ĠcientÃŃ ficos
Ġpr Ã©s
Ġtempora l
Ġtra i
la dores
ues tas
Ġdise Ã±os
Ġvis u
Ġcuer pos
Ġapoy ar
Ġlabora torio
Ġdificul tades
Ġlle gan
j ando
h asta
la te
Ġapar ecer
Ġcorrespon dientes
Ġorigin ales
Ġca ble
tin as
Ġparti da
Ġde fec
ci dades
la ga
Ġ15 0
Ġafec ta
Ġcober tura
ch u
Ġpu diera
ĠcÃ³ rdo
Ġdescan so
Ġpobre za
Ġsu ger
Ġba terÃŃa
Ġcontra tos
Ġven tana
Ġaven ida
' ,
Ġa ro
Ġpa u
Ġgra cia
Ġsecre to
Ġboni to
or o
la terra
Ġadministra tivo
Ġinstru cciones
r se
Ġper ros
el os
qui to
Ġtermin a
en ar
Ġtra to
Ġco ches
Ġcorri ente
4 7
Ġp h
ti c
gra ciÃ³n
Ġfu i
ĠbÃ¡s icos
dad or
Ġab un
Ġfor man
m erÃŃa
Ġautori zaciÃ³n
Ġciru gÃŃa
Ġvos otros
n ue
Ġw a
Ġpla zas
Ġpar ecÃŃa
Ġasegu rado
Ġjuven tud
Ġno tas
Ġespe rando
Ġespal da
r Ã³n
Ġh ues
Ġgan ado
âĢ¦ .
Ġprofes ora
Ġre don
el la
Ġtu vieron
rar se
Ġtradu cciÃ³n
Ġmedica mentos
Ġigu almente
Ġsos p
ĠestÃ© tica
tiv ar
fer encias
d ing
al gun
mo ra
Ġcu ento
Ġvol viÃ³
Ġmo tiva
Ġmo ver
u alidad
Ġro ja
201 6
... ]
Ġenfo que
en tar
an zas
Ġpas an
so bre
Ġre cre
ran a
ĠmÃ¡ quinas
Ġe t
Ġh ori
Ġa tre
der ÃŃa
e ga
Ġbas ado
tÃ¡n ea
l d
Ġsobre vi
Ġpubli caciones
Ġaparta mento
Ġdes pa
9 5
Ġar que
Ġescu cha
Ġcompeten cias
ir Ã¡
Ġcan ta
Ġorgan ismos
Ġopera tivo
Ġboli via
Ġplan o
Ġadoles centes
Ġ ue
tor nos
Ġcer cano
Ġmon u
Ġescri tor
Ġuniversi dades
Ġcuida dos
Ġterra za
as h
ĠcientÃŃ fica
Ġsenti mientos
k u
Ġg ris
Ġp ista
li zar
Ġdo cente
Ġgi m
Ġincre mento
Ġsue Ã±os
Ġex ces
Ġdo centes
Ġencontra ba
Ġcap tura
Ġmunicip ales
Ġmora l
ĠfÃ¡ bri
es pe
Ġv ÃŃn
Ġimp li
ĠcÃ¡ maras
Ġdani el
Ġpa ta
Ġmu erto
min ar
201 5
Ġcerti ficado
7 5
b iendo
tran s
Ġobli gaciÃ³n
Ġimpres cin
ĠdÃ© cadas
u x
Ġi phone
gu es
Ġpla to
Ġmas cul
Ġinteres a
Ġemo ciones
Ġme ter
th er
ĠcompaÃ± ero
Ġen ga
Ġre vel
ien cia
Ġfamos o
Ġe va
Ġg es
Ġco pia
Ġposi tivo
Ġestar Ã¡n
Ġesfuer zos
osi ciones
Ġdecla raciones
w er
tu s
Ġsan tos
Ġdis cri
Ġcol oni
Ġproba ble
Ġin cu
Ġlogra do
Ġningun o
Ġ Ð
Ġele gante
mis os
Ġinfor mes
Ġabs or
Ġimpres iÃ³n
Ġgratu ito
Ġagri cultura
Ġexac tamente
m era
Ġca tÃ¡
Ġpri siÃ³n
Ġsa cri
Ġequi vo
Ġcua dra
Ġinstitu cional
Ġgra ves
Ġgo bern
Ġis a
Ġprevis to
Ġaus encia
Ġacos tumb
Ġju gue
Ġdirecto ra
roso ft
des a
Ġcre cer
Ġpare d
Ġestan cia
tar lo
Ġcambi a
Ġul tra
Ġprovee dores
Ġespiri tual
Ġp las
Ġactu alizaciÃ³n
Ġtras la
Ġgus tan
Ã §
Ġle ÃŃdo
ul l
Ġhu me
Ġfinanci ero
Ġcapaci taciÃ³n
ĠsÃŃnto mas
ol ina
Ġcan tante
bu m
Ġcereb ro
g r
p y
gu as
Ġgal le
Ġc ena
cion an
Ġme te
mien tras
Ġpare cido
Ġespera mos
Ġ ?
ĠlÃŃ mites
Ġalber to
ĠespectÃ¡ culo
Ġcu ero
Ġver siones
Ġescri tura
ern as
Ġmues tran
Ġhori zon
as o
Ġch oco
Ġhi per
Ġcomple men
Ġanterior mente
Ġurban o
ti bles
Ġv uelo
Ġgas to
Ġm ando
li cos
Ġex hi
Ġdej an
Ġbici cle
4 9
Ġe col
Ġta ble
Ġho jas
Ġperiodis tas
c tas
Ġp s
ri dos
dad as
Ġdis capacidad
Ġdar Ã¡
Ġmora les
Ġl lan
Ġcon migo
Ġo to
Ġins cripciÃ³n
Ġpermi ta
Ġabo gados
Ġempres arios
Ġele gido
Ġing laterra
Ġgan Ã³
Ġvis ual
forma ciÃ³n
ĠlÃŃ mite
Ġb l
Ġca fe
Ġdocu mental
ta t
cu a
Ġdif usiÃ³n
ce dentes
Ġtrata mientos
Ġimp lan
Ġsup eriores
n al
ÃŃ na
Ġre tra
Ġacon se
Ġnorm almente
4 6
ch an
Ġcue llo
Ġal ba
Ġman a
Ġ3 3
Ġselec cionar
Ġinstal ar
Ã ¨
ez ca
Ġenca be
s tru
Ġinter no
Ġcla ramente
pro du
Ġcasti lla
Ġagru pa
f rica
ri da
Ġres uel
Ġgeneral mente
Ġguar dia
Â ©
Ġcon tras
Ġcontra taciÃ³n
Ġciudad anÃŃa
Ġinno va
. [
Ġc eb
Ġsigu iendo
Ġperten e
d ina
fi cÃ³
Ġpun tu
g rÃ¡fico
ec o
Ġex teriores
cios a
ĠmÃ© dica
ing ton
Ġcien tos
ĠcÃ¡ l
Ġconti go
Ġper ro
Ġpo ca
Ġinc or
ĠcÃ³rdo ba
Ġb on
Ġci fra
gen era
Ġsalu dos
Ġubi cada
Ġinmedia tamente
Ġprima vera
Ġalco hol
Ġpar ecen
Ġinvestiga dores
Ġtrayec toria
Ġtan ta
bier on
Ġpubli ci
Ġejemp los
Ġcoord ina
Ġpa de
Ġx d
Ġdigi tales
Ġpropon e
j Ã³n
ca mp
Ġcre ma
Ġad quisi
Ġdul ce
b ien
Ġs enta
Ġni co
Ġdomin i
Ġdiri gida
Ġbogo tÃ¡
min as
Ġmen ti
Ġdi ciendo
Ġahor ro
Ġbra zos
Ġmili tares
Ġinmedia to
Ġdiagn Ã³stico
Ġsu mar
Ġins pec
Ġtarje tas
Ġla vado
Ġli gera
Ġregi ones
Ġmoder no
er es
Ġb ron
Ġexi tos
Ġins u
Ġmen Ãº
Ġfeli cidad
Ġdor mir
di cas
Ġextre ma
ter rÃ¡n
Ġdirec tiva
Ġper i
tiv e
por que
Ġvo to
Ġespecta cular
Ġser io
so e
ha m
Ġapro pi
Ġpriva das
Ġabo gado
Ġplani ficaciÃ³n
Ġcer ve
Ġpod Ã©is
Ġembara zo
Ġlo go
Ġma gia
Ġservi dor
Ġactu aciones
Ġalterna tivas
o b
t ter
Ġitali ano
Ġinmo bili
1 00
Ġra pi
Ġcondu ctor
Ġcali for
Ġin mue
Ġme tÃ¡
Ġcar gos
Ġpaque te
ha b
Ġentrena dor
Ġfron tera
Ġayu dan
Ġali anza
Ġprepara do
Ġtriun fo
l ga
Ġc ero
ter ÃŃas
gu al
Ġte Ã³
Ġacep taciÃ³n
ĠhÃ¡bi tos
Ġca ta
Ġcar men
Ġba jos
Ġinvi tados
z e
Ġimp uesto
Ġenerg Ã©tica
Ġconvir tiÃ³
Ġse g
der Ã¡
bo x
Ġraz ona
Ġde clar
Ġconsidera do
Ġgol es
Ġcari be
f ar
Ġsen cil
Ġdesta cÃ³
Ġconserva ciÃ³n
Ġsin dica
dr ÃŃa
Ġtritura dora
Ġvir us
ri mir
Ġcono cidos
gra ma
Ġag ro
Ġpien sa
Ġintercambi o
fi can
Ġcons er
Ġau menta
Ġre pi
Ġsegu ido
Ġho ja
Ġconstitu ye
Ġcalen dario
Ġdesay uno
Ã± ez
Ġap ariciÃ³n
Ġinfan cia
di z
Ġre habili
Ġsex uales
Ġequili brio
Ġsonri sa
i tas
Ġcen ten
ĠmÃ¡ laga
ĠjurÃŃ dica
Ġy u
Ġdi gni
ing Ã¼
Ġhermos a
ali zadas
8 8
Ġe ficiente
Ġdeci dir
Ġbas ada
Ġporcenta je
ve z
Ġinfor mÃ¡tica
Ġinteli gente
Ġdibu jos
Ġacuer dos
0 3
Ġt Ã³
Ġconsi gue
Ġilus tra
Ġcapaci dades
Ġandr Ã©s
Ġi p
Ġri o
Ġtrabaj ado
Ġri que
Ġhabla mos
Ġcu p
Ġimp u
Ġciudad ano
Ġis las
Ġdeli to
man te
ec as
Ġfe min
Ġquer er
Ġavan ce
Ġalmacen amiento
Ġesen cial
Ġa mbi
ora s
Ġresi dencia
Ġfigu ras
Ġinteg rantes
di se
Ġti ro
Ġro mÃ¡n
Ġorien taciÃ³n
Ġcom an
Ġesta bilidad
Ġcic l
Ġde te
201 7
gra fo
Ġver des
Ġpla tos
Ġban cos
Ġllegar on
Ã¡ rez
Ġf rac
Ġin mi
n ado
Ġguar da
n eces
Ġdi e
Ġman u
Ġles iones
a p
c l
Ġllama das
Ġe pi
Ġb y
Ġpe tro
esta mos
ĠvÃŃcti ma
Ġindi a
i vas
Ġl ine
Ġconsidera mos
Ġmoder na
Ġcubri r
Ġanun cia
Ġmodi ficaciÃ³n
si va
me dio
Ġbos que
Ġs p
Ġbel la
Ġten gas
ck s
Ġpien so
Ġcircu laciÃ³n
Ġsuje to
Ġal tera
Ġma qu
a je
Ġre ba
Ġpi ernas
Ġ7 5
Ã³gi cos
Ġlan za
a quÃŃ
Ġv ÃŃas
Ġpo esÃŃa
Ġpe Ã±a
Ġade lga
Ġpol vo
tori ales
Ġgus tado
Ġdisfru ta
Ġrecom iendo
Ġexten siÃ³n
Ġrue da
Ġter cero
Ġata ques
Ġfer ro
Ġm ario
di ta
fi cial
Ġapar te
ĠelÃ©ctri co
ĠacompaÃ± ado
ĠfenÃ³men o
Ġapro baciÃ³n
Ġexclusiva mente
Ġinte rac
Ġtor res
Ġsegui dores
g oni
Ġsoci edades
Ġrecomien da
m ni
Ġta lla
Ġdedi cada
Ġrepresen tante
Ġamena za
Ġjap Ã³n
Ġtra tado
emp la
Ġen tu
Ġap as
ĠcientÃŃ fico
Ġconcen traciÃ³n
Ġro ma
Ġindustri ales
v ol
Ġinteres ados
Ġlimp ia
Ġpo e
Ġencontrar Ã¡s
Ġdepen diendo
Ġprofun didad
Ġlu min
lÃŃ mp
c m
ĠenseÃ± ar
Ġcontac tar
c ali
Ġo este
li da
Ġcor tes
Ġw hat
Ġdescu bre
Ã¡ tica
vi as
Ġtrans misiÃ³n
m ular
Ġmad res
in ten
Ġma quilla
Ġauto mo
Ġtendr Ã¡s
Ġcatal uÃ±a
b era
ch ado
Ġpar ro
gra m
Ġrecono ce
Ġasocia dos
ĠcÃ¡r cel
o d
Ġre cepciÃ³n
cep res
Ġh d
0 2
Ġpro ven
Ġna ran
Ġpon en
Ġdepor tiva
v ando
Ġdi versidad
Ġba Ã±os
Ġmas co
Ġpen i
ĠelectrÃ³n icos
Ġplan e
Ġdiscu siÃ³n
Ġnumeros os
Ġs r
man o
Ġpen e
Ġnu cle
Ġdetermin ado
Ġemer gencia
jue gos
Ġch ris
Ġ4 00
Ġfinanci eros
f os
Ġpla yas
Ġaca bado
ĠjurÃŃ dico
Ġtranspar encia
or den
mi gos
Ġobliga ciones
Ġbrasi le
Ġdefin ir
a Ã±os
li e
Ġcambi ado
Ġrecom en
Ġbol si
ĠmÃŃni ma
ameri cano
Ġvues tra
Ġgesti onar
4 4
Ġ ÃŃ
Ġlec tor
Ġsatisfa cciÃ³n
' s
du rÃŃa
Ġcorre ctamente
Ġvigi lan
y eron
Ġs to
Ġcampe Ã³n
l ÃŃn
Ġmar gen
Ġw ar
Ġuniversi tario
Ġevi dencia
Ġagrade cer
Ġba c
Ġcla ves
Ġdiri gir
Ġrefer ente
Ġreuni ones
Ġpsico logÃŃa
Ġalejan dro
Ġsu da
Ġvuel to
Ġses iones
Ġla men
Ġal er
Ġmor ir
Ġpro lon
Ġfin alizar
Ġexper to
Ġinteres ado
Ġha gan
Ġ3 7
Ġsan a
Ġsig los
h or
Ġmo dera
Ġcontin Ãº
Ġauto mÃ³
Ġdeja mos
Ġagen da
d Ã¡
Ġgra dos
Ġfinan ciaciÃ³n
si a
Ġcer em
Ġindividu ales
Ġhaci enda
c Ã¡
Ġavan ces
l lante
n ing
Ġcom paraciÃ³n
Ġi t
Ġap uesta
201 3
Ġar ras
Ġdis par
Ġalum no
Ġee uu
Ġmagn ÃŃ
er ia
Ġuni das
Ġven ir
Ġmovi lidad
Ġsignifica do
Ġprotagon istas
Ġe char
Ġac triz
Ġli g
Ġpu de
Ġ ;
da bles
tr en
ctu r
Ġcamin os
Ġcalifor nia
z can
Ġinstru mento
ĠÃ¡l var
c t
r Ãº
or ld
Ġinc om
Ġ200 1
Ġasocia ciones
Ġcome dor
im ismo
in ta
cis mo
i x
l uego
Ġsalu dable
Ġaf ron
Ġrecomenda ble
Ġpreven ir
Ġdro gas
Ġgim nas
Ġpa gos
Ġvi d
Ġmari do
Ġrelo j
Ġrafa el
Ġpi diÃ³
Ġre mi
Ġex tin
for mas
Ġru tas
Ġespecial ista
Ġlec tores
Ġintrodu cir
Ġpaisa je
ĠcatÃ³ lica
v Ã©
Ġexpres a
Ġp ra
qui Ã©n
Ġrela cionado
201 4
Ġvan guar
Ð °
Ġh ÃŃ
Ġre empla
Ġg ras
Ġz u
Ġ[ ...]
Ġaprov echa
Ġpla y
Ġlon gi
gi cos
Ġcif ras
Ġc es
ri l
Ġin jus
Ġu p
Ġab ur
Ġposi ciones
Ġven tan
Ġconsumi dores
Ġa gi
te a
Ġte cho
Ġten siÃ³n
Ġadi cionales
Ġgaranti za
Ġprota goni
Ġoscu ro
Ġsho w
Ġpeti ciÃ³n
Ġper e
Ġan cho
me a
Ġcrea tividad
Ġs tan
Ġo lÃŃmp
Ġpare des
Ġtrabaj an
ĠplÃ¡s tico
l ulas
Ġp soe
en s
Ġpar o
Ġte la
cin as
Ġhal la
Ġexa men
Ġcon me
ba da
Ġforma do
mar ca
Ġsitu ada
ĠpÃ¡ r
Ġponer se
Ġcampa Ã±as
Ġrecomenda ciones
Ġpo dremos
mon ios
Ġrefle xiÃ³n
Ġperten ece
Ġr ÃŃos
Ġcuar ta
ĠÃ¡n imo
Ġextran jero
Ġvalen ci
vo z
Ġabsolu ta
Ġcu rios
Ġlu char
ĠmÃ¡ r
Ġreco ger
Ġextre mo
c li
Ġg rÃ¡fico
Ġi ra
Ġcomo didad
Ġvi cepres
Ġapor tar
sa pp
Ġbal ance
el as
Ġinclu idos
ĠfÃ³r mula
Ġri cardo
ĠdÃŃa z
Ġprofun do
Ġsus cri
dr Ã¡n
Ġqui eras
Ġtrabaja dor
Ġasu mi
Ġmic rosoft
g iendo
Ã³n ico
Ġreali zadas
Ġban das
Ġmod alidad
c c
Ġcar ro
Ġexp ul
Ġhern Ã¡ndez
is e
dan tes
Ġefica cia
o p
Ġconfli ctos
Ġtej ido
y n
in ario
Ġten ia
Ġlle gue
Ġpubli cÃ³
Ġale x
Ġexisten tes
Ġpresiden ta
Ġcon e
Ġdi as
Ġto talidad
Ġentre vis
Ġmanera s
Ġtendr ÃŃa
Ġencar gado
Ġque de
Ġ5 5
Ġabsolu tamente
Ġdigni dad
ta je
un as
Â¡ Â¡
is co
Ġmon tÃ³n
posi ciÃ³n
Ġdisposi ciones
Ġidenti fica
Ġm g
Ġpa is
ma d
Ġres e
Ġlu ces
Ġrela to
Ġtermin Ã³
Ġnar ra
Ġilu minaciÃ³n
ci pe
den es
Ġri val
Ġ200 2
Ġbe bidas
Ġmol ino
Ġrece tas
ĠcatÃ¡ logo
x x
ti po
Ġsal var
Ġayu das
Ġpa ga
ch el
Ġcomp osiciÃ³n
Ġreali zando
Ġcomple tar
Ġsolid aridad
ĠgÃ³ mez
s ual
dar on
Ġsosteni ble
c Ã¡n
di to
Ġron da
Ġcompli cado
Ġca za
Ġpar Ã¡
su la
ĠperiÃ³ dico
ĠcÃ© lulas
Ġdoc tr
Ġa mo
te ar
Ġt os
Ġcomuni car
Ġejer cer
ĠÃ¡l bum
Ġe ter
Ġcon tÃ³
Ġparla mento
Ġta pa
Ġhos pi
Ġini ciÃ³
us a
Ġpres taciÃ³n
Ġdeber ÃŃan
Ġllevar Ã¡
ĠtecnolÃ³gi co
Ġl Ã³gica
ĠÃ©s tos
Ġpsi col
for me
Ġampli ar
p Ã©
Ġ3 9
Ġpubli cada
bas ti
ĠacadÃ© mico
i cios
si as
Ġle gi
Ã©s pe
Ġsa ga
per son
Ġbri llante
w in
Ġen s
Ġju bi
Ġreser vas
Ġexpecta tivas
table mente
Ġinmedia ta
Ġlis to
nues tro
Ġdesempe Ã±o
o tra
Ġf ia
Ġpens ado
Ġsecund aria
Ġe ri
Ġservi dores
Ġpregun tar
Ġeurope os
Ġreligi Ã³n
Ġfavori tos
Ġa ri
Ġto mando
Ġda mos
tor ÃŃa
Ġins ul
Ġprefer encias
Ġresidu os
i ra
Ġre con
Ġminera les
ti zaciÃ³n
ten te
ali zÃ³
Ġins tancia
Ġsalu do
Ġocas ion
i c
Ġpa tio
Ġon u
Ġc ÃŃ
Ã¡ ticos
Ġi ban
Ġ- -
Ġag ente
Ġsuf rir
Ġprevia mente
y ecto
Ġa den
es tu
Ġt rÃ¡n
Ġex clu
Ġpo bres
Ġadministra tiva
Ġlleva ba
Ġmani pu
Ġestr Ã©s
Ġasis tir
pue de
es tÃ¡
Ġen ter
Ġen tiende
Ġun e
Ġdes pues
Ġdeci de
Ġof en
Ġlimp i
4 1
Ġas om
Ġefec tiva
v ÃŃ
Ġrecono cido
Ġrevis tas
Ġregal os
ca u
Ġap e
t ti
om bre
Ġtra e
Ġfi ch
Ġesti ma
Ã¡ndo le
tem ala
Ġp echo
Ġpa cÃŃ
or gan
Ġse min
Ġin du
Ġto mado
Ġcli ck
Ġdeb ÃŃa
Ġde bi
al d
Ġf ues
cuen tos
mu chas
Ġa dor
Ġvi tal
Ġpermi tido
Ġespeci alizada
Ġmaes tros
Ġregres o
as imismo
Ġhech a
tera pia
Ġprofun da
Ġi d
Ġfi cha
4 2
b rÃ³
Ġt one
Ġfaci lidad
Ġrefor mas
Ġimple mentaciÃ³n
e du
m ori
Ġru ido
Ġfiscal ÃŃa
Ġtempera turas
Ġg ali
Ġfun cionar
ĠespecÃŃ fico
7 7
Ġs tre
Ġen tera
cu las
Ġtrans ferencia
tion al
Ġplante a
b is
Ġrep er
Ġexplo taciÃ³n
Ġrevis ar
Ġcomba te
Ġno ctur
Ġcin ta
ec on
Ġpensa mientos
Ġa er
Ġten dremos
Ġciudad ana
Ġapor ta
Ġexcep ciÃ³n
w oo
pa d
g Ã©n
Ġencuen tros
Ġdin Ã¡mica
Ġcri terio
Ġcu Ã¡les
Ġma c
Ġdemos trado
Ġper miso
Ġfi cciÃ³n
Ġmor e
Ġdel an
Ġpre pa
Ġhi dra
Ġfinan cia
Ġglo b
rue ba
Ġchoco late
on g
Ġman ga
Ġocur riÃ³
Ġcandida tos
Ġto mÃ³
Ġindi cado
Ã³lo gos
nues tra
6 6
Ġde bu
Ġar co
Ġcer rado
un d
Ġda ba
Ġnecesi tamos
f an
ti z
Ġpro voca
Ġcons ciente
Ġdeli tos
Ġhermos o
Ġlongi tud
ÃŃcu la
Ġutili dad
Ġqui tar
Ġnave gar
Ġoto Ã±o
x o
Ġs ch
Ġagre gÃ³
Ġgana dor
Ġacci dentes
ÃŃ dos
Ġg ro
Ġexp los
Ġrela cionada
Ġarro z
Ġp le
Ġdes tina
Ġle o
Ġpana mÃ¡
Ġdimen siones
Ġdipl om
Ġacondi cionado
Ġdo ce
Ġbar rios
Ġfeli pe
Ġeduca tivos
e di
k in
Ġg in
Ġha mbre
Ġva por
ha cer
m us
Ġp lus
Ġma tar
ÃŃs o
Ġevalu ar
Ġparla men
i me
p lica
fi a
ĠmÃ¡s ter
Ġcas tro
Ġantigu os
Ġextran jeros
Ġmecan ismos
Ġra ÃŃz
Ġ6 5
i zaciÃ³n
er da
Ġcamp es
Ġle d
ĠÃ³rgan os
u li
Ġencu esta
Ġo ral
Ġha ces
Ġpar cial
Ġor iente
Ġsal as
Ġhis p
Ġja jaja
Ġconfor midad
Ġajus te
Ġrespec tivamente
Ġpe trÃ³
Ġjue ga
Ġdescu bier
Ġtur ÃŃstico
Ġtranqui lo
Ġdificul tad
Ġd anza
Ġres ca
Ġap el
7 8
Ġh un
Ġpara le
Ġ( Â«
Ġga ra
Ġindi car
Ġadap taciÃ³n
Ġfamos a
Ġinqui e
Ġse basti
Ġimpor te
Ġfal lo
Ġextra Ã±o
Ġrecomenda mos
Ġaus tra
Ġrequier en
min g
va mos
Ġk g
ameri cana
Ġtranqui lidad
Ġnumeros as
Ġwhat sapp
Ġcontra se
Ġmul titud
Ġenfren tar
b ren
Ð ¾
Ġcom pi
ce mos
Ġtra er
ĠcrÃ©di tos
Ġros ario
Ġfru tas
, ...
v or
Ġla b
ora ble
Ġsan idad
s omos
di llo
bi ciÃ³n
jar se
Ġfis cales
Ġc ÃŃr
Ġin men
Ġdel in
Ġex ceso
Ġapro bado
Ġabsolu to
ĠsÃº per
ra te
tr Ã©
olu ciones
Ġutili zados
Ġmad ri
âĢĻ .
Ġplata formas
esto y
Ġtranqui la
4 3
Ġdi g
Ġmi a
mar on
Ġdiver tido
Ġace le
Ġrepe tir
Ġde posi
ja ra
Ġad j
Ġlo ok
mi ta
si vo
Ġna vi
Ġgenera li
Ġbo te
Ġpen diente
Ġlin ea
ĠtrÃ¡n sito
o tro
ci tos
Ġla go
Ġo a
Ġrecuer dos
Ġpropie tario
Ġfrances a
Ġre tras
Ġar mon
cer do
Ġexpan siÃ³n
on ado
ten go
ru mp
Ġlle vo
iste ma
ris mo
Ġbas a
Ġga bri
Ġcari Ã±o
Ġintensi dad
si tos
Ġcamin ar
Ġde je
Ġes encia
Ġca jas
Ġescri be
Ġapren de
die ran
Ġjos e
Ġtur no
Ġtes t
Ġneu ro
Ġes cla
Ġin ex
Ġhu mil
Ġmaquilla je
Ġob is
Ġcan arias
for tun
Ġafi li
Ġgua temala
Ġdue Ã±o
Ġexcel entes
Ġimprescin dible
Ĩ Ĵ
Ġna var
Ġestable cimientos
Ġreprodu cciÃ³n
y ente
de re
Ġab us
Ġne t
Ġdar se
Ġdipu taciÃ³n
Ġxi x
Ġpo damos
den cial
Ġres tos
Ġcomp uesto
vis or
Ġdifer en
Ġcondu cta
---- ----
Ġvigilan cia
Ġin fi
Ġdes as
Ġmag istra
Ġo cta
Ġj im
Ġprodu ctores
Ġreda cciÃ³n
Ġen tiendo
Ġesp er
Ġcuan tos
art ÃŃculo
di cciÃ³n
Ġin cons
Ġper fi
min io
fer rada
Ġali cante
Ġdesi gn
Ġidi omas
Ġconci ertos
Ġexcel encia
ro ga
Ġpor tÃ¡
Ġsal en
so y
Ġinforma do
Ġapor te
Ġfabri cante
Ġmexi canos
Ġagre gar
ĠfÃ¡bri ca
te x
ĠcÃ³mo do
Ġatrac tivo
Ġla gun
Ġcre en
ĠhÃ© ro
Ġpar t
cen as
Ġmuch ÃŃsimo
Ġedu ardo
Ġmor eno
Ġvues tro
Ġcumple aÃ±os
6 5
Ġen cen
Ġo ut
Ġus ado
cre o
Ġur bana
Ġcha mp
Ġcompren siÃ³n
g ru
Ġpreci siÃ³n
Ġmonta je
gra cia
Ġqu eso
Ġem isiones
6 8
Ġla va
Ġg la
Ġcol onia
Ġpon iendo
Ġcondu cir
Ġse c
fi r
lla do
Ġrefer encias
Ġinicia tivas
Ġse mej
Ġre cep
Ġprodu cido
Ġk o
ĠÃ³ pti
Ġfemen ino
li te
Ġdi entes
vi deo
Ġco a
Ġsa cerdo
Ġcer ra
ad Ã¡
Ġpriva dos
Ġpropie tarios
v ales
Ġci vi
pon er
Ġjap ones
lan a
Ġju li
z u
Ã¡ bamos
ri mi
ca mos
si empre
Ġd ina
Ġani ma
Ġinclus iÃ³n
Ġtes is
Ð µ
ci dio
Ġca i
Ġexclus ivo
Ġtre inta
de a
Ġde u
ol la
Ġmar ina
cu enta
Ġpon ferrada
Ġran go
Ġbai lar
Ġdormi torios
Ġimpresion ante
ash ington
y u
que ta
Ġtran sa
Ġposi tiva
Ġag rÃŃ
Ã¡ndo lo
Ġbibli a
Ġnie ve
Ġocu par
Ġhuel va
Ġprostitu tas
ti llo
Ġap unta
Ġins er
Ġreali zados
âĢ¦ )
Ġtri mestre
Ġnego cia
tu almente
Ġencon trÃ³
Ġtras lada
Ġregu laciÃ³n
Ġrepresen tan
Ġh en
gen o
Ġpie dras
Ġmas ter
Ġedi ciones
201 2
Ġpier de
Ġastu rias
y entes
Ġap la
Ġturis tas
Ġdipu tado
Ġreti rar
ci e
ci ando
Ġb is
Ġvi va
Ġpreocupa ciÃ³n
Ġmoni tor
tri co
Ġrespon de
Ġdibu jo
Ġimper io
Ġre constru
Ġmo tores
Ġfi el
cha da
Ġfabri cantes
Ġestructura s
Ġvesti dos
ĠÃ¡ngel es
Ġdeclar Ã³
Ġe c
es ter
Ġse pa
Ġmi la
Ġprofes iÃ³n
Ġinsta gram
Ġcerti ficaciÃ³n
Ġvalora ciÃ³n
Ġromp er
Ġx xi
Ġexpres Ã³
Ġfra caso
Ġene migo
Ġsu bra
cion e
Ġres tri
Ġmon to
Ġestar ÃŃa
Ġemple ado
ĠÃ¡rbol es
Ġs ha
Ġcon fes
Ġfi bra
Ġdiv ul
ĠÃ³rgan o
c las
Ġactu ali
Ġmejora s
Ġense Ã±a
Ġcolombi ano
Ġfortale cer
ĠpetrÃ³ leo
ta bles
teri al
titu des
Ġho la
Ġwi th
Ġara gÃ³n
Ġsupre mo
Ġp y
Ġ1 20
mb ra
so lo
Ġespera ba
Ġconver saciÃ³n
Â ·
Ġesta mp
Ġso be
Ġmu tu
Ġpu ro
Ġafec tados
Ġasisten tes
Ġelectri cidad
de ll
Ġre Ãºn
Ġpa gina
Ġ( ...)
Ġqui eran
Ġinvi ta
Ġpa tro
Ġan gel
Ġba jas
Ġins tante
ĠacompaÃ± ar
Ġgastron omÃŃa
Ġorg Ã¡nica
Ġsom bra
Ġfeli ci
Ġocur rido
Ġpal ma
Ġsenti miento
Ġcontribu ir
Ġme ga
Ġso bres
Ġdis cos
Ġplan tilla
Ġdistin to
ĠespaÃ±ol as
Ġmusi cales
usi eron
Ġre publi
Ġb asta
Ġg ir
Ġreci entes
Ġbom ba
Ġalu minio
d ÃŃan
Ġan ex
ĠcrÃŃ ticas
Ġrea cciÃ³n
Ġestad ÃŃsticas
Ġrique za
m ario
cion Ã³
Ġgus te
Ġmal as
ĠÃ³r denes
ĠtecnolÃ³gi ca
Ġpracti car
Ġdemues tra
zar on
Ġlle gando
Ġconsul tas
Ġk ar
b Ãºs
u re
mi o
Ġgu berna
Ġconside ran
Ġsu gi
Ġna cido
je je
Ġfo tÃ³
Ġescri ta
Ġemple os
Ġme dal
Ġma mÃ¡
Ġquisi era
p d
Ġo cio
Ġb ul
con es
Ġcre ando
Ġfran co
Ġsolu cionar
utili zamos
Ġbienven ida
ti to
Ġre tos
ja das
il los
Ġhor no
Ġigles ias
Ġtari fa
Ġentu sias
n or
w ard
Ġm enta
Ġprodu cen
Ġuniversi taria
Ġesti los
via mente
Ġcombus tible
Ġpro p
Ġgaran tÃŃas
crip ciones
Ġtransfor mar
ĠmÃ³du lo
g ori
un da
ri eron
li os
Ġcu ra
Ġcar cel
Ġâ ĨĴ
Ġguitar ra
a mb
Ġha bilidad
Ġper diÃ³
Ġhab lan
Ġga y
Ġilus iÃ³n
Ġdi chas
fi cio
Ġmi rando
ja dos
Ġaf ue
Ġev olu
ci u
Ġre ma
Ġsin di
for o
Ġir Ã¡n
Ġ| --
tien es
Ġimpul sar
Ġpeni ten
m ores
Ġc lo
le er
Ġpo deres
sa da
Ġcan adÃ¡
Ġmer ce
Ġrecor rer
Ġcrimin al
Ġpilo to
actu almente
Ġe gi
Ã© ticos
Ġvo ces
olÃ³gi cos
Ġingres ar
Ġcerve za
a ra
w ork
ÃŃ tica
Ġvie ja
Ġflu jo
Ġpol Ã©
Ġsos ten
v Ã³
Ġdi jeron
Ġcan tidades
Ġcal e
Ġsali do
Ġasi a
Ġdiscip lina
h ar
Ġto p
pe dia
Ġcar pe
tri ca
Ġra za
Ġboli vi
Ġsi go
ĠaÃ± ade
Ġpon emos
Ġinv enta
Ġgal erÃŃa
Ġpoten te
Ġrue das
Ġmaqu inaria
Ġcu yos
Ġver lo
cen a
Ġfu imos
Ġpel u
Ġelimin aciÃ³n
Ġre pu
Ġci viles
Ġven ido
Ġreno va
pi o
con tra
Ġtermin ado
Ġcri men
Ġfinan zas
Ġcastel lano
Ġa gar
re al
den as
Ġcul tivo
Ġdese as
Ġm c
Ġve inte
Ġja ck
Ġconven iente
ĠindÃŃgen as
Ġver emos
Ġmad ru
Ġexpres ar
Ġpod ÃŃan
Ġma ta
Ġins is
Ġsen ado
Ġbar co
dis ta
Ġavi Ã³n
comuni caciones
Ġju d
Ġrehabili taciÃ³n
Ġde dos
un ciÃ³n
Ġnovi o
pÃ³ sitos
Ġconcen tra
g ien
Ġde pres
Ġmu riÃ³
ĠbÃ¡s icas
Ġmanifes tÃ³
Ġvac ÃŃo
in arias
cas a
Ġus an
Ġro ca
Ġacu dir
Ġcuen tos
Ġna ce
Ġimp ro
Ġw orld
Ġmal os
Ġregis tros
Ġsu pe
Ġbi ll
Ġobs tÃ¡
Ġdeco ra
ser vi
Ã ¶
Ġnecesi to
Ġcubier ta
s ec
li z
Ġemp u
Ġacu mu
Ġdepor tivas
Ġvir tud
t to
Ġcua dros
Ġdesta cado
Ġsuje tos
Ġprovo car
Ġjuven il
c lo
tan os
Ġru mbo
Ġconcep ciÃ³n
Ġmane jar
m x
li dos
Ġdo y
Ġfor os
Ġcaracter ÃŃstica
Ġaco ge
Ġprac tica
u ta
Ġla dos
Ġan ci
Ġmar cos
Ġ4 7
Ġpen dientes
Ġmes as
Ġpreci so
Ġconvi vencia
Ġmecan ismo
Ġl enta
Ġsi ga
Ġar bi
Ġmar tin
Ġda ta
Ġcomuni ca
Ġcorre os
Ġmone da
v d
Ġre cti
Ġsi lla
Ġon ce
Ġescen as
Ġconstante mente
Ġtone ladas
t te
Ġte l
Ġ6 00
Ġbra zo
Ġexi ge
Ġimp ac
ameri canos
Ġaudio vis
b ando
Ġde bo
an g
an ti
Ġal tamente
ĠprÃ³xi mas
Ġalcan za
Ġbrin da
Ġespi ritu
las h
Ġauto mati
tÃ¡n do
e dores
s ta
Ġper si
Ġdesta can
Ġwi fi
Ġdev olver
Ġo la
Ġre para
Ġpro mes
Ġvi gor
Ã³gi cas
Ġrober to
Ġasesora miento
tan der
gar se
Ġboni ta
Ġcompu tadora
Ġh uer
Ġartes an
Ġotor ga
Ġlidera zgo
te os
Ġb eso
Ġca mar
ten ciÃ³n
Ġas al
Ġpres taciones
Ġclub es
ĠautomÃ¡tica mente
' .
re g
Ġdo lores
Ġcomen tÃ³
Ġlimp io
h emos
la miento
Ġju gando
Ġconclus iÃ³n
gi ados
Ġquedar se
ĠclÃ¡s icos
Ġahor rar
da je
Ġse l
tu lo
ris ta
Ġcli mÃ¡tico
tÃ¡n dose
Ġimagina ciÃ³n
6 4
on ales
to das
Ġven de
ada mente
Ġsocial ista
Ġdin Ã¡
Ġintegra do
Ġdo mÃ©s
bili zar
Ġreci cla
Ġmill Ã³n
Ġge or
Ġmetodo logÃŃa
woo d
le c
Ġsu yo
ten emos
Ġr ena
Ġactu alizar
segu ir
Ġarti cu
] âĢĭ
Ġsi mul
Ġan u
ora ma
Ġpe didos
Ġsup le
Ġhar Ã¡n
Ġdefini tivamente
Ġsir ven
Ġes capa
cu al
crip t
Ġmur cia
h ora
Ġa ves
Ġdistin gu
Ġregu la
Ġconsumi dor
Ġmaravillos o
Ġadquisi ciÃ³n
7 9
re cu
se a
Ġanti cipa
ĠdifÃŃ ciles
li x
lo gos
Ġru iz
Ġfran qui
Ġpromo ciones
Ġcondu cciÃ³n
Ġabra zo
Ġtransmi tir
b log
Ġmen cionar
Ġ25 0
Ġcomba tir
Ġc Ãº
re o
qu esta
Ġ4 2
Ġcla us
Ġavan zar
Ġeta pas
Ġda to
Ġzapa tillas
i ro
Ġv inos
6 9
Ġpro cura
Ġca e
Ġte cla
Ġtrans cur
Ġespeci alizado
Ġmues tras
Ġcolum na
a ca
f ran
r s
Ġes quina
fa cciÃ³n
Ġami gas
ĠtelÃ©f onos
Ġcompeti ciÃ³n
Ġsecu es
u de
Ġc n
lor ia
Ġambien tales
Ġvanguar dia
a di
Ġno vel
tr in
Ġac Ã¡
Ġcer cana
Ġsig no
Ġigu ales
ĠprÃ¡c tico
Ġenvi ado
Ġdele gaciÃ³n
Ġene migos
Ġproto colo
Ġn as
Ġpara r
Ġdef ine
Ġban dera
Ġlis tado
Ġm y
ar ÃŃa
Ġman tienen
no ta
âĢ¦ âĢ¦
Ġestu vieron
Ġpan el
Ġdra ma
Ġtransi ciÃ³n
ĠgrÃ¡ ficos
de ja
ci aron
Ġsus tancias
Ġinten so
Ã³mi ca
Ġasu mir
Ġar ru
Ġcons ervar
Ġperson almente
Ġw ashington
Ġade mas
201 1
Ġevan ge
g Ã©
Ġa ci
qu ÃŃn
ĠfÃŃsi cas
Ġapre ciar
l aridad
r eros
Ġau la
Ġa re
ba o
Ġtra tando
Ġcris tina
Ġganan cias
Ġla bios
Ġv ini
pa do
Ġcre ciente
Ġra mÃ³n
Ġgus tos
Ġtemp lo
Ġhuman i
Ġsub ven
Ġmateri as
Ġpresu puestos
Ġdefen sor
ĠelÃ©ctri cos
fon so
Ġxx x
Ġen tero
Ġn Ã¡
Ġprodu jo
Ġhora rios
Ġjuz gado
h h
l ari
Ġdi d
Ġma xi
Ġve a
ve mos
Ġredu ce
ller mo
Ġproba bilidad
ĠespecÃŃ ficos
b ul
pi ca
Ġinf la
Ġmos trÃ³
m ble
es co
Ġcon lle
Ġcu cha
Ġcor ona
Ġtro pi
Ġsegui mos
Ġm Ãºs
Ġsal sa
Ġcontin ente
e y
Ġ 00
Ġpro pa
ran da
Ġma gni
Ġvi cente
Ġbo de
Ġsig nos
Ġfil m
ĠhistÃ³ ricos
Ġincorpora r
Ġesen ciales
i den
Ġdes cuentos
Ġta sas
Ġmar car
Ġhi lo
Ġfan s
Ġorgu llos
Ġsuminis tro
Ġpa ul
Ġch ino
Ġjue ces
Ġgol f
Ġcontrase Ã±a
8 5
Ġa gencias
Ġta i
ĠnÃº cle
Ġpasa jeros
Ġsatis f
ci Ã£
Ġm p
Ġtra ma
Ġob tuvo
ĠÃ© tica
bri a
Ġpermi tan
Ġcomen tar
publi cado
Ġsuspen siÃ³n
Ġpeda g
gu lo
ĠÃº tiles
Ġbol sas
Ġreco gida
Ġcine mato
Ġcolec tiva
Ġindica dores
Ġabor dar
Ġcon fun
man ca
ber g
Ġlla mÃ³
osa mente
Ġinteri ores
Ġindividu o
Ġcristi anos
Ġauton omÃŃa
] .
Ġi gn
el d
Ã³mi co
Ġmadu ro
i les
di car
Ġhi gien
teri as
Ġmodi ficaciones
Ġindividu os
Ġhubi ese
Ġbara to
Ġpeniten ci
Ġk u
Ġproduc tividad
Ġcerem onia
g ol
Ġf este
Ġfru to
Ġvita mina
ĠvÃŃn culo
b ÃŃ
Ġen te
Ġv uelos
Ġin yec
Ġdes gracia
Ġpr endas
Ġcre ada
Ġtelef Ã³nica
Ġfues e
Ġs l
er ÃŃas
Ġpo eta
Ġman cha
Ġgenera ciones
Ġatra ves
Ġsupon go
mbo lo
li to
res iÃ³n
Ġto mo
Ġco bra
Ġmo dos
Ġvuel tas
Ġrespal do
Ġbicicle ta
Ġasi gn
Ġpatri a
Ġnavar ra
Ġser gio
Ġmar x
Ġcor ea
ala da
re y
li za
mb res
bu ena
Ġabier tas
Ġtera pia
z ones
Ġor questa
Ġver se
uer zo
Ġobli gado
Ġemo ciÃ³n
Ġprovee dor
Ġocci dental
Ġse p
Ġcu lo
Ġci ty
tri ces
Ġele vado
Ġconec tar
ĠestÃ¡ndar es
Ġe cos
Ġpro greso
Ġtra tados
Ġad ri
Ġmon stru
Ġauto bÃºs
Ġreco ge
Ġsatisfa cer
Ġadoles cente
an d
Ġal erta
gi cas
Ġpres ta
ĠÃ¡ frica
Ġafi cionados
Ġimagen es
n ar
Ġcono cen
Ġga to
Ġpos tura
Ġpron un
Ġquedar on
Ġdelin cu
Ġsan tander
Ġbas ura
Ġcultura s
Ġlin k
ĠacadÃ© mica
ĠcÃ¡l culo
Ġca ted
Ġpu dieron
Ġk en
Ġsolici tudes
Ġpis os
Ġsebasti Ã¡n
Ġju rado
Ġcontra tar
Ġacces i
Ġderro ta
t ÃŃan
Ġfun cional
Ġja mes
Ġbal Ã³n
Ġdese os
Ġmec Ã¡nica
Ġestad ÃŃstica
en cuen
Ġdes fi
ini dad
i za
t v
as te
Ġtra mo
Ġan Ã³n
Ġco di
Ġor to
Ġsal to
Ġlla man
ĠÃºni cos
Ġimagin ar
Ġo dio
Ġvi vimos
Ġli ci
Ġpr ÃŃn
Ġgen e
Ġfor t
Ġedi tor
fo to
201 0
Ġguer rero
Ġfeli ces
iva mente
Ġradi cal
Ġin ti
ch ando
Ġj an
Ġesta ciones
Ġgra bar
Ġhi elo
Ġcontinu idad
Ġayudar Ã¡
Ġaven turas
Ġhume dad
Ġ !
ali a
Ġtu tela
Ġgu ia
Ġprovin cias
i des
j eras
es cri
ba co
Ġfom entar
Ġe cha
Ġm s
Ġcu ali
Ġra ti
ĠseÃ± ales
ĠcÃ³mo da
Ġtele comunicaciones
Ġger ente
Ġcance laciÃ³n
Ġsan ciones
Ġfor m
Ġtras lado
Ġhor mi
Ġexis tir
Ġbil le
cÃ© u
Ġdid Ã¡c
Ġb b
Ġqu iso
Ġad h
Ġanun ciado
ĠseÃ±al ado
ĠpÃ©r didas
ÃŃ ces
Ġan da
Ġtras cen
ori dad
Ġ9 5
tÃ© cni
Ġcorpora l
ciu dad
Ġh ero
Ġven ti
Ġconsi der
Ġacep tas
Ġnico lÃ¡s
h tt
Ġl Ã¡s
Ġdis cre
Ġcre emos
ech os
Ġga b
Ġestable cidos
pre cio
ĠseÃ±al ar
Ġfacili ta
Ġdes espera
Ġan ali
Ġencuen tre
Ġabri Ã³
Ġescen arios
Ġama zon
Ġdev oluciÃ³n
di as
Ġcor tos
Ġentre tenimiento
cha el
Ġreci ben
Ġpan orama
Ġren un
Ġdepen dencia
Ġjes u
Ġvid rio
Ġ Ġ
Ġsu bida
Ġcristi ano
Ġme l
rar on
Ġtermin al
Ð ¸
ta Ã±a
ti zar
Ġex cur
Ġmar cado
Ġpi lar
Ġad ju
Ġpeli cula
Ġperman ecer
Ġelabora r
Ġfrecu entes
Ġnaran ja
ol vi
Ġmedi terrÃ¡n
Ġfi de
Ġparticip aron
cis ta
Ġrestau raciÃ³n
Ġdestin os
Ġargu mentos
Ġasesina to
Ġes pon
Ġcon ferencias
Ġv s
Ġper f
ch il
Ġpla ca
Ġblog s
Ġaman tes
c Ã©n
m ÃŃa
o tras
to da
Ġvi viendo
Ġfue ran
Ġencan to
Ġfuncion ario
Ġconfir mar
Ġcamis eta
a pro
i re
Ġen de
ca miento
va das
Ġmedi ados
Ġexpres amente
m y
Ã© l
na da
Ġsal ario
Ġdu cha
ĠÃ¡ ra
Ġhabi a
Ġelabora do
Ġchar la
Ġisa bel
Ġbl ue
Ġdoctr ina
e da
r ente
ma go
Ġbal on
ĠclÃ¡s ica
Ġfavori to
Ġtari fas
m uni
Ġs tor
Ġcon forma
Ġmi x
Ġmen sual
Ġsecre tos
Ġconoce mos
visi ones
Ġextraord inaria
- .
Ġdis ney
bili zaciÃ³n
Ġ4 4
Ġhue vos
Ġaconte cimientos
cru z
! ,
5 7
tra je
Ã©n ez
Ġpe ga
Ġcos tes
Ġfr ÃŃa
Ġconvi er
Ġdesi gual
Ġfemen ina
Ġrespi ra
le a
Ġsu ficientes
Ġus os
Ġmen su
Ġbus co
Ġcompar te
Ġenerg ÃŃas
Ġpop ul
Ġcapi tÃ¡n
Ġjard ines
Ã ¢
fi ce
Ġma il
Ġexpli caciÃ³n
Ġprofun di
Ġconec tado
Ġpro mue
ps is
Ġjudi ciales
Ġesca par
Ġestadouniden ses
Ġorgu llo
Ġrelevan tes
Ġ <
Ġse co
Ġg loria
Ġsin ies
Ġinten sa
Ġindepen dientes
Ġdemas ia
ci era
Ġofre ciendo
Ġgi ro
ĠcrÃŃ tico
Ġtre men
l fo
Ġde tener
Ġpa cto
Ġvi gencia
Ġpre de
sa dos
Ġru tina
200 7
Ġllega mos
Ġselec ciona
ines s
Ġapara to
cer ti
Ġsa gra
Ġpu dieran
Ġapar iencia
Ġproces amiento
Ġ* **
Ġrele vante
Ġfom ento
s h
Ġcon fec
Ġdi ces
Ġco brar
Ġra ro
Ġcri a
ĠÃ©s tas
Ġl istas
Ġimp eri
Ġboni tas
Ġexperi men
ĠdemocrÃ¡ tica
Ġhigien e
a ble
Ġre bel
Ġhi pÃ³
Ġbar ri
Ġbor de
Ġelimin a
Ġlibera ciÃ³n
3 00
j or
s t
Ġcons is
ÃŃn sula
Ġextra Ã±a
Ġdiri gentes
Ġvideo juegos
Ġregres ar
Ġdestin ado
Ġdiscri minaciÃ³n
gu Ã©
Ġconta minaciÃ³n
Ġem ble
Ġfir mas
Ġestr eno
Ġcomenzar on
Ġbai le
j ano
Ġse ra
Ġcos tumb
ine te
Ã³n icas
Ġse ca
Ġre in
Ġno v
Ġmi gra
Ġcar tera
Ġles iÃ³n
Ġadministra ciones
Ġcir cular
Ġrei vin
Ġequival ente
Ġque do
ces to
Ġinter nos
Ġcos tu
tili dad
Ġinten tando
Ġases or
Ġrefle ja
Ġve ÃŃa
ala jara
Ġtemp rano
Ġinvesti gar
Ġdetermin ados
Ġcarb ono
Ġincu mpli
Ġmis teri
Ġgu ad
Ġide ales
Ġdistin ta
Ġproyec ciÃ³n
Ġreserva dos
Ġincorpora ciÃ³n
Ġlevan tar
Ġargu mento
Ġepiso dio
Ġpu ra
Ġhom o
Ġcolec tivos
Ġreno vaciÃ³n
Ġinspi raciÃ³n
Ġpresiden cial
Ġa du
on el
tado ras
ĠquÃŃ mica
Ġactiv ar
ĠbritÃ¡n ico
c n
m ÃŃn
Ġca yÃ³
Ġvi bra
Ġagu an
Ġterri torial
Ġfarma cÃ©u
ĠlÃŃqui do
Ġventan as
Ġde du
Ġc ra
Ġtu vimos
Ġsali das
Ġcaus ar
Ġfre e
Ġsenti mos
Ġpor tada
Ġconstru ido
Ġinsta lado
Ġinfan tiles
Ġmonta Ã±as
Ġportu gal
Ġdes in
Ġta len
Ġlar gos
Ġofi cio
Ġnutri ciÃ³n
Ġwil lia
8 9
Ġd uelo
zar se
Ġreci n
Ġpubli cados
tera les
Ġos car
Ġcelebra do
Ġlimpi ar
b in
c ari
t ml
Ġin tu
Ġti ra
Ġdisf ra
ĠtenÃŃa mos
Ġmanda tario
Ġh ec
Ġimp re
Ġmun di
Ġpin tar
ĠaÃ±a diÃ³
Ġsani tarios
Ġt Ã¡c
Ġcu sto
Ġpo quito
Ġman dar
Ġali mento
Ġquin ta
Ġp ecu
ta ban
qu ismo
Ġme jo
ber os
Ġfor mal
Ġpermi tiÃ³
Ġki los
Ġconclus iones
g rantes
Ġo raciÃ³n
no ti
Ġmedi r
Ġcontro les
Ġima g
Ġminis tros
Ġrepe ti
Ġmetro poli
5 9
Ġh el
le tas
Ġver duras
Ġfun dador
Ġempres ario
olÃ³gi cas
Ġsala manca
c tivo
Ġe misiÃ³n
Ġcon tarÃ¡
Ġsol dados
Ġjo a
Ġhogar es
ĠÃ¡mbi tos
Ġporta voz
i an
Ġg lu
Ġgra baciÃ³n
Ġcan aria
Ġveci no
s Ã¡
Ġs ky
Ġen vas
Ġd as
Ġda da
Ġpol lo
Ġauto ra
Ġcole gios
ĠespecÃŃ ficas
Ġgui llermo
Ġequipa miento
Ġdeten ido
Ġvicepres idente
ĠcÃŃr culo
ta mo
Ġun ir
Ġper tin
Ġ4 6
Ġdedi car
Ġdescri be
Ġin cur
li aciÃ³n
Ġlo gro
Ġdejar on
Ġameri cano
ĠparÃ¡ metros
Ġmadru gada
Ġco ger
Ġne gros
Ġexcep to
Ġcon sa
Ġin al
Ġdon ald
Ġleg ÃŃ
Ġinvolu cra
8 7
Ġes can
cer ÃŃa
Ġch Ã¡
Ġpen siones
Ġespeci alizados
Ġacer car
Ġfru tos
Ġperiodis mo
z quez
Ġp len
ta ra
Ġma uri
Ġespe jo
Ġ4 9
Ġefec tivamente
Ġbol so
Ġig na
Ġsuficiente mente
Ġsor teo
, "
Ġw ord
Ġpen ÃŃnsula
Ġescri torio
ho p
Ġresponsa bilidades
Ġestan do
Ġobten ido
Ġheri das
Ġcon gres
Ġtra mi
Ġan to
Ġvi vido
Ġser ÃŃan
Ġpres tar
Ġus b
Ġrealizar on
Ġ0 9
.... ....
Ġquin ce
Ġcaracteri za
f le
i lla
Ġp m
te ll
Ġn ari
Ġse llo
Ġpara ÃŃso
Ġcu mbre
era r
Ġri cos
par te
Ġama ble
ĠpÃ¡r ra
Ġm aria
tion s
pla y
Ġnega tivo
Ġrecha zo
Ġflor ida
t Ã©r
Ġde pÃ³sito
Ġen ve
Ġcon dena
segu ridad
Ġalgo dÃ³n
Ġdef ien
ĠpodrÃŃa mos
Ġcentra les
Ġo lor
ros a
Ġpresenta ciones
Ġprecios o
Ġantigu as
Ġrin cÃ³n
a ta
Ġa val
or e
Ġre ad
Ġdes pren
Ġro mero
Ġhab lÃ³
Ġne ws
Ġpos tu
Ġfra g
Ġrespe tar
ĠrÃ© cor
Ġlatino amÃ©rica
Ġf ro
.. ...
Ġmedi as
Ġ199 8
Ġsuf rido
fin almente
Ġconsigu iÃ³
d ge
Ġcar dio
Ġsan t
Ġart ÃŃstica
Ġconfir mÃ³
Ġmanda to
l inas
mi c
lan dia
Ġmedi ciÃ³n
Ġnego ciaciÃ³n
Ġcrea dor
Ġimpul so
Ġindis pensa
g le
Ġpara da
Ġca m
Ġte mÃ¡tica
Ġco bre
Ġcal zado
Ġcua d
ĠsÃŃ mbolo
Ġdisfru te
Ġconsidera ciÃ³n
Ġcolabora dores
200 9
Ġpapel es
Ġpensa ba
Ġexcep cional
Ġdormi torio
Ġcuo ta
g nos
Ġa ba
Ġf ores
Ġob viamente
Ġw e
Ġ4 3
Ġdire cciones
Ġorgani zada
Ġfran k
ĠcÃ¡ diz
Ġ199 9
Ġconfor t
Ġcon tienen
Ġper cepciÃ³n
Ġan dre
po t
Ġcre ciendo
Ġdo cto
Ġgi gantes
Ġbel las
Ġconce jal
Ġcorpora ciÃ³n
a to
c Ãº
Ġla teral
om Ã©
Ġta x
Ġma ma
Ġsa ca
Ġescri tos
Ġjun tas
Ġdiri ge
Ġasocia do
Ġafec tan
Ġdecla ra
Ġcomi das
Ġrecla ma
Ġimper mea
Ġansi edad
Ġcuban o
Ġescor ts
on so
Ġg l
vi ar
Ġcar gar
Ġdetermin adas
Ġgusta vo
Ġsenti dos
Ġempren dedores
Ġabandon ar
in clu
Ġt onos
Ġdi arios
Ġex cu
Ġmin erÃŃa
Ġsur ge
Ġllevar on
se Ã±
Ġten Ã©is
tin es
Ġhu Ã©spe
Ġgus tÃ³
lado ra
Ġhar d
Ġcri ti
Ġpasa mos
Ġbol as
Ġcomb inar
Ġpresti gi
di caciÃ³n
man es
Ġab uso
eri fe
Ġutili zamos
Ġcr Ã³nica
Ġjard in
Ġgr ues
de la
Ġp ho
Ġme tas
du mbre
Ġinter fa
Ġref ri
Ġdiver siÃ³n
Ġpresu pues
Ġamena zas
Ġnecesaria mente
c d
Ġa ve
tu re
Ġexp osiciones
Ġra ÃŃces
eb ra
Ġparticipa do
ra y
dar se
Ġfr us
Ġcurios o
f ru
Ġpa ck
Ġdes nu
Ġcar ri
Ġanti o
Ġpoli cial
Ġinvi taciÃ³n
Ġig no
Ġempresari ales
Ġmedica mento
Ġdelan tero
f s
Ġcon cer
cion ando
Ġsi ria
Ġdis cul
mb ur
Ġbar ran
Ġllama dos
Ġconver saciones
Ġpoli cÃŃas
Ġconse jerÃŃa
Ġbel lo
Ġfron teras
Ġdisminu ciÃ³n
Ġcostu mbre
s Ã³
ca be
Ġpas ta
Ġau ten
Ġpon go
Ġpare ciÃ³
gue ra
Ġdispon er
ĠaÃ±a dido
Ġaban dona
a cu
p ru
Ġpro cla
fi que
Ġ4 1
ĠÃ¡ cido
Ġinv as
Ġposible mente
ĠdÃ© fici
Ġjugue tes
Ġgabri el
Ġque ma
tra da
Ġcu Ã¡ndo
Ġlo bos
tan to
Ġco her
Ġcre Ã³
Ġmus eos
Ġdesaf ÃŃo
ĠprÃ©s tamo
an cia
la ba
mien do
Ġhab ana
Ġley enda
Ġ0 1
Ġtradi ciones
Ġfres co
or io
Ġt ron
Ġten is
Ġcuar tos
Ġoa xa
ca mente
Ġo ÃŃdo
ba ma
Ġmis terio
Ġad minis
Ġbara tos
Ġmate mÃ¡ticas
ar chi
Ã¡ mb
Ġgu ti
Ġfinanci eras
Ġampli aciÃ³n
Ġconfigu rar
Ġdestru cciÃ³n
Ġbole tÃŃn
Ġdescubier to
e li
Ġs tu
Ġma tr
Ġor e
Ġk ing
Ġpes cado
Ġgi gante
Ġblan cos
Ġavan zada
Ġtur ÃŃstica
Ġguad alajara
6 7
res as
Ġra Ãºl
Ġaf ri
Ġsorpren dente
Ġbil bao
ĠtrÃ¡ mite
Ġdesper tar
r t
Ñ Ģ
Ġse o
Ġro jas
Ġgen eran
Ġvalora r
Ġapare ciÃ³
b lan
tu ro
Ġpro fe
Ġcar o
Ġsa ra
ha ra
Ġparticular mente
Ġestr en
Ġsemi llas
Ġelectro do
mad rid
Ġgali cia
l ing
Ñ Ĥ
ue va
Ġtra je
Ġni ke
Ġbo x
ts u
Ġapro bar
Ġm ÃŃo
un os
Ġes qui
di llas
Ġdi ga
Ġimpor tar
Ġ8 5
ini cio
Ġlar gas
Ġinde mni
Ġrei tera
Ġpaisa jes
Ġsto ck
f ri
l eros
Ġe go
Ġc v
me lo
Ġcas co
Ġmin eral
Ġref res
Ġanti gÃ¼
s ando
Ġa ter
ta tivo
Ġutili zada
Ġparticip an
Ġnie to
Ġdepres iÃ³n
in ti
in al
ca ble
Ġtra u
Ġco ca
Ġr ÃŃ
Ġafec tar
Ġarti ficial
Ġapre cia
Ġlor en
Ġinvolu c
a cep
e qui
lo w
Ġres cate
Ġrela tos
Ġelecto rales
Ġlab ores
Ġcostumb res
g li
z ana
Ġca ras
Ġperson alizada
Ġsa bi
Ġch al
Ġon e
Ġ0 8
Ġcla u
Ġdepor tivos
Ġrestau rar
Ġes cul
ÃŃ das
Ġan dar
gar on
Ġva ca
Ġante cedentes
Ġesc Ã¡n
Ġnu be
Ġfir mado
Ġredu cido
Ġfru ta
pue des
Ġtranspar ente
Ġmadri le
Ġcated ral
an es
Ġdes ple
Ġsub si
Ġsecre taria
n is
os ex
li d
Ġal fonso
pi co
cri sto
Ġur gente
Ġinno vado
Ġdefec to
Ġperfi les
6 2
tu ario
Ġca ba
Ġmu ro
Ġmar is
Ġni cara
Ġsal arios
Ġbar es
Ġru rales
Ġis o
Ġcolor ear
Ġselec cionado
or ro
Ġg esto
cios os
Ġexisten te
Ġcabal lo
Ġdicta dura
p r
Ġo pon
Ġb arro
qu eros
Ġi va
Ġresul tar
Ġaca bÃ³
pro te
Ġfutu ros
Ġfrecu ente
Ġile gal
Ġe mis
Ġgra ba
Ġra y
Ġhabi do
Ġcomerci alizaciÃ³n
Ġtej idos
Ġasien to
Ġgimnas io
t ta
Ġmar ÃŃ
ÃŃn as
Ġcele brÃ³
Ġdenom inaciÃ³n
Ġamari llo
Ġsosp ech
de f
tos o
Ġma x
vas cript
Ġwi ki
Ġdev uel
Ġfavori ta
Ġsosteni bilidad
Ġcl aridad
Ġh ones
Ġpa trÃ³n
ion ado
Ġ9 9
Ġesco ger
ci encia
Ġal f
los a
Ġten erife
Ġsan d
Ġincre mentar
Ġcatal Ã¡n
Ġfamos os
Ġgrave dad
ĠcuÃ¡n to
r ÃŃan
en za
Ġcor e
Ġba y
quier es
Ġhom osex
Ġbar re
Ġresul tÃ³
Ġrespon diÃ³
Ġinclu ida
Ġvas co
pres s
Ġdisminu ir
Ġacor de
Ġsimp les
g ones
Ġen tran
le to
Ġme mori
Ġhom bro
Ġprin ces
Ġdesa p
ÃŃsi mas
Ġconstitu yen
ĠmÃºsi cos
Ġvesti r
Ġsentir se
Ġr uso
gan cia
Ġcono zco
ris as
Ġvisi tante
Ġdetermin ada
Ġcristi ana
h en
Ġp ales
Ġpar ques
Ġadop tar
Ġmone das
Ġdescen so
Ġesque ma
Ġnucle ar
Ġe f
Ġg il
cu Ã¡n
Ġlo co
Ġmi chael
Ġubi ca
g ma
i eron
Ġb rus
qu ero
vi la
Ġaca bo
Ġani maciÃ³n
Ġdirec tivos
Ġpsi c
8 4
Ġe vo
Ġcom isiones
Ġi os
Ġ8 00
Ġcuan tas
Ġquin to
Ġsensi bilidad
Ġincon ven
Ġcoordina dor
t ona
ar Ã¡n
ri lla
tra ba
gu Ã©s
Ġpar ce
gi l
me x
Ġje an
Ġexpli cado
gna ciÃ³n
Ġdenom inado
Ġsole dad
s ol
Ġb ala
Ġpro cu
cu Ã¡l
Ġvi vos
Ġsen tÃŃa
Ġk ir
ton e
Ġvia jeros
Ġsuf riÃ³
Ġmasa je
Ġpriori dad
Ġa ran
Ġba h
Ġmen do
Ġpi c
Ġhay as
Ġcome dia
Ġdespa cho
s ales
Ġre ver
Ġesta tales
der s
Ġcons cientes
Ġpi ra
ÃŃcu las
Ġah i
as i
Ġh s
Ġca Ã±
Ġan tro
Ġllegar Ã¡
a mbien
ti cs
fi cando
Ġcomp ensa
b lado
i ales
es en
Ġo x
li ta
cu siÃ³n
Ġli tros
Ġvia ja
Ġcolombi ana
Ġmasco tas
Ñ ģ
Ġsu Ã¡rez
Ġver te
Ġsa m
Ġprodu ctor
Ġale mana
Ġmodi fica
Ġadul to
Ġsecund arios
tÃº an
Ġcuadra dos
. :
p m
Ġe dades
Ġve te
Ġcor tar
cur sos
Ġmon tar
Ġpon te
Ġhaber se
Ġpens Ã©
Ġsindica to
g b
Ġde lica
in d
Ġal onso
Ġespa da
com p
Ġbus cas
dro me
Ġparticip Ã³
ĠespecÃŃfica mente
cer os
Ġcar tel
Ġhech as
isten tes
Ġvuel ven
Ġdiver tida
Ġigna cio
qu ien
Ġinf laciÃ³n
cen tro
Ġfi la
Ġven ga
Ġyo ga
Ġinvi tado
cate gor
rÃº r
e za
Ġcon tado
Ġtu viera
Ġfa ma
Ġus ados
Ġperfec ciÃ³n
Ġlleva mos
Ġlimi tada
Ġcuesti on
Ġllu vias
Ġlagun a
g t
k en
Ġc Ã©s
Ġto me
Ġvi ce
Ġap ete
Ġja ra
Ġag us
Ġopera dores
Ġeduca tivas
Ġllev ando
Ġmia mi
ĠchÃ¡ vez
Ġ ï¿½
la mos
Ġj al
Ġma ter
Ġva yan
par ti
Ġindi re
Ġaman te
Ġimpon er
4 00
7 2
ti emp
vi da
Ġestu ve
Ġtab las
Ġper pe
Ġan fi
Ã¡n icos
Ġres is
uni dad
Ġescri tores
Ġsuper vi
Ġvita minas
Ġnegra s
Ġensa yo
Ġintera cciÃ³n
b Ã³n
mi li
si l
Ġex ce
ga ciones
Ġir ri
Ġmor ena
ĠÃ³ p
Ġtur ÃŃsticos
Ġrepar to
! .
g lo
s Ã³lo
te mp
Ġte cni
", "
Ġabier tos
Ġcelebrar Ã¡
Ġsuger encias
5 8
Ġde cre
Ġex terna
Ġsa tÃ©
Ġposi cionamiento
Ġdise Ã±ar
ju an
Ġnum ero
Ġbeb Ã©s
Ġtesti gos
Ġmete or
e dor
i llo
Ġin tra
Ġre porte
ten cias
gi eron
dor e
Ġpre cis
Ġimp rimir
Ġad vir
Ġban ca
Ġevi ta
Ġseguir Ã¡
Ġesco lares
Ġtitu lado
Ġameri cana
Ġdomini cana
ĠprÃŃn cipe
Ġto man
Ġbo das
trar se
Ġvio laciÃ³n
Ġcompa tible
ay er
Ġetique ta
Ġile g
Ġmotiva ciÃ³n
ĠportÃ¡ til
ĠcÃ©s ar
te le
Ġper dida
Ġan gus
Ġmar ce
Ġpu diendo
Ġja vascript
Ġconta min
Ġpresenta mos
Ġdecla rado
Ġconfir ma
Ġacla rar
Ġafron tar
z ona
Ġhab lado
Ġencon trÃ©
Ġdeparta mentos
Ġmanifes taciones
Ġimple mentar
Ġentrevis tas
Ġp istas
Ġs hi
or ÃŃas
Ġh em
Ġf lash
Ġha cÃŃan
bra da
Ġ199 6
b ina
Ġde do
ri ght
ora r
Ġinforma ciones
ez an
Ġpaci encia
Ġcolo ca
Ġmulti pli
Ġsien ten
ĠestratÃ© gica
Ġhici mos
ĠdÃ©fici t
Ġf Ã©
Ġsus tan
Ġbus iness
Ġtras tornos
ms ung
Ġoc Ã©
Ġcarre teras
Ġtrabaja mos
Ġinteg ridad
Ġtesti monio
Ġjuris pru
Ġconqu is
Ã ²
Ã¡ menes
si mo
Ġch is
Ġva ti
bu enas
Ġindi can
Ġmer ca
Ġrela tiva
Ġgas olina
Ġentr Ã³
Ġmoder ni
Ġadelga zar
tu vieron
Ġpro bado
Ġmu Ã±
Ġadministra tivos
Ġcuen ca
Ġbloque o
ta tiva
Ġal l
Ġsi mpli
mi ra
Ġas us
Ġfi jo
il er
Ġdeman das
Ġdenun cias
Ġreti ro
Ġadop ciÃ³n
Ġmen cionado
Ġcompro misos
Ġejecu tar
Ġprecios a
Ġterren os
Ġprotes ta
c ci
mi zar
Ġpre di
ĠvÃŃ ctor
Ġ199 3
Ġterri torios
Ġreligi osa
Ġcuo tas
Ġbron ce
Ġcarpe ta
e cido
Ġla ura
Ġf usi
Ġpi co
Ġgra bado
Ġsan o
Ġcla ras
Ġimpe dir
bien ven
or t
is h
Ġin espera
Ġd vd
Ġcas ino
ll y
Ġconsi go
Ġart ÃŃstico
Ġcorre dor
Ġinaugu raciÃ³n
Ġc lan
Ġcu yas
pi Ã©
Ġco gni
200 8
ĠsÃ© pti
Ġperju icio
Ġdetec tar
Ġdimen siÃ³n
Ġlig ero
Ġcom parar
Ġan ten
Ġpre vÃ©
Ġsal ga
Ġsos tuvo
Ġgras as
Ġcale facciÃ³n
Ġs cho
un tamente
Ġre mon
Ġi da
Ġdes o
Ġti rar
lu m
Ġon da
Ġconse jero
Ġdirector es
Ġcomien zan
Ġtenga mos
Ġvera cruz
Ġna v
jo y
Ġins tan
Ġpos esiÃ³n
Ġtrata ba
Ġhabi tuales
Ã©r rez
Ġnega tiva
Ġcump len
Ġepiso dios
Ġverti cal
Ġvalenci ana
Ġfi li
Ġad s
Ġ5 6
Ġestudi an
Ġderi vados
Ġexpe diente
7 6
Ġgen er
Ġindustri as
Ġbe bida
Ġconqu ista
algun os
Ġmenti ra
Ġsuper mer
Ġlan zÃ³
Ġcompe tir
ol as
Ġvolun tarios
Ġinci dencia
fon ÃŃa
8 6
Ġde cenas
ra ble
Ġm ali
Ġen gan
Ġforma tos
Ġcer ro
Ġja pon
Ġmol inos
Ġsuf ren
ĠcÃ³di gos
Ġingeni eros
Ġsupre ma
5 4
w ar
es paÃ±a
as is
Ġse paraciÃ³n
Ġdi vis
Ġperson alizado
Ġri vera
Ġ5 2
for d
Ġvo tar
Ġadministra tivas
mÃ³ s
Ġcorri entes
Ġmue ve
Ġsani taria
nes s
Ġbes os
5 6
n s
Ġla c
Ġm ina
Ġin si
con tin
Ġli cen
Ġmedi e
xi ones
Ġmos trando
Ġconsidera da
ĠcientÃŃ ficas
Ġarri es
Ġcompeti tividad
Ġveri ficar
Ġsu ena
Ġsa u
Ġcono cidas
Ġbo la
tien den
Ġmaravillos a
Ġuru gua
Ġine vi
Ġdi Ã³
tra to
Ã± an
Ã± era
Ġmo chi
Ġpe di
Ġcan cha
Ġpos teriores
ĠfÃ¡ ciles
Ġaplica ble
Ġconcre tamente
Ġrecomen dar
v ari
w eb
Ġp ÃŃ
Ġju gado
Ġrecono cida
Ġtitu lares
ĠelÃ©ctri cas
Ġempi ezan
Ð ½
Ġor din
ona da
Ġbol ÃŃ
Ġproce de
Ġcolabora r
Ġpaque tes
Ġbolsi llo
Ġpi on
Ġmas as
Ġbri llo
Ġabs ur
Ġingeni ero
wa y
Ġrefor zar
ĠâĢ Ŀ
Ġsa bido
Ġfe de
Ġsolici ta
Ġdesta cados
Ġcomb in
Ġterri ble
Ġat lÃ©
Ġvas o
Ġexplo rar
mÃŃ rez
u to
Ġl ento
Ġmi r
Ġle ve
Ġpre cipi
man tes
Ġson idos
Ġvenezol ano
Ġcuri osidad
Ġbalon cesto
Ġmauri cio
k ar
ÃŃ genes
Ġpro xi
man os
Ġra mos
Ġsen saciones
Ġk it
Ġestu dia
pÃ© u
Ġhec tÃ¡
on ÃŃa
Ġen vÃŃa
ce les
Ġan uales
man n
cri s
Ġlan zado
Ġblan cas
Ġbe ber
Ġcap ÃŃtulos
en tonces
Ġcon de
gar Ã¡
Ġ: )
Ġdeco rar
Ġtribun ales
ĠgrÃ¡ fica
Ġin capa
Ġre clu
Ġpas tor
Ġesp an
Ġcer can
Ġcer canos
Ġnor males
Ġuniversi tarios
Ġavan zado
Ġemo cion
Ġhon duras
ĠmÃŃni mos
ĠautÃ©n tica
Ġsemin ario
8 1
Ġre car
Ġven cer
Ġpresenta da
Ġsom bras
Ġsuf re
Ġrepresen tar
Ġmaes tra
Ã© ramos
Ġal fa
Ġte mor
Ġden tal
Ġcomple mento
Ġatra er
Ġenten demos
Ġestre cha
Ġilu min
Ġincen dio
Ġcocin ar
Ġaustra lia
a b
p eri
te ga
Ġpor quÃ©
Ġmi el
cos a
Ġgu iÃ³n
Ġlen guas
ĠlÃ¡ mpa
Ġfarma cia
Ġpantal ones
Ġdesarroll ando
j idad
Ġin mer
Ġre parar
Ġcu alidades
Ġma pas
Ġvi v
Ġmar ta
Ġab uela
Ġra yos
Ġbi t
fe dera
Ġanun ciar
Ġcrea tivo
Ġmol esti
Ġencan tado
Ġfuncion an
Ġocupa ciÃ³n
Ġenor mes
Ġm ales
in formaciÃ³n
ti cia
Ġcu bre
si c
Ġdesi erto
Ġgre cia
ĠbÃ¡sica mente
Ġsacri ficio
Ġin to
Ġb ern
Ġ6 4
Ġpin turas
Ġdese an
Ġ199 7
Ġquedar Ã¡
Ġpose en
Ġinmue ble
Ġelectrodo mÃ©s
Ġmendo za
e u
Ġpas aron
Ġreun ir
Ġloren zo
Ġan aliza
Ġcre an
Ġ5 9
Ġfantas ÃŃa
f la
l mente
v esti
Ġs na
re cor
Ġdi si
du la
Ġmos trado
Ġexi gir
ĠtrÃ¡ mites
Ġetique tas
g g
Ġg ps
Ġvo taciÃ³n
Ġadministra dor
Ġrecor dÃ³
Ġorien tal
Ġmulti media
Ġrelevan cia
x y
ta cion
Ġsus tancia
Ġci tado
Ġcompar ten
Ġconsu mir
Ġrecin to
Ġes pu
Ġre e
Ġvi llan
Ġreali zamos
Ġcono cÃŃa
Ġrep ente
Ġqui rÃºr
Ġprote ÃŃnas
Ġcontinu o
Ġpasa ba
Ġlimi tado
Ġpien san
Ġizquier do
Ġrevolucion ario
Ġfort una
Ġp use
Ġca bil
des cu
enta miento
Ġba j
Ġhi jas
Ġacu sado
Ġ18 0
Ġalcan zado
Ġmara villa
Ġvaria bles
ĠautomÃ³ vil
ti pos
Ġcon tando
Ġex quisi
ali as
Ġcen su
Ġintegra da
Ġvie jos
ĠtecnolÃ³gi cos
Ġoptimi zar
Ġjim Ã©nez
ba ra
Ġpar k
Ġmi erda
Ġres ervar
Ġne o
Ġat mÃ³s
Ġalre dedores
Ġmanifes taciÃ³n
ar lo
re za
la ce
Ġcali ficaciÃ³n
Ġfas cin
Ġdescri bir
Ġreac ciones
Ġmanifi esto
ĠpacÃŃ fico
Ġguti Ã©rrez
to p
Ġse t
Ġre me
Ġno table
Ġsi llas
Ġba tal
Ġop en
Ġlin do
Ġincre men
Ġlog ÃŃstica
Ġverdadera mente
Ġensa yos
ĠrÃ©cor d
Ġm ÃŃa
Ġi bi
ni co
eri as
Ġtrans fer
Ġexpres iones
Ġgol pes
Ġmarca dor
Ġadecu adas
Ġcorri endo
,, ,
Ġindependiente mente
Ġma cro
den tro
hi dra
Ġur gencia
Ġencontra rÃ¡
ĠperiÃ³ dicos
Ġflexi bilidad
Ġp l
Ġca Ã±a
Ġob tiene
Ġmis iones
Ġlle go
Ġtras era
Ġbos ques
Ġcompon ente
Ġvaria ble
ĠÃ¡lvar ez
Ġ ....
Ġde ca
Ġca mas
ran os
Ġco co
Ġpre ce
Ġsa msung
Ġesp oso
ha us
Ġga tos
Ġpon ga
Ġauto mÃ¡tico
Ġsali eron
Ġcondu ctores
Ġeurope as
Ġcapital ismo
Ġrenta bilidad
Ġhuel ga
Ġapara tos
Ġc le
Ġs pi
Ġh p
Ġal m
Ġlu cro
ros s
Ġja ime
Ġcua der
Ġcompar tido
Ġapren dido
Ġvues tros
grÃ¡ ficas
Ġrode a
Ġconces iÃ³n
ĠaÃ© rea
Ġgab inete
b Ã©
Ġe terna
Ġf ina
Ġre ta
Ġpa gan
Ġi l
Ġi mi
Ġsus cripciÃ³n
Ġra mÃŃrez
com en
Ġhu go
Ġestu pen
Ġven ÃŃa
Ġcal ma
Ġgas es
Ġdistribu i
Ġpensa mos
Ġdestin ados
Ġmanten iendo
Ġreda c
ĠprÃ©s tamos
Ġnavi de
e de
Ġg oma
Ġsu mer
ÃŃsi mos
Ġopera dor
Ġespera do
Ġdirector io
Ã¡ndo me
Ġnove dad
Ġdescubri miento
Ġdeten ciÃ³n
ĠquÃŃ micos
Ġdesaf ÃŃos
Ġtole do
ci mos
Ġse du
Ġb r
Ġcomp osi
gra fi
mb er
Ġmes si
Ġmus ul
Ġvuel va
Ġcri tica
Ġcho que
Ġsui za
Ġoaxa ca
p lo
Ġm l
ec ÃŃan
Ġi tin
Ġcar na
esti ma
Ġ5 4
Ġgo le
ez can
Ġprote gida
lado lid
Ġdiri gente
ĠdÃ³ lar
Ġmerce des
e to
Ġin olvi
Ġdi rÃŃa
Ġcu bana
Ġco ali
Ġli mÃ³n
Ġu c
Ġlle ve
Ġcorre dores
Ġconfir maciÃ³n
Ġul tima
Ġfinancia miento
te za
Ġcon viene
tra les
cu s
Ġpoder oso
Ġhuman as
Ġayudar te
Ġprome te
Ġdue Ã±os
Ġpeligros o
Ġcotidi ana
ci alidad
Ġcon ge
Ġma ch
Ġap uestas
Ġver la
Ġpes a
Ġtar des
Ġcin cuenta
Ġpresen taron
ustri a
Ġ11 0
Ġcap ri
Ġrus a
Ġmoto ci
Ġrefu giados
lis h
fortun adamente
7 1
le cciÃ³n
Ġtra te
qui ero
Ġro dri
cin g
Ġpremi um
Ġinvestiga dor
Ġencu estas
Ġlegisla tivo
b ÃŃa
ec k
Ġ1 000
Ġvi viÃ³
qui ta
Ġman tuvo
Ġcre encias
fica das
Ġpen siÃ³n
segu ida
Ġ7 2
taria mente
ĠfÃŃsi cos
Ġalum nado
Ġconside rando
Ġcabal los
Ġinspec ciÃ³n
7 4
Ġs un
di ar
Ġo bama
Ġb ono
Ġap rueba
Ġinter rump
Ġsan gu
Ġhar ÃŃa
Ġcuar enta
Ġadap tar
ĠtÃŃpi co
Ġcanta bria
Ġaconse ja
n unca
Ġs co
om i
is iÃ³n
Ġro bar
Ġplan tel
Ġestu viera
Ġrealizar se
Ġcomen zado
Ġbe be
Ġocul tar
Ġmanifi esta
Ġin certi
Ġfa cil
Ġconten er
tel erÃŃa
Ġregi onales
Ġafec tado
Ġinteli gentes
Ġa quÃ©
que tas
Ġb ecas
Ġsu be
lo gia
dad ores
Ġmo tos
ĠmÃ¡ gico
Ġperten ecen
Ġras gos
Ġascen so
Ġextraord inario
e bre
Ġcon tun
ran ÃŃa
Ġex Ã¡menes
Ġpla zos
Ġher rera
Ġcomple jos
Ġcorre a
Ġapro bÃ³
Ġren uncia
Ġcomenta do
Ġdetermin aciÃ³n
Ġros as
Ġrecomenda ciÃ³n
Ġbom beros
Ġdescan sar
Ġdul ces
ĠlÃ¡ gri
Ġreve la
r Ã¡s
dos o
ba ck
Ġpo tter
Ġman io
Ġcas ta
Ġbo tas
Ġeli ge
Ġ199 4
Ġoli va
Ġafue ra
ti za
Ġro u
Ġru p
Ġmal lor
Ġpul gadas
Ġtes oro
Ġcompor ta
Ġrelo jes
Ġaver i
Ġs y
Ġca ch
Ġvi al
Ġor tega
Ġch ia
Ġter res
Ġcambi ando
grÃ¡ ficos
ĠautÃ©n tico
ĠnÃºcle o
is tica
li cas
era ciÃ³n
Ġpue bla
Ġbo tones
Ġsolici tado
Ġcrea tiva
Ġentr en
Ġqueri dos
Ġaudiovis ual
6 1
li zado
Ġj en
Ġpre cau
Ġcomple mentos
Ġamb ientes
Ġvisi ble
Ġselec cionados
Ġconfir mado
Ġexperi mentar
Ġinfec ciÃ³n
5 1
Ġsu ministra
je cimiento
til los
Ġencontrar on
Ġrecono ciÃ³
Ġcumpli do
Ġenv uel
Ġcompren de
Ġagre ga
Ġpelo ta
Ġrespec tivos
Ġdescono cido
Ġl ingÃ¼
Ġs por
Ġn Ã³
Ġin tes
mo to
Ġmi len
Ã¡n donos
Ġres istente
Ġhom i
Ġenv ÃŃos
Ġasien tos
u a
or cio
ca m
Ġex ista
Ġpo wer
ona dos
Ġmin istra
Ġpob laciones
Ġobliga torio
Ġpier das
Ġcalor ÃŃas
Ġsenta do
Ġligera mente
Ġconvier ten
Ġdesap ariciÃ³n
h os
ci entos
vi erte
si dad
Ġso bra
nos otros
mu chos
Ġgal ard
lÃ¡ us
Ġescal eras
Ġrober t
Ã§ a
Ġpoe mas
d ones
Ġa zo
ce o
Ġmo bili
Ġop tar
Ġcen tÃŃ
Ġ5 8
Ġinforma tivo
dan cia
dal o
Ã¡ndo la
Ġprepara dos
Ġsensi ble
Ġobis po
ĠmÃºs culos
% )
ga ble
Ġac tÃºa
Ġfi jar
Ġva cun
). -
Ġdeci dÃŃ
Ġdesarro llan
Ġencontrar se
Ġregistra dos
fre do
Ġdifun dir
Ġseg mento
Ġtalen tos
in clus
Ġme dina
Ġi lÃŃ
Ġdis puestos
Ġpu ta
Ġsup ues
Ġlla ve
Ġespeci alidad
vien en
200 6
Ġsuce dido
Ġnar co
ĠsÃŃn drome
Ġspa m
Ġtriste za
Ġmanipu laciÃ³n
Ġnegocia ciones
i p
Ġre torno
Ġno tar
Ġsigu iÃ³
dis tas
Ġcru zar
Ġlogra ron
Ġbanc aria
Ġsobrevi vir
Ġparro quia
i tes
Ġs t
Ġen via
ti an
Ġse cciones
Ġal ter
Ġd ÃŃ
Ġtra tan
Ġvi eron
Ġtu vi
Ġri ch
Ġauto p
Ġdestru ir
Ġcomprome te
Ġtera pÃ©u
Ġbote lla
v Ã¡
x ia
Ġc is
Ġh y
Ġb onos
Ġmi chel
Ġve ga
Ġsan ciÃ³n
Ġatra vi
Ġresi dentes
Ġconfor man
Ġben di
Ġpele a
Ġliqui daciÃ³n
Ġceb olla
ĠhuÃ©spe des
m ista
Ġde ro
cion ario
Ġcomp uesta
Ġson ora
mb ar
Ġemp ec
Ġcomple jidad
Ġrela tivamente
Ġcier ra
Ġfunda da
Ġpin ta
Ġbusca mos
Ġat lÃ¡n
Ġlog ros
Ġtru cos
Ġber lÃŃn
Ġinmue bles
Ġhospi tales
ĠantigÃ¼ edad
Ġde gus
Ġse mestre
dis cip
Ġvista zo
Ġvege tales
Ġpresti gio
Ġmascul ino
en tal
to ral
Ġse as
Ġpa pÃ¡
Ġi rÃ¡
Ġdis para
Ġreali ce
Ġesp ar
Ġpuer tos
Ġ199 0
Ġcabal lero
Ġterror ismo
Ġconcur sos
Ġperju di
____ ____
ĠreÃºn e
5 2
es pero
Ġse parar
Ã© rico
Ġpara guay
Ġor ÃŃgenes
Ġver Ã¡
Ġr un
Ġcondu ce
Ġmol de
Ġoficial mente
Ġsupues tamente
Ġe fe
Ġper misos
me t
Ġest Ã³
Ġcomp rado
Ġdeci dieron
Ġmantener se
Ġcristi an
Ġdele gado
Ġfla men
ĠcontemporÃ¡n ea
Ġscho ol
ĠatmÃ³s fera
c rÃŃ
Ġh Ãº
Ġpa y
Ġest Ã©s
Ġu d
Ġcos tas
Ġplan os
Ġ5 7
Ġencontra ban
Ġajus tes
ĠacadÃ© micos
Ġevange lio
te z
Ġo xi
Ġre genera
Ġsi tÃºa
du re
Ġacom o
Ġfra cas
Ġases orÃŃa
cons ul
Ġestatu to
Ġagrupa ciÃ³n
g Ãº
Ġs s
Ġin gen
Ġto m
Ġab uelo
Ġgu ÃŃas
Ġ9 00
Ġdispon emos
Ġocur rir
ĠdÃ© ci
Ġata car
Ġfil tro
Ġimple men
Ġperu ana
Ġrapi dez
Ġeter no
Ġjoa quÃŃn
en t
ta bilidad
Ġfi re
Ġele var
Ġestable cidas
Ġalcan zÃ³
Ġagu i
Ġbor do
ĠÃ©xi tos
Ġobserva ciÃ³n
Ġaparta mentos
Ġrenova bles
Ġgene rando
Ġl l
al l
Ġt ÃŃo
Ġre c
des arro
min o
ĠestÃ¡ bamos
Ġven den
Ġhar ina
Ġloc alizaciÃ³n
Ġsos tiene
Ġdecla rar
Ġcabil do
Ġal za
Ġmo tiv
Ġob es
Ġmedi ano
Ġsen ador
Ġsex y
Ġqueda ba
Ġconj unta
Ġirre gu
Ġmod alidades
Ġarreg lar
ĠhÃ© ctor
Ġdesarroll Ã³
ĠpolÃ© mica
Ġme lo
Ġentre ten
Ġcal cu
ck er
ĠhabÃŃa mos
Ġcorre gir
Ġfuncion alidad
Ġmoder nos
Ġoc t
Ġitali ana
ĠmÃ³du los
mble dore
ĠhectÃ¡ reas
Ġc lÃ¡us
Ġel o
Ã³n imo
Ġpara do
si ma
Ġmar y
tri cos
Ġele vada
Ġfal so
Ġ7 00
Ġali ados
Ġmari ano
Ġextre madamente
Ġhubi eran
ĠdiseÃ±a da
Ġconvir ti
Ġdro ga
Ġinmi grantes
ta men
Ġf usiÃ³n
Ġco j
Ġpi ano
Ġcontra di
Ġopera r
pro yecto
Ġdia gnos
Ġacces ible
Ġespecta dor
Ġheri dos
Ġplena mente
Ġxvi ii
py right
Ġextrema dura
htt p
ã ģ
Ġre mun
Ġcom una
Ġd ri
el lo
Ġte tas
Ġcons ola
Ġhab Ã©is
cor e
Ġinv isi
mu jer
Ġrecono cidos
Ġafec tadas
Ġencan tan
Ġpreven tiva
Ġmane ja
Ġprohi bido
5 3
de pen
la cion
Ġb oy
Ġsan tana
gas e
Ġdepor tistas
Ġinvi tamos
Ġargen tinos
Ġinicia do
Ġprofun damente
Ġsuel do
ĠestratÃ© gico
Ġrefu gio
co ok
] ,
Ġre cal
co las
Ġcor rup
ĠÂ ©
Ã±o z
Ġrep os
Ġweb s
tt le
Ġadecu ados
Ġescal era
Ġchil eno
Ġfich ero
l p
Ġl un
on eta
Ġque dando
Ġh ea
tu oso
ber to
Ġnecesi tar
Ġale gre
mon e
Ġatrac tivos
Ġmercan cÃŃas
Ġconme mo
Ð¾ Ð
Ġde gra
Ġy e
Ġes ter
Ġre u
Ġca denas
Ġte ch
Ġro jos
Ġpermi tiendo
Ġpoten ciar
Ġdesemp leo
Ġinteg ran
Ġsepara do
Ġingles a
ĠobstÃ¡ culos
Ġjesu cristo
Ġesta remos
Ġmis a
Ġ5 1
Ġposi tivos
Ġintegra r
Ġmunicip alidad
Ġlimi taciones
Ġinci dente
Ġembara zada
Ġmercan til
Ġe rÃ³
li ares
Ġdes n
Ġesta cionamiento
Ġgenera do
Ġamp aro
Ġ199 5
ĠenseÃ± anzas
Ġmez clar
Ġindispensa ble
que l
Ġf us
Ġre vi
Ġle al
pi as
Ġman zana
Ġcre di
Ġmol es
Ġarqui tec
Ġhue vo
ĠincreÃŃ bles
ĠagrÃŃ cola
6 3
Ġs w
men os
se y
Ġmun dos
Ġbusca dor
Ġul timo
ĠbritÃ¡n ica
Ġrese Ã±a
Ġen o
Ġpu di
Ġ5 3
Ġefec tivos
Ġextra cciÃ³n
Ġvari ar
?? ?
nues tros
Ġescuch ado
Ġsindi cal
s te
v s
Ġa qu
ta ge
Ġpro visi
Ġper dÃ³n
Ġsin gular
gen a
Ġir se
Ġproce der
Ġhue lla
Ġpantal las
Ġinal Ã¡mb
8 2
Ġcas tell
Ġpi den
Ġra ma
Ġencuen tras
Ġele va
Ġce men
Ġgratu itos
Ġnecesita ba
Ġcontemp la
Ġjuris dicciÃ³n
ĠðŁ ĺ
Ġcoman dante
ci tas
ni ca
Ġval ladolid
cis tas
Ġencar ga
Ġprovo cado
ĠdemocrÃ¡ tico
nue va
Ġnicara gua
ĠatlÃ© tico
ch Ã³
ce ras
tr y
ari ta
Ġpre visiÃ³n
Ġpres ion
Ġcre es
Ġvo ca
Ġautori zado
Ġer n
Ġ199 1
Ġlin ux
aa aa
Ġvel as
Ġe i
di ri
di men
Ġto mas
Ġperson alizar
Ġmen ciona
Ġdu mbledore
Ġhacer le
Ġcer rada
Ġestu vi
Ġresul tan
Ġvol ante
Ġvien tos
Ġcru ce
ĠespectÃ¡ culos
Ġdipl oma
Ġexter nos
Ġcontras te
Ġmundi ales
e tique
Ġp usieron
Ġa tro
er ro
di ces
Ġab aste
Ġconta ba
ĠseÃ± ores
Ġx box
Ġcerti ficados
Ġestr ena
Ġempezar on
Ã©ndo lo
Ġexter no
Ġsmart phone
Ġ ï
Ġe gres
li ga
lan tes
Ġpe cado
Ġcan tar
Ġcal cular
Ġcal cula
Ġrela tivo
Ġproce dentes
Ġregis trÃ³
Ġinstru cciÃ³n
Ġempa te
Ġalimen taria
Ġanex o
a pren
s mo
Ġo pe
Ġsu po
Ġal as
bre ra
Ġres trin
gi mos
Ġmen ciÃ³n
Ġgu ion
Ġhom e
Ġorden ar
Ġ0 7
Ġadoles cencia
Ġpatr ones
Ġarmon ÃŃa
Ġcoa ch
Ġactuali zaciones
Ġadminis trar
Ġin tÃ©r
Ġimp ide
Ġhom bros
Ġvol ar
gas te
Ġtor o
Ġpresen tarÃ¡
Ġconsul te
dez co
Ġinterpre tar
Ġmanten ido
Ġreno var
Ġperspec tivas
Ġcuban os
Ġsemej ante
m w
z al
Ġl Ã³gico
ch en
Ġma cri
tir se
Ġloc alidades
Ġherman as
Ġgana dores
Ġfundamental mente
Ġasisten te
Ġinfec ciones
Ġreflexi onar
ĠfantÃ¡s tico
Ġgara je
Ġp Ã³li
li mi
Ġper diendo
Ġso vi
Ġcas ual
Ġu v
cios as
Ġcamp us
Ġdesa c
ches ter
Ġasigna tura
Ġrecibi rÃ¡
Ġcomplica ciones
Ġnovel as
Ġinterfa z
Ġjapon Ã©s
ĠestÃ³ mago
la teral
Ġg ros
Ġuni forme
tari ado
Ġenfer merÃŃa
Ġofrecer le
Ġpers ecu
Ġrobo ts
Ġocci dente
Ġcoali ciÃ³n
ĠintÃ©r pre
s ter
te cas
Ġb ran
âĢ ²
Ġto al
Ġti c
Ġ20 20
Ġsobre todo
Ġop osi
Ġsome ter
Ġpertene cientes
Ġconsider Ã³
ĠhÃº me
Ġde biÃ³
Ġs pe
Ġin va
Ġsu ya
Ġini cios
Ġclar os
Ġregla men
Ġobten idos
Ġsabi durÃŃa
h as
ra dores
Ġpa ula
Ġab arca
Ġforma da
Ġcer tamen
Ġqui to
Ġdetal lada
Ġconte x
Ġran king
Ġforta leza
Ġromp e
Ġconclu yÃ³
Ġbau ti
Ġvisu alizar
Ġhues os
ĠlÃ¡s er
b b
k is
p so
Ġal merÃŃa
Ġmu Ã±oz
Ġhab lo
Ġhab iendo
log y
ĠÃºni cas
graf os
Ġbur gos
ĠautÃ³n omos
Ġsani tario
Ġllen ar
bi dos
vi os
Ġtu ber
Ġcre ce
Ġreci bieron
Ġja zz
Ġapar entemente
Ġafir mar
Ġexplica ciones
Ġlegisla tura
Ġcami Ã³n
Ġroman o
ĠcontemporÃ¡n eo
Ġtecla do
Ġre tor
Ã± i
Ġle gen
Ġof f
Ġcr on
Ġbaja da
Ġfas es
Ġmatr ÃŃcula
Ã¡s tica
ea miento
Ġdar te
Ġtar ta
Ġjus ta
Ġnoti ficaciÃ³n
Ġsignifica tivo
gÃ¼ enza
da ba
Ġre medio
li tos
qu erÃŃa
Ġtu bo
Ġentre gÃ³
mon ial
Ġsue los
Ġbe ca
Ġobten ciÃ³n
Ġefectu ar
ĠfotÃ³ grafo
Ġentusias mo
h on
k m
Ġa ulas
ten tes
cer es
Ġpe ter
Ġutili zadas
Ġfu ga
Ġencuen tren
Ġinten dente
Ġmedio ambien
Ġvo caciÃ³n
Ġmus cular
Ġtempora das
Ġavan za
Ġdete cciÃ³n
Ġsuda meri
Ġimag ino
tiemp o
discip lin
Ġarquitec tÃ³n
Ġen fa
al go
Ġpa c
Ġme dell
ch er
Ġfin ca
Ġter esa
Ġapar camiento
Ġdesa ctiva
Ġsab ores
Ġbur gu
Ġcoord inado
Ġsien ta
Ġpilo tos
Ġcopi as
Ġproven ientes
c ala
Ġre bo
Ġpro puesto
Ġto mÃ¡s
Ġma ÃŃz
Ġdis p
Ġman uales
Ġve la
Ġsa gi
Ġdo rado
Ġra ra
Ġpu dimos
Ġcen ter
bu enos
Ġcer e
Ġbar rera
Ġevi tando
Ġcin tura
Ġtrabaj Ã³
Ġoscu ra
Ġmuer tes
ĠacompaÃ±a da
ti ga
ma y
Ġi cono
Ġma tan
Ġr onal
Ġba terÃŃas
Ġ6 8
Ġsocial ismo
Ġinterna tional
Ġpresen tarse
Ġje fes
pres enta
oo oo
Ġsufri miento
ĠbolÃŃ var
Ġa ris
Ġse mb
ec t
Ġd al
Ġlo cura
Ġtra ga
com er
ll ero
Ġ0 4
Ġhermos as
Ġconcre ta
Ġcompon en
Ġinfraestructura s
Ġfactura ciÃ³n
Ġafili ados
t ha
Ġcom arca
Ġi pad
ol ÃŃn
fi gu
Ġopera tivos
Ġsemi fin
Ġreca u
Ġimplan taciÃ³n
Ġfranqui cia
Ġc y
ca p
Ġno ble
Ġsi e
Ġespa cial
Ġsol os
Ġtele visi
Ġdirec tivo
Ġdefini tivo
Ġaprovech ando
Ġcamis etas
Ġflexi ble
Ġa va
Ġre ga
Ġmi de
Ġcar gas
ni vel
Ġu Ã±as
Ġpe a
pu los
Ġven gan
Ġcole cciones
Ġenerg Ã©tico
Ġtitu laciÃ³n
Ġalmacen ar
Ġsuperfici es
Ġavi ones
Ġfalle cido
Ġrazona ble
Ġcone xiones
c tion
Ġ zar
Ġv Ã©
Ġw at
Ġcambi Ã³
Ġlla mo
Ġcole gas
Ġapoy a
bel la
Ġexi gencias
Ġsorpren der
Ġamplia mente
Ġarma das
ĠindÃŃgen a
Â ±
Ġal turas
ol es
Ġj i
Ġpar ezca
Ġsegu ida
Ġva mp
Ġ0 2
Ġfir mar
Ġemba ja
Ġhol ly
Ġconces ion
Ġaro ma
chil lera
i vidad
ri tos
Ġb esti
us ted
des car
Ġman zan
Ġinc Ã³
Ġfu turas
cor dia
Ġth is
Ġinterven ciones
Ġfestiv ales
Ġar ra
Ġar mado
ĠâĢľ Â¿
Ġutili ce
Ġcomple tos
ĠpÃ¡ jar
Ġinfor mÃ¡ticos
Ġapor tan
Ġajus tar
e uro
j uego
Ġl entes
Ġri ver
ion s
Ġemple a
Ġconven ciÃ³n
Ġblo ques
Ġsuma mente
Ġtesti go
Ġcami ones
Ġrestri cciones
Ġintu i
i ve
v ing
ec re
Ġsi mpa
Ġvi ll
Ġac titudes
Ġci lin
Ġpi ca
Ġher encia
Ġejemp lares
Ġnutri entes
Ġdesapar ecer
Ã©ndo le
d ÃŃas
Ġde vo
er ir
Ġsa tura
Ġhu a
Ġpen ales
Ġcul to
Ġfal tan
Ġtor tura
don de
Ġasegu ran
Ġtex tura
Ġpoten ciales
Ġpier na
Ġgre en
Ġarquite cto
Ġbibliote cas
Ġapas iona
Ġconlle va
Ġp om
Ġre vo
Ġ3 60
Ġra mas
par ece
mÃ³ cra
Ġbal e
Ġcome tido
Ġalf om
Ġs as
ch ner
ul t
Ġpri mi
Ġne gar
Ġdisfru tando
Ġrecur rir
Ġdese e
Ġprofesora do
Ġmensu ales
ĠelectrodomÃ©s ticos
fi cante
Ġvi vi
Ġcor tas
ur s
Ġpin tor
Ġolvi do
Ġmig rantes
Ġchil ena
Ġexpor taciÃ³n
dÃ¡ ver
Ġstre et
p c
Ġde cep
Ġgen Ã©tica
Ġpla cas
Ġolvi des
Ġequipa da
j en
k es
n an
Ġc era
Ġca pas
Ġtra ge
Ġfa chada
Ġcan to
Ġefec tividad
Ġenvi Ã³
Ġ199 2
Ġbor rar
Ġder ri
ĠÃ©po cas
Ġsalva je
jal Ã¡
Ġreflexi ones
Ġdenomina da
Ġexpon er
n io
Ġca ÃŃdo
Ġdes com
ten ta
ga ra
ve la
Ġab r
Ġho use
val o
Ġgan ando
tali zaciÃ³n
Ġtama Ã±os
Ã³li co
Ġcoloni al
j ante
Ġp ali
Ġdis parar
Ġnos otras
Ġbi g
Ġnega tivos
Ġvar gas
Ġpatro cina
7 3
Ġ Ã©n
de mor
ci lla
Ġin n
Ġin da
ma te
tu los
Ġca dÃ¡ver
Ġsal ari
Ġri sa
Ġles bi
mu lo
Ġhabi tualmente
Ġhar emos
Ġhor mon
Ġemer gencias
Ġcance lar
Ġrequeri mientos
Ġllo rar
Ġprivile gi
Ġparro qui
Ġimperi al
Ġsagi tario
p rin
t m
Ġl ente
es tados
Ġla dr
Ġdel gado
Ġi dÃ³n
qui z
con si
Ġpe dia
Ġro c
Ġgen eros
Ġcer teza
Ġmon tes
Ġpregun to
Ġgi rar
Ã¡l v
Ġconven cional
Ġcorrespon den
200 3
Ġseman al
Ġfron tal
Ġhue co
Ġdiv ina
Ġpertene ciente
Ġjapones a
Ġp ino
ÃŃ es
Ġb ir
Ġdi fici
co lor
Ġmi to
Ġap ps
Ã©n dez
Ġentre gado
Ġhu mo
Ġinforma cion
Ġconsi dero
Ġlibre mente
Ġtro pas
Ġexten sa
Ġsuce diÃ³
dÃ³n de
Ġalcal dÃŃa
ĠcÃŃ vi
Ġincerti dumbre
j ala
m ari
z ante
Ġde terior
Ġl Ãº
en al
Ġs port
Ġle gado
Ġri ego
Ġvisi bilidad
vil le
Ġsuper visiÃ³n
Ġguer ras
Ġvolver Ã¡
Ġder ra
Ġmara tÃ³n
ĠfenÃ³men os
Ġmallor ca
8 00
Ġp ru
Ġla var
Ġvi mos
Ġsal tar
Ġur l
Ġarti culo
Ġobliga toria
Ġcontemp lar
Ġempec Ã©
Ġp lÃ¡
in arios
Ġcon v
Ġcon federa
vi ta
Ġsi mb
Ġpre vista
Ġinter nas
Ġdu ran
Ġfi lip
Ġesp ecu
Ġven dedor
Ġsuper vis
Ġabs tra
Ġpal mas
Ġcora zones
Ġcomun ista
ĠmediterrÃ¡n eo
ĠpÃ¡rra fo
Ġmobili ario
m isi
or ra
se x
Ġpre val
Ġdecir lo
Ġvo cal
Ġsab iendo
Ġfavor ecer
Ġpron uncia
Ġadap tarse
ĠcrÃŃ ticos
Ġextre mos
Ġsustitu ir
tÃ¡nea mente
Ġegi pto
ĠocÃ© ano
f c
di jo
Ġpa to
Ġan ar
Ġver Ã¡s
Ġba chillera
Ġro y
ge ment
Ġdetermin a
Ġinver sores
Ġsof istica
Ġanci anos
, .
m ona
de por
ti es
Ġsu man
Ġdes pli
Ġpre ju
uni or
Ġproble mÃ¡tica
Ġmill on
Ġcic los
Ġindica dor
Ġlibera l
Ġoscu ridad
rue cos
ci ble
Ġexp uesto
Ġad quier
Ġfu tura
um era
Ġale gra
ĠdÃ© bi
Ġidenti ficado
Ġtoma te
Ġhal lar
Ġempren der
Ġinspi rado
pol ÃŃtica
ĠperiÃ³ dica
Ġobes idad
6 00
Ġc Ã³n
Ġsi gan
Ġlo u
Ġpr en
Ġescri biendo
Ġaca ban
ex isten
Ġgas tar
Ġfil tros
Ġdeten idos
Ġecu a
Ġais lamiento
ob je
Ġwillia m
Ġme xico
si o
Ġser i
Ġpri mas
Ġfav orable
Ġconven cer
Ġsupera do
ĠdiÃ¡ metro
Ġvenezol ana
Ġdebu t
Ġpy mes
f ono
p ular
r ones
Ġla terales
Ġo h
Ġcomple ja
Ġos ci
Ġir lan
Ġcorre cciÃ³n
Ġconstru cciones
fas is
Ġsorpren de
Ġrefi ero
Ġespecta dores
Ġespecta culares
Ġrefri gera
Ġprinces a
u ras
Ġa ga
Ġque ja
Ġha i
pa tÃŃa
Ġfi las
Ġad vierte
Ġden sidad
Ġprote ge
Ġempe zado
Ġmoder nas
Ġdiscip linas
Ġcab ec
Ġrio ja
Ġlamen tablemente
Ġgeor ge
Ġjurispru dencia
Ã¡ ticas
Ġo v
mi da
des cripciÃ³n
Ġfa una
Ġestable cen
Ġrefer entes
19 99
Ġcara cas
Ġdese en
Ġpal o
Ġilus traciÃ³n
Ġconclu ir
Ġfrances es
Ġecol Ã³gica
ĠhipÃ³ tesis
ĠlÃ¡gri mas
ti enda
Ġb ÃŃ
Ġma ti
Ġna tal
Ġmedi taciÃ³n
Ġrep as
Ġbus que
Ġtras pas
Ġru bia
Ġrepres iÃ³n
dis fru
ii i
Ġdiscu tir
Ġadecuada mente
Ġdebi damente
9 2
v ana
us al
tr Ã¡
Ġmar rÃ³n
Ġtu torial
Ġsen o
Ġconten to
Ġcur ri
Ġlabora torios
Ġfra ude
Ġmol ina
Ġpropor cionan
ĠautomÃ³ viles
Ġretras o
Ġpor te
Ġpro v
Ġper don
fi c
Ġmi randa
Ġve inti
Ġad n
Ġdire ctos
Ġbo u
Ġfal la
Ġsol teros
": "
Ġinfi erno
Ġs ales
Ġm eri
Ġcos tado
Ġfor mando
Ġmon as
Ġ6 2
Ġayu de
Ġcomer cios
Ġtemp rana
Ġ0 3
am or
Ġsos tener
Ġverda deros
mun do
Ġnombra do
Ġalm uerzo
Ġal mo
Ġha gas
Ġpi diendo
Ġpos tal
cien de
Ġbrasile Ã±o
Ġhard ware
f fe
om bi
Ġt esta
Ġpa dr
be mos
Ġw hi
Ġfunda mento
Ġdedi caciÃ³n
Ġcomien zos
Ġlea gue
8 3
qu is
Ġmi lÃŃ
ni e
Ġtras torno
Ġsalu dables
ger s
Ġencar gada
Ġamista des
Ġmedal la
Ã ¤
ti cidad
ce ta
Ġna cionalidad
âĢĿ ;
Ġmo bi
Ġlu cas
Ġsegu ÃŃa
Ġqui ta
Ġfal los
Ġcuan ti
Ġer ra
Ġcrea dores
Ġdese ado
Ġcircuns tancia
Ġazu les
Ġtrasla dar
ĠÃ¡lvar o
Ġde pÃ³sitos
Ġp n
Ġre clus
Ġinter medi
Ġba ck
Ġfi fa
Ġinten tÃ³
Ġtor menta
Ġdiri gidos
Ġlan to
Ġubi cados
Ġpasar Ã¡
Ġregres a
Ġcorpora tiva
Ġsatisfa ctor
ĠtÃŃpi ca
Ġarran que
Ġabun dante
Ġrevel Ã³
Ġhisp ano
Ġjud ÃŃos
ĠÃ©n fasis
Ġbachillera to
j ona
p si
co in
Ġto pe
Ġpo lo
Ġvi vÃŃa
Ġtu yo
Ġri d
Ġri gu
Ġfor d
Ġcal der
Ġcal ientes
Ġbas ados
Ġlimi taciÃ³n
Ġrode ado
Ġempez ando
Ġinscri bir
Ġhici era
» ¿
Ġj ul
Ġ( âĢľ
Ġhi dal
Ġsup uestos
Ġam is
Ġindi caciones
Ġtri ple
Ġ0 5
Ġenten dido
Ġpropor ciÃ³n
Ġmasa jes
Ġvues tras
ser Ã¡
Ġfalle ciÃ³
Ġinmen sa
Ġdesas tre
Ġbah ÃŃa
p n
Ġre qui
Ġca tas
Ġac Ãºs
Ġemp o
Ġdo l
Ġloc alizar
Ġbru tal
Ġcompeten te
ĠhÃ©ro e
ra ba
Ġpa mp
ga dor
Ġpre domin
Ġcomp en
Ġsin tÃ©
Ġsa que
Ġpol ari
Ġru b
Ġini cialmente
Ġinten ciones
Ġpin tores
ĠmÃºsi co
Ġbri llan
Ġcicl ismo
Ġlenta mente
i la
t x
Ã© ticas
Ġpar is
cuen cias
Ġpoder osa
Ġinclu idas
Ġinvesti gado
Ġasi mi
Ġpregun tÃ³
Ġurban os
Ġcampe ones
Ġexa gera
dire ctor
Ġnari z
Ġbarre ras
Ġmarce lo
Ġmedell ÃŃn
g lish
p f
ci rÃ¡
Ġel ena
Ġest ÃŃ
Ġsal ta
ban o
Ġfo co
Ġcur va
Ġadministra dores
Ġlin da
Ġconf usiÃ³n
Ġprohi biciÃ³n
Ġdivi den
Ġtribu taria
Ġhorizon tal
Ġfede rico
r ma
Ġde jes
Ġg el
Ġal fredo
fi ciales
Ġau tÃ³
blo que
Ġjusti ficar
Ġcolo caciÃ³n
Ġmagni tud
Ġcon gre
Ġdes ar
Ãº lti
Ġvi et
Ġmar ino
bra do
Ġgus taria
Ġcamin ando
Ġproce dente
Ġgri ego
Ġacce de
Ġaco gida
ĠdiseÃ±a dos
Ġabandon o
Ġib ero
Ġnervi os
Ġmejo rando
Ġadvir tiÃ³
b on
m ones
de m
Ġdi arias
Ġma gos
Ġac oso
Ġle on
Ġve an
Ġjue gan
Ġbenefi cia
Ġimpro vis
v ero
Ġla ra
re ci
ma das
Ġta mb
Ġdis cÃŃ
Ġmar k
Ġor d
ber t
rar Ã¡
Ġsen sor
Ġmin as
Ġedi tar
Ġce pi
Ġconta bilidad
Ġnin ten
ĠprÃ¡c ticos
p ien
â Ħ
Ġo k
Ġj unior
Ġso u
Ġac aso
pu r
Ġri vales
Ġofre ciÃ³
Ġnu bes
Ġplante ar
Ġcomenzar Ã¡
Ġcelular es
Ġpreocu par
mbol os
Ġglob ales
ĠhÃ©ro es
Ġanfi tri
m c
Ġla na
Ġplan a
Ġ19 39
Ġactu alizado
Ġfal sa
Ġja ja
Ġfran quismo
ĠautÃ³n omo
Ġexis tÃŃa
Ġfortale cimiento
Ġasigna ciÃ³n
dise Ã±o
Ġpopul aridad
Ġexcu sa
Ġagus tÃŃn
g eri
h z
Ġp us
Ġb ona
Ġal li
Ġpara di
âĢ ĺ
Ġdes pre
Ġan ta
Ġpre par
Ġus e
Ġcono zca
Ġcur r
Ġsab Ã©is
Ġrecomenda do
Ġcapi tales
tron g
Ġarma da
Ġconsigu iente
Ġdiaria mente
Ġrup tura
Ġa zar
ci edad
un ya
Ġv Ã¡lv
fi eld
Ġpr enda
Ġpe ores
Ġsal iendo
Ġcan ci
ĠdÃ© bil
ĠÃºltima mente
Ġrecla mar
Ġabor to
Ġproduc tivo
Ġaumen tando
Ġpata tas
Ġabus os
Ġsobres al
s che
t Ã©s
que ra
Ġf isi
Ġpa ginas
Ġpro viene
Ġsi li
si vos
Ġman te
Ġsa co
Ġda mas
Ġra joy
Ġbar ras
Ġdispon en
Ġincen dios
Ġveri ficaciÃ³n
Ġgalle tas
b n
p is
es tan
Ã± Ã³
pi do
Ġcas ualidad
Ġsin f
car Ã¡
ĠÂ °
Ġcontra lor
Ġdeci dimos
Ġcer rÃ³
Ġmejora da
Ġatra cciÃ³n
Ġempe zamos
200 5
au to
Ġadap ta
Ġgeo grÃ¡fica
Ġllen os
Ġsencil los
Ġcardio vas
d t
ro t
Ġpa tas
Ġdi li
ce te
Ġinf eriores
Ġpu r
Ġnecesi te
Ġemb ala
Ġinfor mÃ¡tico
Ġsoli tario
Ġatra pa
Ġnorte americano
Ġcapi lla
ĠvÃ¡ zquez
Ġbac terias
Ġprepa rando
Ġdeu das
Ġmila gros
Ġkir chner
Ġsupervi vencia
Ġc s
Ġque jas
Ġte orÃŃas
Ġle ido
Ġpre mis
Ġpre ferencia
Ġab ar
Ġ6 9
Ġcul tivos
Ġfal sas
Ġtar dar
rid ge
Ġapor tes
Ġvelo cidades
Ġrecla mo
** **
Ġgeo grafÃŃa
cook ies
Ġninten do
Ġc c
te ma
Ġin a
dos a
el ler
Ġpar cialmente
Ġap Ã³s
Ġro da
gan da
Ġposi bili
Ġdar Ã¡n
Ġreligi osas
Ġilustra ciones
Ġnav arro
Ġcarna val
f en
h Ã©
en ses
Ãº menes
Ġprodu cciones
Ġcono ciÃ³
Ġtrans curso
Ġinten tado
Ġsub je
Ġsur f
Ġcumpli endo
Ġperman ece
ĠgÃ©n eros
Ġdispu ta
Ġportu guÃ©s
Ġuc ran
e gos
u ch
w ord
Ġen mar
ti os
ca o
Ġle ma
con a
Ġmar ruecos
Ġcar olina
Ġgu z
Ġmayor i
Ġlla me
Ġref uer
Ġconstru ida
Ġsex to
Ġdios es
Ġhabla ba
Ġexten der
Ġtes or
ĠjurÃŃ dicas
ĠdiseÃ±a dor
Ġsopor tar
Ġdesapare cido
Ġlegi ti
Ġrecti ficaciÃ³n
ĠsatÃ© lite
demor t
Ġg b
Ġdes mon
Ġj erar
Ġta la
Ġas fal
ver de
Ġmen cionados
Ġfi eles
Ġhech i
Ġtras ero
ex cel
Ġsex ta
200 2
Ġreligi osos
Ġempren dimiento
ĠacompaÃ±a dos
Ġcolum nas
Ġ ^
an Ã¡lisis
Ġlo ca
Ġma duras
con ta
con tro
cas i
Ġci ber
Ġve ter
Ġve cin
Ġ6 6
Ġconfi ar
Ġclasi ficar
Ġaudi torio
Ġadqui rido
Ġregal ar
Ġexitos a
Ġtropi cal
j unto
Ġp hi
ci ne
Ġo ÃŃr
Ġca os
Ġac ta
Ġdis tra
Ġpi do
eri e
Ġpen as
Ġsig las
Ġexclus iÃ³n
ins ta
Ġobserva ciones
Ġpeti ciones
Ġjoy as
n Ãº
v y
w o
Ġre be
si ca
mar ÃŃa
Ġcol ch
Ġfor mu
Ġejemp lar
ĠcÃ¡ ted
Ġpresen cial
Ġaleman es
Ġreca uda
hora buena
Ġpenitenci ario
Ġincumpli miento
Ġater ri
ti era
Ġlo ve
Ġli gar
po d
Ġpas ados
Ġpas tel
Ġhi drÃ¡
Ġhu r
Ġcontinu amente
tec no
Ġki lo
cultura l
Ġcue va
Ġholly wood
Ġen tornos
Ġf ull
Ġre ctor
Ġre cip
Ġb ec
Ġdi es
Ġme tales
Ġdes tro
gu ÃŃa
Ġdo wn
Ġservi do
Ġprote gidos
Ġsustitu ciÃ³n
? âĢĿ
Ġen cer
cion ista
Ġres ol
Ġcor di
Ġpi z
cional mente
Ġx a
Ġconfi den
mer ce
Ġameri canos
Ġinmi graciÃ³n
Ġsangu ÃŃn
d h
di bles
Ġcon mo
teri oridad
ori ta
Ġperu ano
Ġnervi oso
Ġpromes a
ĠÃ¡ra be
o th
di tos
Ġcon ju
Ġt Ãºn
Ġin vo
tar te
Ġfu r
Ġfavor ece
ad ministra
Ġlimi ta
Ġmec Ã¡nico
Ġentrena mientos
Ġlibera r
ĠtecnolÃ³gi cas
Ġasu me
Ġcubier to
Ġcarb Ã³n
Ġrecre a
Ġcuad rado
f uer
m t
Ġf el
si ble
Ġta tu
Ġco un
Ġimp i
Ġfa cial
Ġver gÃ¼enza
tri cas
Ġter re
jos Ã©
Ã³lo ga
Ġsocial istas
Ġcontro la
Ġdescar gas
ĠcrÃŃ menes
Ġexplo raciÃ³n
Ġlitera ria
Ġbom bas
Ġagrade cimiento
Ġprovo cÃ³
Ġneu mÃ¡ticos
ĠacompaÃ±a miento
Ġmostra mos
r erÃŃa
¬ ģ
Ġc osi
ti mas
Ġpa vi
qui tos
ven ir
mon s
Ġjo an
cin co
Ġintrodu ce
Ġexclus ivos
Ġpropon er
Ġenfren tarse
p eso
u dos
Ġpro f
Ġto cado
min ente
Ġson y
Ġcomuni carse
ing s
Ġconver siÃ³n
Ġobra dor
Ġcabe zas
Ġcircu itos
Ġcatal ana
Ġameri can
Ġgonz alo
Ġvenezol anos
Ġauxi liar
Ġs po
qu ista
Ġma terna
Ġle ÃŃ
Ġdis tancias
Ġlu cir
Ġacu sa
Ġ8 6
Ġdeber Ã¡s
Ġfres ca
Ġandalu z
we en
Ġhorizon te
9 7
Ġl y
Ġte mÃ¡ticas
Ġau gus
Ġexp lÃŃ
Ġactu alizada
Ġacu mula
van tes
Ġcondu ctas
Ġje fa
Ġdeja ba
Ġherman dad
p ando
Ġla gos
us os
ve dra
Ġus amos
Ġda ma
ren da
Ġmay a
Ġfi le
Ġpubli co
ĠmÃ¡ gica
Ġorden Ã³
Ġacep tado
Ġconven ios
ĠrÃ¡pi dos
Ġrefle jo
Ġsorp resas
Ġcatal unya
Ġdefin ido
Ġferro vi
Ġferro car
Ġexplos iÃ³n
Ġchia pas
Ġpersecu ciÃ³n
Ġtrage dia
c tivas
za dor
Ġtra yecto
Ġar res
Ġmas iva
Ġpon drÃ¡
Ġvol demort
Ġconstitu cionales
Ġllega ba
Ġsupon er
Ġbur bu
Ġcandida tura
Ġchar las
Ġconcre tas
Ġinmobili aria
m eras
p g
es os
Ġno va
Ġdes po
Ġex tiende
Ġins tancias
Ġro cas
Ġsen tÃŃ
dis mo
Ġcompar tida
Ġimpul sa
Ġvali dez
Ġexpor taciones
Ġmonu mentos
Ġchamp ions
9 6
k el
Ġ _
Ġca mb
za ra
na ciÃ³n
Ġins ec
Ġbo ok
Ġley endas
Ġclasi ficados
ĠÃŃn te
Ġconsen so
Ġculpa ble
ĠvÃ¡ lido
ĠvÃŃn culos
Ġrich ard
c p
c alizaciÃ³n
g ona
i zar
Ġde pi
Ġen seguida
Ġal men
Ġdi etas
cion alizaciÃ³n
Ġcas ado
Ġpres ervar
Ġmo li
gen os
Ġter cio
Ġcol ester
Ġsol ares
Ġrealizar Ã¡n
Ġ0 6
Ġleg almente
pro fes
pro grama
Ġfis io
Ġfedera les
Ġesca pe
Ġextin ciÃ³n
Ġhumil de
Ġgl ori
9 8
c tivos
e ts
Ġi a
Ġli c
Ġpres os
gra dos
Ġdu r
iste mas
Ġcomuni taria
ha i
Ġace ites
Ġrequisi to
Ġconclu ye
Ġevidente mente
Ġaccesi bilidad
Ġmotoci cle
Ġern esto
e ciÃ³
k ia
m el
es pa
Ġla dri
Ġt ul
tin i
Ġmar cÃ³
Ġhi gh
Ġhacer te
cado ra
ĠÃ¡ vila
Ã³mi cas
Ġapren diendo
Ġmos cÃº
Ġconsidera ble
Ġado lfo
Ġmol esta
Ġolvi dado
Ġlog rando
bus es
Ġtranspor tes
Ġdespla zamiento
u i
Ġcons tantes
fica dor
com ien
ur t
ĠsÃŃ mbolos
Ġani me
Ġfabri cado
Ġampli as
Ġreligi oso
ĠclÃŃni cas
Ġprefi ero
ĠcatÃ³ licos
Ġjer usal
Ġescas os
Ġmana ger
Ġreconstru cciÃ³n
Ġdesigual dad
Ġenve jecimiento
Ġree mbol
i v
m ec
si onal
Ġob ede
ÃŃs mo
Ġacu mulaciÃ³n
Ġpes ado
esta ble
Ġcin tur
Ġfabri ca
Ġrecha zar
Ġcampes inos
Ġhormi gÃ³n
Ã©l gica
Ġpromue ve
Ġinolvi dable
Ġcolester ol
s Ã©
Ã³ so
le tos
Ġar turo
Ġbu ro
Ġven ce
Ġ7 7
Ġmedio dÃŃa
Ġauto estima
Ġllama ba
Ġfunda mentos
Ġpoli ciales
Ġenfer mos
Ġagre gado
Ġcontribu ye
ĠhÃ¡bi les
Ġresal tar
vie do
Ġbille tes
mone das
i ce
n in
n ea
Ġde mÃ³cra
Ġes lo
Ġal mas
bi ta
Ġcar tÃ³n
Ġhi t
Ġhis tori
Ġlla mas
Ġjus tamente
Ġdistin ciÃ³n
Ġcook ie
Ġje je
Ġsignifica tiva
Ġcapital ista
Ġsil ves
Ġhuel las
Ġintelectu ales
Ġvege tal
Ġmasco ta
Ġtransa cciones
Ġc f
di rÃ¡
Ġno ven
po ol
Ġgran d
Ġsen sa
ĠmÃ© rito
Ġinten tos
Ġorden aciÃ³n
ĠcompaÃ± era
Ġespeci ficaciones
Ġlec turas
Ã©c do
Ġdestin ada
Ġrea fir
Ġfol lando
Ġtrai go
Ġespiritu ales
an t
Ġin ma
Ġdi alo
Ġha mbur
Ġmu ros
Ġman chas
âĢĿ :
oy a
Ġcer canas
Ġtele fonÃŃa
Ġgusta ba
Ġdepen dencias
Ġfuncion ando
Ġderi va
Ġase gÃº
Ġcontes tar
Ġtin ta
g mail
j un
Ġc Ã©n
Ġd s
Ġvi gentes
Ġpe pe
Ġgra mos
Ġsen de
Ġpos tre
Ġrela ja
Ġorden adores
Ġger encia
Ġdeterior o
Ġviet na
v ino
Ġa jo
Ġa ber
Ġs is
Ġb un
Ġus d
Ġmis ion
Ġru mores
Ġsur giÃ³
Ġconsul torÃŃa
Ġdesarrolla da
Ġlitera rio
Ġflo ra
ĠsÃ³li do
Ġpuntu aciÃ³n
Ġsencil las
Ġmoderni zaciÃ³n
Ġord inaria
m istas
x e
re cciÃ³n
Ġo ce
li cÃ³
Ġal ine
Ġper segu
ce ramente
mi do
Ġte am
Ġpe dimos
Ġro to
cha das
Ġcambi an
Ġ6 7
Ġvis uales
ciar se
Ġacer carse
Ġtur quÃŃa
Ġentr enar
ty le
Ġbibli o
Ġrespec tivas
Ġdisminu ye
Ġpeda go
Ġarreg lo
Ġcrimin ales
ĠcentÃŃ metros
es c
Ġin hi
Ġpa gado
Ġsu ite
qu in
Ġan Ã©cdo
Ġpo zo
Ġcons tancia
Ġve hi
Ġdu ros
Ġdar nos
Ġinstitu cionales
Ġis lÃ¡
Ġdej en
Ġgar gan
Ġsuce der
Ġabandon ado
Ġdeb ÃŃan
inclus o
Ġ isi
Ã³ lica
an to
Ġun en
Ġmi o
Ġres tantes
Ġpres erva
Ġtri go
Ġafi ciÃ³n
Ġlec ciÃ³n
Ġdenun ciar
Ġocul ta
Ġsubs ecre
Ġmochi la
, âĢ¦
h al
i zado
l ÃŃa
Ġe a
Ġb Ã¡r
Ġal len
Ġdi versi
ec os
Ã¡n icas
Ġpres a
Ġemp era
Ã±a da
Ġ6 1
Ġindi os
Ġmer ecen
Ġasocia da
Ġintegra les
Ġemba jada
Ġreprodu cir
Ġreuni Ã³
ÃŃgen o
Ġprotes tas
dire cciÃ³n
ĠsÃ³li da
Ġnet work
. ).
Ġha ble
Ġan cha
Ġob vio
Ġcomb inado
Ġfil Ã³so
mÃ© xico
Ġdig no
noti cias
Ġcemen terio
ĠbÃŃ bli
m eros
ti ficaciÃ³n
Ġre tribu
res e
Ġser p
Ġco Ã±o
Ġcan adi
Ġbas adas
Ġfo x
Ġfal sos
ctu al
Ġ9 8
Ġcr uel
Ġbor ra
Ġlimi tar
Ġreti rada
Ġoli mp
Ġdelante ra
his toria
ĠolÃŃmp icos
Ġrepu taciÃ³n
Ġdistingu ir
Ġantio xi
Ġrodri go
h r
re d
Ġdi gna
Ġlo bo
Ġtra jes
con se
Ġdis per
car los
Ġcor uÃ±a
Ġch inos
Ġbar cos
ĠfÃ¡ rma
Ġbal cÃ³n
lle ra
Ġcontribu ciÃ³n
Ġmusi c
Ġfacul tades
Ġconden ado
Ġmonu mento
o h
t man
Ġde la
Ġes for
Ġt s
Ġpe la
Ġindi cando
Ġali menta
Ġdecir le
fe li
Ġ13 0
Ġperio d
Ġperio dos
Ġselec cione
Ġgri to
Ġ198 0
Ġsil va
Ġarbi tra
Ġmetropoli tana
Ġlicen cias
de bido
an der
Ġpa co
le e
Ġsu bi
Ġi limi
Ġmu ere
Ġci ma
man ia
Ġsen tencias
Ġofre cido
Ġconfi able
Ġpan eles
Ġobs es
Ġconsidera dos
Ġobli gados
Ġconven cido
Ġheri da
ĠcÃ© le
Ġroman os
Ġterres tre
Ġla zos
di bu
Ġin neces
res pecto
tu m
Ġta za
go bier
Ġvi llar
Ġeste ban
Ġga me
for man
Ġedi toriales
ke t
Ġpasa das
Ġpul s
Ġano che
Ġagres iÃ³n
Ġiv Ã¡n
Ġincor re
Ġfich eros
Ġaer olÃŃn
Ġcalder Ã³n
f y
k g
Ġs Ã³
si te
Ġpar to
Ġas enta
Ġor tiz
Ġter mo
Ġja mÃ³n
Ġescri bo
Ġtor tu
Ġsol teras
Ġperfec tas
Ġexi gencia
Ġconside re
clar o
Ġdesen ca
Ġimpresion antes
Ġdemues tran
Ġinnova dor
âĦ ¢
l ona
r encia
ca ma
li r
res ul
Ġcomp one
Ġtien de
Ġven dido
Ġprote gido
Ġsex ualidad
Ġmaes trÃŃa
Ġemi lio
Ġsorpren diÃ³
ĠÃ¡r bi
ĠfantÃ¡s tica
g estiÃ³n
Ġe us
Ġsu l
con ten
ll Ã³
ll Ã³n
bu los
Ġbas tantes
Ġ9 1
Ġestable ciÃ³
Ġren dir
mal te
Ġapor taciones
Ġimpa ctos
Ġexa cta
ĠjurÃŃ dicos
Ġmaravil las
Ġfutbol ista
Ġecua tori
b rando
e fec
p las
Ġe man
te lera
ti bilidad
Ġo viedo
Ġb las
Ġmi graciÃ³n
Ġju gÃ³
ir os
Ġdeci mos
Ġmus ica
Ġtermin e
Ġcaus ado
Ġayuda do
Ġaf ro
ĠseÃ±al an
Ġresi dencial
Ġequipa do
Ġsof Ã¡
t witter
z en
Ġs k
tra te
dad ura
ten se
ali zan
Ġco bro
Ġcar tu
Ġele gancia
respon sa
Ġpis cinas
ĠpÃºblica mente
Ġalma cÃ©n
Ġcari Ã±os
Ġbom bar
Ġlicencia do
Ġaumen tado
ĠsÃ³li dos
ĠtÃ³ xi
ĠmagnÃŃ fica
Ġclaus ura
Ġvati cano
Ġmedie val
Ġcensu ra
Ġhidal go
x t
Ġp eces
on s
tu rismo
mi th
Ġta baco
Ġna taciÃ³n
Ġimp one
Ġdo bles
Ġ6 3
yo u
Ġdesa gra
Ġtitu lo
Ã¡ndo te
Ġlog ran
Ġhol anda
Ġsencilla mente
Ġino xi
Ġsindica tos
Ġ 000
di llos
Ġmu Ã±e
pe da
Ġna cer
Ġra dica
Ġhis torial
Ġinten tan
Ġdiri giÃ³
ji llo
Ġsacerdo te
b lar
Ġen do
Ġca bles
Ġpo la
Ġpre vios
cas t
Ġperson alizados
Ġcar nes
Ġr d
Ġcre ÃŃa
cri to
Ġru bio
Ġhal lo
Ġ198 9
Ġrefi riÃ³
z uela
Ġa pi
tra ciones
Ġi ber
qui llo
Ġres ur
Ġci gar
Ġpres s
Ġcar ros
Ġcor onel
Ġsa cÃ³
Ġini ciales
Ġconce jo
Ġmul tina
Ġpreocupa ciones
Ġcubier tas
ĠcontinÃº an
Ġrecicla je
an e
Ġque den
Ġt oni
pa tri
ba i
Ġta xi
me o
ina dos
Ġdo Ã±a
Ġcal cio
Ġbo b
Ġreci biendo
Ġcier tamente
Ġsub iendo
Ġllevar se
Ġagra dezco
Ġvir tuales
Ġtomar on
Ġama te
bun tu
ĠsÃŃn tesis
Ġcomun iÃ³n
Ġprop uso
Ġitin era
g ÃŃ
ch t
Ġmi ro
Ġrela cion
Ġpresi dentes
Ġcaracter es
Ġdefen sores
pol is
Ġsensi bles
Ġinfini to
Ġnombra miento
Ġauxi liares
cua tro
Ġexcur siÃ³n
Ġcria turas
h s
Ġo lla
bi as
Ġcomp uestos
Ġra zas
Ġrep en
Ġdar les
Ġpan or
Ġapli cado
Ġtele vis
Ġqueda mos
Ġdeba tes
Ġpreten den
Ġvictor ias
Ġaco ger
Ġbio logÃŃa
ĠdiseÃ±a dores
Ġvincu lados
Ġche f
Ġalar ma
Ġcomplica da
Ġintera ctu
Ġhues o
Ġpoe ma
Ġaden tro
Ġdivul gaciÃ³n
Ġsand alias
Ġlac tancia
Ġespu ma
h ÃŃ
i ficaciÃ³n
z ano
Ġp v
Ġs ientes
me d
ber ry
Ġparti das
Ġpla te
Ġrev esti
Ġpromo cionar
Ġacerca miento
Ġurban ismo
Ġotor gar
Ġenfrenta miento
Ġplane aciÃ³n
Ġmonstru os
Ġsinies tro
Ġsagra da
Ġde monio
Ġp ir
Ã© tera
mos a
Ġ( âĢ¦)
Ġser lo
Ġpre cedentes
emp resa
Ġcor ro
Ġcer Ã¡mica
Ġgo ce
Ġbo tel
Ġlla ves
Ġvisi te
Ġban deja
Ġestable cida
ĠsÃ¡ bados
Ġcome ter
ĠautÃ³n omas
Ġlicencia tura
ĠlÃŃqui dos
Ġsatisf echo
Ġl lor
en ten
te lo
ri llo
Ġo le
Ġre en
Ġal te
Ġpro vi
Ġex haus
Ġli de
Ġpri sion
Ġmedi ana
Ġsue cia
dis pon
Ġprofun das
Ġampli os
Ġextran jera
Ġterror istas
Ġbea ch
Ġtable t
Ġinoxi dable
a Ãºn
vi c
Ġan ces
Ġch or
Ġlu jos
Ġlu cÃŃa
Ġsal drÃ¡
Ġprim or
Ġinforma mos
Ġrela tivos
Ġce o
Ġapli can
Ġaplica da
Ġofrecer Ã¡
Ġrepor ta
Ġpau tas
algun as
Ġaltera ciones
Ġens alada
Ġgro up
Ġsobe ranÃŃa
Ġartesan al
Ġword press
n ombre
p un
q l
u tas
Ġp rado
Ġv ec
Ġin Ãº
Ġpa Ã±
el li
Ġar mario
Ġimp uso
Ġsa cado
Ġmen cionadas
Ġdu des
Ġri bera
Ġimpor taciÃ³n
Ġz i
fa ce
Ġfal tar
gin al
bar celona
Ġespeci alidades
Ġsur gen
Ġenv ÃŃ
Ġdeparta mental
Ġgri tos
Ġsir va
Ġmul ta
Ġfren o
Ġsubven ciones
ĠmilÃŃ metros
Ġpas tillas
Ġcar den
Ġw ork
Ġfi t
ris tas
Ġmon t
Ġ9 3
Ġcompar timos
Ġatra cciones
Ġcrea ciones
Ġcomerci antes
Ġsuces os
Ġfrac tura
Ġdispar o
Ġpecu liar
Ġemocion ante
o este
Ġin un
Ġd c
Ġpre visi
Ġcomp la
Ġmis eri
Ġcre cido
pu la
Ġcos echa
Ġfuncion e
Ġconf ron
Ġtesti monios
Ġradi aciÃ³n
Ġcolombi anos
Ġproto co
Ġtole rancia
Ġmenti ras
Ġinmobili ario
Ġmante quilla
t l
en ce
Ġen ro
Ġcom isi
Ġpar king
Ġser ra
ir re
Ġhi m
tÃ³ bal
Ġaten tado
Ġetc Ã©tera
Ġexpli can
Ã¡ndo los
Ġsir viÃ³
ins titu
Ġagri cul
Ġcump la
Ġcivi lizaciÃ³n
Ġguberna mentales
Ġinevi table
Ġdifici l
g ne
Ġs ys
es tes
Ġf erra
Ġre ÃŃr
Ġsu pi
Ġca du
Ġma quina
Ġgu ana
Ġsuf ra
Ġemi tir
Ġdic cionario
ĠvÃ¡ lida
Ġepi de
Ġpromes as
Ġsky pe
ĠatlÃ¡n tico
ĠcÃ¡ted ra
. ),
9 4
Ġs ra
di an
Ġre cta
zar Ã¡
Ġsiste mÃ¡tica
Ġon g
th an
Ġ12 5
Ġemple ar
Ġconsul tado
Ġenten dimiento
Ġlibera les
Ġobserva torio
Ġconcre tos
Ġremo de
Ġconsoli daciÃ³n
Ġbicicle tas
Ġmana gement
ĠmagnÃŃ fico
gru po
e k
p endo
Ġde c
al s
Ã± ando
cu er
tos a
Ġi c
Ġac lar
Ġhu mi
Ġamb ul
Ġdiri gidas
Ġquer ÃŃan
Ġliber tadores
Ġesf era
Ġcampe ona
Ġfalle cimiento
nue vo
Ġe ro
Ġn y
Ġin seguridad
li ano
Ġsu m
Ġta pi
ten siÃ³n
ga z
Ġtu cu
Ġsup uesta
ge t
Ġcomuni tario
Ġeu gen
Ġcul min
osa u
Ġmejora do
Ġexpres s
Ġza mora
Ġprovin ciales
Ġviol enta
Ġses enta
Ġregistra da
Ġdespi do
Ġredon do
Ð° Ð
Ġmonas terio
p us
w h
Ġo ch
Ġsi m
gu ero
Ġas tron
Ġdomin gos
Ġfinan ciar
Ġcumpli Ã³
Ġafec tada
Ġejecu tiva
Ġje jeje
Ġaplica bles
Ġcompra dor
Ġdesi gna
Ġempren de
Ġvaria ciones
Ġfutbol istas
Ġhomo lo
ĠescÃ¡n dalo
Ġanten a
Ġembaja dor
Ġguz mÃ¡n
gobier no
p ala
u bi
v uel
en tas
as es
res te
se t
Ġma go
Ġco pas
Ġman gas
xi do
Ġju Ã¡rez
Ġhacer nos
Ġsuper inten
pre gun
Ġ16 0
Ġases ino
Ġliber tades
Ġresi den
Ġfrecu entemente
Ġfamos as
Ġv Ã©r
li zaciones
Ġsu bido
Ġex pi
Ġan e
tura l
Ġus ada
Ġservi rÃ¡
Ġdeci den
vis tar
Ġprote ctor
Ġori lla
Ġcuer da
Ġavan zados
Ġpod ria
Ġth omas
Ġpermitir Ã¡n
Ġatrac tiva
Ġbode ga
Ġrenun ciar
a gre
s el
Ġa me
Ġen er
Ġre utili
Ġpre cep
Ġda y
Ġfin o
mar se
Ġali ento
Ġinclus ive
Ġcru do
Ġ: :
Ġdesarrolla dos
Ġayunta mientos
Ġhermos os
Ġmanten ga
Ġprove er
Ġfavori tas
pri mero
Ġsolid aria
Ġaconte cimiento
Ġcenten ario
" )
Ġde pu
Ġpro le
con os
Ġcol Ã³n
Ġtor os
Ġcontro versi
Ġsom b
ĠtÃ©r mica
Ġder ru
Ġlis tos
Ġfron teri
Ġconsigu iendo
Ġinformar on
Ġrin cones
Ġprivile gio
ĠÃ³pti ma
ĠdinÃ¡ mico
Ġp ari
Ġm ero
Ġy an
Ġin do
Ġar du
Ġmo du
Ġson re
Ġsa bia
Ġfi lo
Ġcer rados
Ġvisi tado
rado ra
Ġesti mado
Ġcasi lla
Ġespeci alizaciÃ³n
Ġpresen tando
Ġfir mÃ³
Ġadap tado
Ġdesarrolla dores
ĠclÃŃni co
Ġase qui
Ġprevis tos
Ġincor po
Ġapel lido
etique tas
Ġjerusal Ã©n
a Ã±a
te in
co ra
Ġto l
mi as
cos o
Ġcar gado
Ġcor o
Ġexp osi
Ġexp uestos
Ġju gada
Ġcre ados
Ġpi lares
Ġra i
ĠmÃ© dicas
Ġinvi tar
Ġdejar Ã¡
Ġcap tar
Ġperman encia
Ġenv ol
Ġvie jas
Ġtradu cir
Ġlegisla dores
Ġimpe cable
Ġmonte video
Ġretra to
Ġmila gro
servi cio
Ġstor e
Ġdefien de
ĠpÃ³li za
excel ente
ĠhidrÃ¡ u
p ecu
Â ²
â Ĩ
Ġb Ã©lgica
Ġsi mula
Ġd j
go ogle
Ġma ce
den tales
Ġap res
ver siÃ³n
Ġtu mb
Ġpri mo
Ġsa int
fa bri
Ġ7 6
Ġprofesion alidad
Ġani llo
Ġexpres o
Ġrev Ã©s
Ġavan zadas
Ġases inado
Ġresi de
Ġhor ror
Ġenca min
Ġvincu laciÃ³n
Ġhipo tec
Ġcump lan
Ġmover se
a bri
Ġa je
Ġin mun
tra dos
Ã± Ã³n
Ġd re
se lo
Ġtra tarse
Ġro mana
Ġuni da
Ġah o
Ġresul te
per s
Ġorden amiento
Ġencan tÃ³
Ġconj untos
Ġtoma da
ĠquÃŃ mico
Ġprefi ere
Ġke y
Ġox ÃŃgeno
Ġrub Ã©n
a ban
Ġl t
di go
Ġin Ã©di
Ġd uer
pi cos
Ġmar cada
Ġdu pli
Ġfor mulaciÃ³n
Ġcomple tas
Ġ7 8
Ġdecir te
Ġconten ida
Ġapro bada
Ġleg alidad
don ado
Ġapor taciÃ³n
200 4
Ġreli e
ĠÃŃn dices
Ġexperi mentado
Ġenfren tan
Ġtritura doras
Ġsecu encia
Ġdocto rado
Ġdesactiva dos
a ming
c Ã¡ndose
y un
Ġa ustria
da y
la go
Ġcom ando
Ġti me
tin al
Ġinter ro
Ġfi del
Ġcono ces
ck y
Ġcontin ental
Ġali anzas
Âº c
Ġ14 0
Ġconec ta
Ġdescubri Ã³
Ġgre mi
Ġras tre
Ġexpon en
ĠolÃŃmp ico
Ġdestina das
Ġsugi ere
Ġrepara ciones
Ġprofundi zar
ĠsÃ©pti mo
Ġde bilidad
Ġin unda
Ġpre li
Ġro bus
Ġfu mar
Ã³mi cos
Ġtex til
ĠÃ¡n gulo
gÃ¼ e
Ġexpe diciÃ³n
Ġpreocu pes
Ġrobo t
Ġvege taciÃ³n
Ġdefec tos
Ġparlamen tario
Ġmenta les
Ġinti midad
Ġbale ares
p Ã³n
Ã ¬
Ġde bili
Ġa be
ta tion
ora da
Ġcomp os
po demos
Ġmo des
Ġne gÃ³
âĢ¦ âĢĿ
Ġprote ÃŃna
Ġrecor dado
Ġparticip ante
Ġproces ador
Ġenvi dia
Ġases ores
Ġprepara da
Ġexcep cionales
Ġacaba dos
Ġalimen ti
Ġpsicol Ã³gica
ĠnÃ¡ u
b l
f eo
g asta
Ġe h
Ġde jas
in trodu
Ġo ve
Ã© ricas
Ġex ci
Ġan or
Ġpi la
segu ro
Ġauto buses
Ġmejora miento
Ġtex as
Ġcha queta
Ġalcal Ã¡
Ġpier den
est Ã¡s
Ġdedica dos
Ġxvi i
ĠÃ³p tica
Ġaveri guar
m Ã©tica
Ġpa bel
Ġta pas
gra mas
ores te
Ġcos mÃ©
Ġrela cionar
Ġcris tÃ³bal
Ġesti mul
Ã¡ndo les
ph ones
Ġcami oneta
Ġganan cia
Ġregistrar se
Ġautomo vil
Ġsel va
Ġindemni zaciÃ³n
Ġatravi esa
a jes
Ġh tml
Ġo don
Ġin capacidad
Ġpa tente
Ġb mw
Ġsi te
Ġd Ãº
Ġpar es
dor o
Ġco pyright
Ġpe gar
be te
Ġab domin
Ġcan san
Ġinteres adas
Ġmor tal
Ġdia b
Ġescu do
Ġbe i
Ġvir tudes
Ġdeli cioso
Ġtoma mos
Ġgratu itas
Ġvolun taria
ĠquiÃ©n es
ĠdeberÃŃa mos
Ġprohi bida
Ġrode an
Ġestri ctamente
ĠcÃ¡l culos
ĠagrÃŃ colas
Ġguberna mental
Ġcomporta mientos
a z
p t
ci lia
Ġm Ã£
Ġsu biÃ³
Ġdi gan
Ġme lan
Ġ( +
ora bles
Ġdis puesta
âĢĿ )
Ġja Ã©n
Ġbra vo
Ġhor ri
Ġacces os
Ġrecla mos
Ġprotagon ismo
Ġreno vado
Ġheri do
Ġnarra tiva
Ġincons titu
Ġsacerdo tes
Ġprovisi onal
Ġg entes
tu osa
Ġd y
Ġti tan
Ġvi i
Ġap to
Ġar ca
Ġco bran
Ġsa cu
Ġprodu cida
com ple
Ġcontra r
Ġindi cada
Ġexperi mento
Ġflo ta
Ġnie ga
Ġconsigu en
Ġtab lero
Ġpertin entes
Ġe jes
on istas
di ario
Ġpro li
Ġto cÃ³
ve lo
Ġpe p
Ġsal vaciÃ³n
Ġsen sores
Ġbar b
Ġcr Ã³nicas
Ġdesa fi
Ġentra do
Ġtermin an
Ġconvi cciÃ³n
Ġvio laciones
Ġrepor taje
Ġaj ena
ĠaÃ© reo
Ġconme mora
d arios
s istema
Ġa mado
Ġs cor
Ġla van
Ġm uel
Ġo jalÃ¡
Ġi u
Ġta rot
Ġpo table
Ġte les
Ġju go
Ġsal do
Ġ- >
ĠÂ¡ Â¡
Ġsub asta
Ġboni tos
Ġcasti go
Ġanal y
Ġvincu lado
Ġestamp ado
Ġcongres os
Ġdesac tivar
a f
Ġin tr
Ġso br
Ġma t
con cep
Ġcomp re
man i
Ġob reros
ven tura
Ġro dilla
Ġreali cen
Ġad mite
Ġ8 2
Ġide ologÃŃa
su per
Ġpis to
Ġhon da
Ġtea tral
Ġaudi torÃŃa
Ġmira das
Ġneu tra
Ġcereb ral
Ġdesfi le
k ers
Ġl Ã¡pi
Ġal titud
bi t
Ġi m
Ġso to
Ġda Ã±ar
Ġcin tas
Ġextra er
âĤ¬ .
Ġproduc tiva
Ġplani ficar
Ġecol Ã³gico
Ġapropi ado
Ġtraslada do
Ġmolesti as
Ġconfedera ciÃ³n
b c
f lix
j ones
to mÃŃa
Ġti mes
Ġtra tÃ³
Ġu ri
for mes
Ġestudi ando
Ġurban izaciÃ³n
Ġchar les
Ġeva cu
Ġperpe tu
Ġroc ÃŃo
Ġcabec era
d ales
e is
o u
Ġ ]
in di
te ch
Ġf c
mien ta
Ġmar g
Ġinter rup
ll erÃŃa
ha bi
Ġhom eo
Ġtrans mite
Ġpubli cadas
Ġedi ficaciÃ³n
Ġfoto grafi
Ġasocia das
Ġresta ble
Ġexclus ivas
Ġestr enar
Ġocupa do
Ġcarta gena
Ġarro yo
Ġgoberna ciÃ³n
Ġredon da
Ġangel es
lari dades
Ġbrillan tes
% ),
w ei
Ġn oreste
di tas
Ġg em
Ġpor tero
Ġal t
Ġdi lu
Ġcre ciÃ³
Ġdo ctora
Ġdu ras
Ġayu dando
Ġ7 4
Ġx v
Ġcur vas
ĠtÃŃpi cos
ĠteÃ³ rico
categor ÃŃas
Ġcercan ÃŃa
as a
Ġun esco
ce le
Ġpo etas
ora l
Ġres oluciones
Ġco ba
Ġten iente
Ġcar pin
Ġpu ri
ing er
Ġ7 9
Ġconstru ye
Ġmovi lizaciÃ³n
âĢĶ ,
Ġdiv ino
Ġformul arios
Ġcamis a
Ġpart ÃŃculas
Ġconfiden cialidad
n Ã©
Ġc una
Ġt w
Ġb eta
Ġca mara
Ġci ca
no w
Ġw est
dr Ã¡s
Ġcontra ria
Ġva cantes
Ġposi tivas
Ġpol la
Ġyo ur
Ġacu saciones
Ġho t
Ġja co
Ġmal e
Ġpresenta dos
Ġmatri z
ĠbÃºsque das
Ġefica ces
mej or
Ġrell eno
Ġhin cha
Ġexhi biciÃ³n
Ġbolsi llos
Ġaprovecha miento
Ġid Ã©n
Ġparale lo
Ġegi p
Ġinvolucra dos
Ġgargan ta
[ âĢ¦]
f r
Ġsu cur
Ġso cor
Ġvi go
tri o
Ġacep to
Ġdia blo
Ġoport una
Ġpeli culas
Ġ198 6
Ġev olucion
Ġsua ves
Ġhabili tado
re la
que te
Ġsu yos
Ġmu rieron
Ġmar vel
Ġne ur
Ġbus cado
ĠmÃ© rida
Ġvari edades
Ġbre taÃ±a
Ġinteg rante
Ġescal as
Ġdespe dida
ele c
Ġalba cete
Ġaltera ciÃ³n
Ġgenerali tat
en co
te gui
Ġque mar
Ġre mar
Ġman chester
Ġmo le
Ġuni co
Ġcontra tado
Ġpodr ÃŃas
Ġgan adora
tÃ¡ r
Ġdeber ÃŃas
Ġasegurar se
Ġcomprome tido
Ġconsiderar se
Ġcombina ciones
Ġreper cu
Ġreper torio
a Ã±o
t Ã¡c
ce a
si gu
Ġex ca
Ġtra cciÃ³n
Ġser rano
Ġni Ã±ez
Ġpas ear
Ġu u
Ġ9 6
Ġir ra
Ġvuel vo
ĠÃ³ s
Ġdese qui
Ġjuz gar
Ġconsoli dar
Ġmascul ina
Ġcontun dente
Ġirlan da
9 1
f ÃŃsi
n ers
Ġf os
mi ll
se gun
Ġar terial
Ġci tar
Ġcomp rimi
Ġdu que
Ġpes ta
ho t
Ġcole gi
Ġcr ono
Ġobli gada
Ġcentra do
Ġofrecer te
Ġ198 5
Ġcuesti ona
Ġotor gado
Ġcoopera tiva
Ġescon dida
Ġvulnera bles
Ġbrus elas
Ġdespli e
a i
v ec
w ell
Â Ķ
Ġa th
on das
li zada
Ġdi la
Ġco fra
Ġsa ba
Ġpi las
Ġne vera
Ġequi dad
Ġcomen zando
Ġtermin o
Ġrecom pensa
Ġnego ciar
Ġpin tado
Ġ/ /
Ġtempora les
Ġhos telerÃŃa
Ġquin tana
Ġsome tido
Ġastu ri
Ġpatr ul
hua hua
Ġileg ales
j ales
Ġal Ã©r
mi cs
mo de
po co
man ual
Ġsin ceramente
Ġpres unto
Ġtu mba
Ġsobre pas
Ġra yas
Ġri gor
Ġsub terrÃ¡n
Ġapli cando
Ġmie dos
Ġayudar Ã¡n
Ġhos pe
Ġvari ados
ade cu
Ġpatri cia
Ġlevan ta
Ġargu men
Ġsuscri bir
Ġlici taciones
Ġautop ista
l ista
u ga
an y
ti tis
Ã± ones
Ġpro pÃ³sitos
Ã©n donos
ces iÃ³n
Ġperson alidades
Ġu mb
Ġemp la
Ġ3 50
Ġda ban
Ġpi b
Ġplan tillas
su b
Ġbol sos
Ġdese ar
Ġcelebra ciones
Ġmanifes tado
Ġcopi ar
Ġl ien
Ġg om
Ġcu chi
Ġac ord
ver sa
Ġli fe
Ġpi zar
Ġra m
Ġgran ja
Ġlla mando
Ġayu den
Ġdiver tidos
Ġsigni ficar
Ġnatural mente
Ġencar go
Ġdistribu ido
Ġgua pa
âĢĵ ,
Ġsorpren dido
Ġcompeti tivo
of re
Ġarma dos
Ġterra zas
Ġaspi rantes
Ġrecopi laciÃ³n
blog s
ĠlÃ¡mpa ra
e fe
Ġe ficientes
Ġa mas
an ca
Ġb s
Ġj ar
Ġto tali
Ġap las
gi miento
Ġhacer la
bu la
Ġgus tar
Ġce mento
Ġamor ti
Ġproducto ra
Ġlec ciones
Ġencar gados
Ġlitera lmente
Ġremo to
Ġdesper di
Ġfactura s
Ġpose er
ĠhÃŃ gado
Ġincons ciente
Ġcarcel ario
ĠmarÃŃ timo
w al
do le
Ġse llos
Ġb in
lo ad
Ġca ÃŃdas
Ġex po
Ġci tada
Ġve amos
Ġlle guen
Ġsen adores
Ġplan ea
Ġali cia
Ġvis a
Ġgol d
Ġinver tido
Ġcrea tive
Ġdistribu ir
Ġincorpora do
Ġadop tado
Ġacredi taciÃ³n
Ġmanu fa
Ġnoctur na
Ġembala je
g l
Ġc res
in to
Ġin tri
Ġb rea
Ġins cripciones
Ġcan on
Ġvol Ãºmenes
Ġdeber es
diÃ³ s
Ġayudar le
Ġutilizar se
Ġdenun ciÃ³
Ġprefer ir
Ġalco h
Ġescala da
bur go
Ġaccion istas
Ġcompensa ciÃ³n
Ġdivis as
Ġhallo ween
h tml
ti ta
di dades
Ġse cado
li bro
Ġcu rar
Ġsus cep
sa b
Ġimp unidad
Ġestu vimos
Ġestu pendo
Ġreci bo
Ġele gidos
Ġ8 4
Ġaten to
Ġsol dado
Ġcole ga
Ġconven cionales
Ġpiel es
Ġcelebra da
Ġben ja
Ġrecuer dan
Ġqueri da
Ġsof ÃŃa
Ġsosp echa
ĠÃ³pti mo
ward s
Ġacoge dor
Ġrou ter
Ġbotel las
h ue
Ġf erias
le i
Ġle an
Ġna val
Ġcor dero
Ġju icios
Ġpu ig
Ġven dedores
Ġcris tales
gn as
Ġdejar lo
Ġfeli cidades
Ġorien tado
Ġalterna tivo
Ġrus os
Ġinterven ir
Ġdesea mos
Ġpeligros os
Ġprefi eren
Ġfija ciÃ³n
Ġnoctur no
Ġdelincu entes
Ġreme dios
Ġfilip inas
+ ]
s is
Ġe ras
en de
Ġn is
ri ta
Ġsu bli
Ġcom a
Ġ( "
ora do
Ġcor do
Ġsup resiÃ³n
Ġinvi to
Ġafi cionado
Ġconsecu tivo
Ġgua te
Ġdemos trÃ³
Ġanal ÃŃ
Ġgesti ones
ei ro
Ġprevis tas
Ġfilos Ã³
vie w
Ġperci bir
ĠðŁ Ļ
Ġabsor ciÃ³n
Ġaccesi bles
Ġc un
es tado
co pa
Ġdes pro
Ġle jano
Ġba il
lu mb
ren t
Ġof fice
Ġprin cipi
Ġrela tivas
Ġ9 7
Ġart ÃŃsticas
Ġocur ri
Ġestan cias
Ġpropon emos
Ġarquite ctos
ĠmÃ¡r quez
Ġcucha ra
Ġnews let
Ġmoli enda
e f
Ġa tÃ³
in geni
Ġdi era
Ġdi gamos
Ġper forman
el los
Ġpo k
du cto
jo z
Ã©n ico
Ġz ombi
Ġru idos
ac ces
Ġdese mbo
Ġvari ada
Ġameri ca
Ġocu pan
Ġllen as
Ġdiscip lin
Ġagro pecu
Ġsubra y
. (
x s
Ñ ĥ
Ġli ve
Ġab ren
Ġ19 40
Ġmon ter
Ġz e
rac Ã¡n
ĠcÃ³mo dos
Ġrecu per
Ġproce dencia
Ġconci en
Ġadi das
Ġanal istas
Ġestad ÃŃsticos
Ġdue le
Ġterror ista
iona dos
cr oni
imp or
quer emos
Ġchris tian
Ġpatro cin
sÃ¡ til
Ġmusul manes
Ġcansan cio
> <
da m
ro me
Ġse d
Ġre ten
Ġb lin
bi e
ter nidad
Ġac tivamente
pi e
Ġsa hara
uni versidad
Ġlu ci
Ġgen u
Ġdon aciÃ³n
Ġhu ir
Ġvisi bles
Ġabri rÃ¡
ex per
Ġcontinu arÃ¡
Ġespec tro
Ġaf Ã¡n
Ġfar c
Ġsuel ta
Ġalber t
Ġpreocu p
Ġtrabajado ras
Ġinquie tudes
Ġescla vi
Ġinfla maciÃ³n
Ġcusto dia
9 3
b eral
s ino
Ġno bel
qu ot
Ġesta fa
Ġma dura
Ġar mando
Ġlu chando
Ġro bÃ³
Ġfun cionales
Ġfu ji
Ġvol cÃ¡n
Ġacep tan
Ġejer ce
Ġenfer mo
Ġcorrespon da
Ġagu jero
Ġocur ra
Ġconj untamente
Ġblo ck
Ġinterpre taciones
Ġmostrar on
Ġcoopera tivas
Ġmag is
Ġvincu ladas
Ġexces ivo
Ġmanu alidades
seÃ± or
Ġangus tia
Ġester eo
ĠincÃ³ mo
g em
Ġa tras
Ġdes gaste
Ġfin alizado
Ġ" Â¿
Ġra tÃ³n
Ġtan go
Ġsen dero
Ġcer do
Ġasi Ã¡tico
Ġnu lidad
ĠhistÃ³ ricas
Ġvin tage
Ġcapi tulo
Ġrecla maciÃ³n
Ġgre mio
Ġextin gu
gori t
encuen tra
Ġsalari al
Ġinsec tos
v ente
de cer
Ġen tienden
te xto
Ġes car
Ġf ul
Ġt un
Ġsi mbo
Ġma z
Ġan ge
Ġcor ren
Ġba Ã±era
Ġva yas
Ġplan etas
Ġhe lado
Ġdar me
Ġconten tos
Ġsub mar
Ġcompar tiendo
ĠmÃ¡xi mos
Ġconci liaciÃ³n
Ġace lera
Ġnar raciÃ³n
Ġerr Ã³n
Ġplu ma
ĠgrÃ¡ ficas
Ġantro po
Ġfascin ante
Ġestupen da
Ġprotoco los
Ġp io
Ġun irse
Ġse go
Ġre cambi
co pia
Ġex Ã³
Ġsa cra
Ġmen cionada
Ġdu rar
Ġutili zÃ³
Ġbar Ã§a
Ġcolo cado
Ġtitu laridad
Ġrefle jan
Ġcampa mento
Ġurban as
Ġexcep ciones
Ġ197 8
pÃ¡ gina
Ġvulnera bilidad
Ġrell enar
Ġcab ina
Ġdispar os
servi cios
Ġarru gas
Ġpropa ganda
Ġbode gas
Ġfide lidad
Ġfores tal
Ġbatal las
Ġde cÃŃan
di c
Ġse cos
Ġin ta
mi e
tar la
Ġsa grado
Ġcre encia
Ġra cional
Ġhab rÃŃan
Ġval iente
cre a
Ġce der
Ġ8 1
Ġorden a
Ġani mar
dir se
mor e
Ġrefer ido
Ġmil las
Ġquer Ã©is
Ġfil me
Ġclasi fica
Ġarre ba
Ġlegisla dor
Ġgesti on
Ġescuch ando
Ġcala ba
camp e
-------- --------
Ġinyec ciÃ³n
Ġigno rancia
Ġprecis Ã³
Ġcontralor ÃŃa
tecno logÃŃa
la va
Ġto k
Ġli ght
Ġsin gu
Ġcons istente
Ġlle vas
Ġdar ÃŃa
Ġsoli dario
Ġorden anza
Ġur gencias
Ġreal ista
Ġblan que
Ġpoten tes
Ġgana derÃŃa
Ġ198 8
Ġtritura ciÃ³n
Ġemer gentes
Ġcenten ar
Ġbolivi ano
Ġinnovado ras
Ġgener Ã³
i ano
j anos
Ã Ĺ
Ġpor tales
Ġpara n
Ġha ck
Ġan des
Ġman go
ĠâĢľ Â¡
can es
Ġau ge
ina da
Ġfi ebre
Ġali mentar
Ġrecor damos
Ġdirec trices
ĠacompaÃ± an
Ġencu a
Ġsecun dario
Ġetique tado
uli pas
Ġanu almente
descu bre
Ġtesta mento
h om
ta ro
Ġse tenta
Ġte mb
Ġna ves
gan o
Ġofre cidos
Ġuniversi ty
Ġani mados
tÃ¡n eo
Ġimpres o
Ġben ito
Ġpens Ã³
Ġcoord inar
Ġmue ble
Ġavis ar
Ġprovo cando
Ġoscu ros
Ġfemin ista
Ġclo ud
Ġempera dor
? "
a ma
ï ¬ģ
Ġa tar
tra bajo
Ġto d
Ġso is
Ġma teo
Ġte chos
Ġcar dÃŃa
Ġau ri
Ġcre mal
Ġsal ÃŃa
Ġreali dades
Ġfi chas
Ġnor oeste
Ġali ado
Ġnom brar
Ġpresi ones
fo x
Ġcontinu Ã³
Ġextra Ã±os
mm y
Ġnavega dores
Ġapun tÃ³
Ġcocin as
Ġdete cta
Ġinsul ina
? )
r r
Ġs art
ti tas
Ġdes nivel
Ġsin cero
Ġmo vistar
pon e
Ġda dos
Ġk ms
Ġri cas
Ġfu Ã©
Ġlib rerÃŃa
Ġsigu es
Ġale ja
Ġcin es
Ġcri pto
Ġsolici tÃ³
Ġcru cero
Ġmani pular
Ġvari aciÃ³n
ĠmÃŃni mas
onar do
Ġenfr ente
ĠcontinÃº as
Ġjal isco
licÃ³ p
Ġdesequi li
ta te
Ġy i
men ts
gu esa
Ġan na
Ġac ari
Ġser ver
me la
Ġor uro
vo ces
Ġro ll
Ġmen cionÃ³
cha in
Ġ7 3
pti on
tt y
valu aciÃ³n
Ġconec tividad
Ġcabal leros
Ġdescon ec
Ġespal das
Ġsopor tes
Ġlumin oso
Ġbit coin
l li
Ġg n
Ġac tas
Ġra bia
Ġgran o
ĠestÃ¡ is
Ġven go
Ġz en
Ġcuer das
Ġapoy os
bas e
Ġcir co
Ġcompra dores
Ġenv ÃŃan
Ġelabora dos
Ġbio di
Ġesen cialmente
Ġase o
Ġconcur s
Ġenamo rado
Ġrevolucion aria
produ cciÃ³n
Ġjubi laciÃ³n
Ġsemifin ales
Ġlesbi anas
m ur
Ġe as
Ġe po
Ġp se
Ġc lin
ti car
al guien
Ġse pul
Ġo las
Ġcom mons
Ġcomo didades
Ġpo tos
Ġas tro
Ġtu ya
Ġtu toriales
Ġlu chas
Ġsal ones
Ġra cing
Ġforma tivo
Ġhu racÃ¡n
titu ciÃ³n
Ġimpor tan
Ġqui jo
Ġpon erte
Ġweb site
ck et
ĠpÃ¡ g
Ġesco l
Ġfuncion alidades
Ġdra gon
Ġexa cto
Ġdomici li
Ġascen sor
Ġescas ez
Ġcoloni as
ĠdinÃ¡ micas
Ġcoordinado ra
f onos
s k
Ġl Ã¡c
Ġre mol
Ġsu ceso
Ġno te
co pi
Ġdis capa
Ġdo rada
bo ard
Ġcen ar
Ġhe licÃ³p
Ġpresenta das
Ġchi p
Ġanun ci
Ġoport uno
Ġlin ks
Ġat mos
Ġ198 2
Ġempren dedor
Ġ197 0
Ġfren ar
Ġbenefici arios
p ese
x is
y er
Ġe cho
Ġse da
res oluciÃ³n
Ġal dea
Ġal gorit
Ġme ra
ten os
gi ble
Ġas unciÃ³n
Ġci elos
Ġpu entes
Ġ19 60
ha ga
Ġnoti ficaciones
Ġreco lecciÃ³n
Ġjusti ficaciÃ³n
Ġat le
Ġolvi da
Ġsupon en
Ġrecibir Ã¡n
Ġdipu tada
Ġarre pen
Ġextran jeras
Ġadmi raciÃ³n
ĠespÃŃritu s
Ġnorm alidad
Ġjugue te
pad visor
Ġdesin fec
Ġmiseri cordia
Ġsart Ã©n
g ono
s tar
t lÃ¡n
u almente
x el
Ġt ÃŃa
Ġres guar
Ġdis cursos
Ġsin g
Ġob rero
Ġdo cencia
Ġfor mÃ³
Ġrep aso
Ġpol onia
Ġpon ÃŃa
Ġacu mul
Ġrela ciona
Ġejecu tivos
Ġdeli mi
Ġtre ce
Ġdibu jar
Ġtransforma ciones
Ġfol k
Ġxi i
Ġaman ecer
Ġaumen tÃ³
Ġaloja mientos
Ġacre edores
Ġfusi lado
ci no
ar ti
Ġf esti
Ġre ele
Ġb est
Ġg era
Ġper fu
Ġmi tos
Ġver Ã¡n
Ġentre gas
Ġro ta
Ġhi p
Ġter n
ala das
Ġinforma tiva
Ġcomple jas
Ġprogra mar
Ġinteres ada
cis te
Ġcorrespon dencia
Ġbusca ba
rin os
Ġalcal desa
Ġdivi de
Ġcompu tadoras
Ġperju icios
Ġrepi te
Ġacumu lado
Ġinnovado ra
Ġincapa z
trÃ¡ fico
Ġterre moto
li das
Ġdes vi
za pa
Ġti ps
ari dades
Ġvi dal
00 1
Ġcono cÃŃ
Ġval les
Ġcul tiva
Ġele gida
Ġtrav es
val os
!! !!!
Ġrecor tes
Ġcontinu as
Ġdomin ios
Ġpregun tado
Ġdia mante
Ġnorte americana
Ġfer re
og rÃ¡
Ġcompeten tes
Ġmate mÃ¡tica
Ġdicta men
Ġprostitu ciÃ³n
Ġpau lo
Ġobis pos
Ġautomati zaciÃ³n
cual quier
l f
m Ãº
v ina
Ġc uel
Ġs mith
es is
Ġcu ente
Ġimp osiciÃ³n
... "
Ġtien den
Ġver sa
Ġw ee
Ġra yo
Ġgen o
Ġgen io
Ġ8 8
it lp
Ġmol Ã©
Ġdeli bera
Ġafir maciÃ³n
Ġsenti mental
Ġmez c
Ġregistra n
Ġdele gados
Ġinfra cciÃ³n
Ġsome tidos
Ġhipo teca
Ġpriori dades
Ġrespi raciÃ³n
Ġoptimi zaciÃ³n
Ġgala xy
contin u
Ġcomposi tor
Ġprecau ciÃ³n
ĠmuÃ±e ca
2 000
u lo
Ġn es
Ġn ec
Ġb inarias
Ġsu ba
Ġca en
gu er
Ġex hor
Ġw oo
zo bis
bu en
ica mente
Ġaten diendo
ĠcÃ¡ lido
Ġobs tru
Ġinsta lada
Ġexpres idente
Ġdedi cÃ³
Ġestructura les
ĠÃŃn dole
Ġinflu encias
Ġger mÃ¡n
Ġfol lar
ĠquÃŃ micas
Ġmonitor eo
ĠdidÃ¡c tica
archi vo
Ġinconven ientes
Ġpamp lona
z antes
Ġs tra
Ġs ms
Ġes teri
Ġsu reste
tar nos
ora ciÃ³n
Ġap u
Ġpres tado
Ġlle guÃ©
so cial
com merce
Ġcen i
for t
Ġ7 1
dan os
Ġconta cta
mon t
Ġconstru yendo
Ġjusti fica
Ġcatal anes
Ġsani tarias
ĠdiÃ¡ logos
Ġtera pias
ase gu
Ġescas a
Ġcafe tera
ĠhÃŃ bri
Ġinconven iente
Ġanaly tics
i go
z zi
de le
Ġp Ã³
ri ch
ma yo
tu la
Ġme tido
Ġco ch
Ġpri sa
Ġcar rito
Ġins tin
Ġcan o
Ġri tual
Ġvisi tando
Ġrepres ali
Ġdomin ante
Ġpasa je
teni das
Ġexi gen
Ġplante ado
Ġlatino americana
Ġexac titud
Ġapos tar
Ġincor por
Ġexpul siÃ³n
Ġparce las
Ġadquier e
Ġsuperinten dencia
Ġcon dado
le ras
Ġsu geri
Ġd Ã¡ndole
Ãº r
Ġex tras
Ġexp one
Ġfin alizÃ³
Ġra dia
Ġru g
Ġedu car
ke y
Ġamp a
Ġreco gen
Ġocur ren
Ġemi tido
Ġdra gÃ³n
ei ra
Ġaumen tan
Ġdedica das
Ġsole m
Ġgalle go
Ġinjus ti
Ġstan d
Ġtrau ma
Ġmemori as
bienven ido
m Ã©rica
Ġe ver
Ġen ju
vi de
Ġmu ral
Ġmi rÃ³
ado ras
Ġci a
Ã©n du
Ġro daje
Ġparti cul
Ġpes etas
fa mi
Ġsea mos
Ġfunda do
Ġespeci alizadas
Ġexpres ado
Ġapoy ado
Ġconsidera ciones
Ġperfec tos
Ġleer lo
Ġestre cho
Ġtro zos
ĠaÃ±a dimos
ly n
Ġentrena dores
wa gen
Ġescrito ra
Ġlegisla tiva
Ġresuel ve
Ġreempla zar
Ġinser ciÃ³n
d aria
j ect
Ġin fil
Ġdes ca
Ġma h
Ġna z
cer ca
Ġsin croni
Ġu buntu
Ġprograma do
Ġsele cciones
Ġdetal la
Ġmucha cho
Ġinterpre ta
Ġabor da
Ġmul tas
Ġdeten ida
ĠdiseÃ±a das
Ġorganiza dores
Ġpeligros a
Ġpeligros as
Ġcoinci de
Ġconser vado
Ġamate ur
7 00
r ina
Ġque dÃ©
to oth
Ġf Ã³
Ġsu mado
qu Ã©s
bi lla
Ġmar bella
Ġch in
so ft
Ġayu dÃ³
Ġvisi tÃ³
lor e
.... ..
Ġrepresenta ciones
Ġdedi can
mul as
Ġfuerte mente
Ġcorto me
Ġmic rÃ³
Ġfantas ma
Ġequivo cado
Ġprocura durÃŃa
Ġgrues o
Ġcere ales
Ġcanci ller
Ġpedago gÃŃa
Ġoch enta
Ġes tro
Ġf p
Ġdi ges
ma x
ba das
Ġmi ras
Ġro llo
Ġdu rÃ³
Ġsan tuario
bo ran
Ġhe pÃ¡
Ġvol vieron
cono ce
ho tel
mu los
Ġhabi ta
Ġcompar to
Ġcompro bado
Ġdia mantes
Ġfon tan
Ġimpres ora
Ġapor tando
Ġesco bar
ph y
Ġfigu ran
Ġ198 7
Ġavis os
Ġchica go
Ġcompa tibles
Ġrespec ta
ĠperÃŃo dos
Ġrenta ble
Ġsepara dos
Ġacostumb rados
ĠromÃ¡n tica
Ġclau dia
hÃ© ro
s hi
ï »¿
Ġs ci
Ġs he
le g
Ġal la
Ġdi al
men tada
Ġca dera
Ġlo cos
ali zaciones
Ġpar rilla
tin e
Ġqu ise
Ġab uelos
lu is
Ġpi g
Ġconta ble
Ġorden ado
ac Ã¡n
ac tividad
Ġat letas
Ġpreven tivas
Ġglo bo
Ġemi te
Ġcontribu yen
Ġbara tas
Ġadmi tir
Ġfres cos
Ġocul to
Ġ36 5
Ġarran ca
Ġexter nas
Ġaj eno
Ġeconom ÃŃas
Ġpsicol Ã³gico
edu caciÃ³n
Ġjuli Ã¡n
Ġasal to
Ġmisteri oso
Ġordin ario
Ġope ran
ĠÃ³s car
e tc
i ana
de se
Ġm r
Ġme li
el le
Ġti gre
Ġan g
Ġte las
Ġac tivas
pi ra
Ġfa chadas
Ġda Ã±
Ġchi men
Ġdomin ar
bol ismo
Ġsur gir
Ġfra u
Ġrecuer de
Ã³s ticos
Ġnega tivas
Ġpresiden ciales
Ġdespi erta
Ġcuidados amente
Ġpere gr
Ġnet flix
Ġecos istema
Ġinvas iÃ³n
Ġdistribui dores
d l
in for
te ms
Ġo raciones
Ġsi er
Ġac en
Ġcas eros
Ġmar in
Ġinter medio
Ġmen Ãºs
Ġad misiÃ³n
Ġcol le
par e
Ġvol vemos
Ġcontro lado
Ġorigin almente
Ġavan zando
Ġenvi ados
one tas
Ġbor des
Ġcali bre
Ġcel uli
Ġtren es
Ġasegurado ra
Ġges tor
Ġfrac turas
Ġarticu laciÃ³n
ĠĠ ĠĠ
Ġreivin dica
Ġapete ce
Ġmedioambien tal
Ġm ts
Ġen trando
Ġel enco
ro om
Ġin mor
Ġta cto
Ġma j
Ġar zobis
mas ter
Ġson ar
Ġcan sado
bili za
Ġpon gan
Ġz an
Ġresul taron
Ġedi tado
Ġescri bi
val e
Ġextra cto
Ġdesta cando
Ġproces al
Ġtur bo
Ġusar lo
Ġexperi mental
Ġdescono cidos
Ġrepor tes
Ġrequ erir
Ġtr inidad
ĠobstÃ¡ culo
Ġestudian til
Ġcoach ing
Ġburgu esÃŃa
j ita
s ur
s ho
u tc
v ientes
cu Ã¡les
Ġper dieron
pi to
Ġar mÃ³n
Ġhab rÃ¡n
Ġhi los
Ġprodu ciendo
ĠÃ³ pera
Ġponer le
Ġelimin ado
Ġvas os
Ġ197 6
Ġdescono ce
Ġsuspen der
Ġirre gular
Ġatribu tos
Ġestatu tos
medi ante
Ġadj unto
Ġdiferen ciar
Ġescapa da
Ġcoher encia
Ġurugua yo
nÃº mero
b rÃŃ
n ando
p sia
ti tos
Ġpa tologÃŃa
Ġme mb
Ã¡s tico
Ġi x
tar me
Ġfa tal
Ġba da
Ġfin aliza
dr Ã³
Ġparti endo
Ġva cas
Ġmas ivo
Ġtor ni
Ġseguir Ã¡n
Ġtitu lada
Ġconseguir lo
ys tation
Ġalber ga
ĠkilÃ³ metro
Ġinfini dad
Ġtransa cciÃ³n
Ġsubra yÃ³
ĠÃ¡ra bes
Ġtrami taciÃ³n
Ġmales tar
Ġdesenca den
Ġceluli tis
Ì ĩ
Ġp ones
Ġc aridad
in no
di ciones
gu los
Ġpre visiones
Ġpas es
Ġcar ece
pu b
Ġcambi e
ĠmÃ© ritos
ctu s
Ġsuper Ã³
Ġguer reros
Ġexpli co
Ġpien sas
Ġoscu ras
Ġalqui lar
Ġgesti ona
ĠclÃŃni cos
Ġlatino americanos
Ġescon de
Ġregular mente
Ġgobern antes
Ġreba jas
Ġcaba Ã±a
Ġsupermer cado
Ġabsur do
Ġconvirti Ã©ndose
m om
Ġde roga
ar gen
men taria
Ġto po
Ġvi cti
Ġactu aliza
Ġtri padvisor
Ġale gro
Ġante laciÃ³n
Ġanti cip
Ġis s
Ġesti mular
Ġcele bran
Ġmensa jerÃŃa
Ġprecios as
Ġrefle jar
Ġindepen den
Ġestructura l
Ġreun irse
Ġsien tan
Ġdenom in
Ġjuven iles
Ġmone taria
Ġmadu rez
ĠromÃ¡n tico
Ġsuple mento
Ġnarco trÃ¡fico
esc uela
ĠvÃ©r ti
Ġsomb rero
Ġ {
Ġf l
Ġo ra
Ġal b
lo gi
Ġca f
ran za
fi t
Ġpo ta
Ġcar is
Ġ8 9
Ġapar ente
Ġabri endo
Ġdisfru tado
Ġdiver tidas
Ġcate drÃ¡
Ġdepen derÃ¡
Ġdesarrollar Ã¡
Ġcorpora tivo
Ġbro ma
Ġom ega
Ġvar ones
Ġjuz gados
Ġcaptura r
Ġrevel ar
Ġinventa rio
Ġcintur Ã³n
face book
k as
s ti
w an
Ġl om
ci Ã©
as tas
Ġn el
Ġcon fer
Ġb Ã©
Ġal an
cu laciÃ³n
Ġd ni
fi cios
Ġar ms
Ġtu tor
Ġab c
Ġmen stru
Ġra mi
Ġtri mes
Ġaten tos
ĠcÃ¡ ceres
Ġrecor re
Ġagra do
Ġimpres iones
Ġperman entemente
ĠclÃ¡s icas
Ġembara zadas
ks wagen
Ġrespi rar
ĠestratÃ© gicos
Ġino cente
Ġsmart phones
Ġexitos o
Ġofen siva
Ġagui lar
ĠpÃ¡jar os
Ġmonter rey
s ali
Ġse pan
Ġlo te
mi dades
ver dad
Ġli toral
ll eros
Ġne oli
Ġrep uesto
th on
per ci
Ġevi dencias
Ġado be
Ġconfor mar
Ġpul sa
Ġbloque ar
Ġbienven ido
Ġfili al
Ġflamen co
Ġprov echo
a po
Ġen horabuena
Ġn ÃŃ
Ġin adecu
Ġg estos
ce f
Ġtra jo
Ġvi tales
Ġsin tiÃ³
Ġdu de
Ġcol gar
Ġval l
esta d
ĠnÃº Ã±ez
tÃ¡ bamos
mes a
tÃ© tica
Ġpasa porte
bal l
gon al
Ġcali fica
Ġgri ega
Ġtradu ce
Ġboli vari
Ġsor ia
Ġhier bas
Ġconvo cado
Ġmonu mental
Ġcata lo
Ġcup Ã³n
Ġrecon ci
tÃ©cni ca
Ġwiki pedia
ĠmuÃ± ecas
Ġregenera ciÃ³n
Ġinvisi ble
ĠdÃ©bi les
Ġrecauda ciÃ³n
Ġsende rismo
Ġrepresali ado
Ġs c
Ġs ti
Ġt y
le x
Ġal ca
Ġsus ana
Ġli ti
na die
Ġpas eos
Ġmis eria
Ġab onar
Ġcer vantes
Ġfran ja
Ġref un
Ġafec to
Ġinde fin
Ġdeli ciosa
Ġtoma das
Ġmuer ta
ĠmÃºlti ple
Ġapun tan
Ġgor do
Ġrecibi dos
Ġcotidi ano
Ġsuger encia
Ġhumil dad
Ġreclama ciones
a te
e vi
f Ã³n
Ġc ross
al th
Ġf Ã©r
Ġpa p
Ãº pi
Ġex al
Ġsin gle
Ġimp ri
Ġr Ã¡
Ġro dillas
com par
Ġcono ciendo
Ġlib ras
Ġz el
Ġtri pu
Ġvis tos
Ġsue la
Ġtomar se
Ġfabri car
Ġcircu la
Ġ198 4
Ġprefer ido
Ġpropon en
Ġbanc arias
Ġapla u
reg la
Ġconquis tar
Ġhomi cidio
Ġpay pal
Ġrelaja ciÃ³n
Ġinteractu ar
Ġagricul tores
% ).
j n
n el
v v
y y
Ġp Ã¡nico
in fo
Ġes til
Ġo ÃŃdos
Ġin minente
Ġb ando
Ġdes tre
Ġle vante
Ġpre vias
Ġperson alizaciÃ³n
Ġgen i
Ġhacer me
cha ba
Ġos ten
Ġsali mos
Ġevi den
Ġacep table
Ġsecre ta
Ġdeli cado
Ġpron Ã³stico
sal udos
Ġhal l
Ġbro wn
Ġdiscu siones
Ġlatino americano
Ġrit mos
Ġtranspor tar
meri cana
Ġcup ones
Ġ; )
Ġira k
Ġandre a
Ġpreju icios
Ġrelie ve
2 50
d Ãº
v ÃŃan
ta g
ti Ã³n
di cho
li mp
Ġvi llas
Ġmar char
Ġmuch ÃŃsimas
Ġprim arias
Ġven ciÃ³
Ġreci bida
ĠÃ¡ cidos
Ġale a
Ġsab ÃŃan
Ġcrea tivos
Ġescu a
Ġaf ines
Ġcolabora dor
Ġdefini ciones
ĠÃŃn tima
Ġsemi lla
ay uda
ĠteÃ³ ricos
ĠpacÃŃ fica
Ġprepa ran
Ġresca tar
ĠanÃ³n ima
Ġore jas
Ġsupermer cados
Ġirregu laridades
Ġinn umera
Ġroy al
Ġquijo te
g Ã¡is
o ff
y es
Ġc esiÃ³n
Ġc Ã©spe
Ġla u
Ġm b
Ġen cla
re os
di gi
Ġpa gando
Ġpara das
Ġto bi
Ġan illos
Ġmi re
ver pool
tri tura
so li
Ġesp ina
dera do
Ġlib ra
che t
Ġale jado
Ġcomen cÃ©
Ġlleva da
Ġsignifica tivos
Ġpost res
Ġlon don
Ġ198 3
Ġexa min
Ġgastron Ã³mica
Ġdespla za
Ġresal tÃ³
Ġstar tu
Ġces ar
Ġsuple mentos
Ġfro m
Ġibi za
Ġcremal lera
ci llo
an al
Ġse des
dos as
Ġsi mÃ³n
ch or
Ġdes hacer
Ġso bren
Ġten siones
Ġman dÃŃ
Ġcas ero
car bu
Ġpi mienta
Ġhi ll
Ġpodr Ã©is
Ġedi tores
Ġ9 4
Ġmal tra
Ġtar ra
Ġcomen zamos
ular es
Ġparticip ando
Ġtrabaja ba
ju ven
Ġdetal lado
Ġexi gente
Ġcel esti
Ġ197 5
Ġderi var
Ġmag dal
Ġreto mar
Ġvar ÃŃa
Ġasesina tos
Ġafue ras
Ġparce la
Ġmater nidad
a mp
k on
m arios
p ra
s ori
Ġl g
Ġla tÃŃn
ar to
Ġo u
Ġca bra
Ġan terioridad
Ġle onardo
Ġman dÃ³
Ġob tienen
Ġr s
Ġposi cionar
Ġrep uestos
Ġam ue
ĠÃ¡ gil
Ġpues tas
Ġindi que
Ġpoder osos
Ġ8 3
val encia
Ġconten ta
âĢľ ,
Ġdisfru tan
Ġvien tre
Ġer mita
Ġbor dado
Ġemo cionales
Ġtorne os
Ġincon di
Ġcoinci den
Ġresuel to
Ġinmen so
Ġfrag mentos
Ġisi dro
p hi
or ia
le ar
Ġsu til
lo t
Ġma Ã±
Ġco li
ja mos
Ġcons tan
ĠÂ ĵ
Ġsan eamiento
Ġk im
Ġpla ce
Ġplan cha
Ġcal enta
Ġgu in
ha z
Ġbar baco
Ġnovi os
Ġsol as
per io
Ġvia jero
vin as
Ġhar Ã©
Ġbel los
ĠrÃ¡pi das
Ġbrin dan
Ġsuje ta
Ġesperan zas
Ġrecha za
Ġradi cales
Ġadicional mente
Ġvera cidad
Ġmercan cÃŃa
Ġamari lla
ĠfÃ³r mulas
Ġrecre aciÃ³n
Ġpublici tarios
Ġhuer to
Ġcinemato grÃ¡fica
Ġresis tir
Ġmilen io
Ġmati ces
Ġguana ju
Ġcoba ed
Ġdesplie gue
g p
Ġa e
Ġf lan
Ġj on
Ġto tales
Ġpo ker
Ġar mar
Ġsus crip
Ġna cidos
Ġdis cur
sa bes
Ġver sion
Ġri sas
Ġvisi tan
Ġorgani zados
Ġsub titu
Ġren tas
are la
Ġregistra das
Ġenca je
Ġahor ros
Ġequipa je
Ġcue vas
Ġarran car
Ġvisu alizaciÃ³n
ĠfÃ¡bri cas
mÃŃn guez
Ġleal tad
Ġvietna m
Ġcanadi ense
Ġinunda ciones
Ġs cien
on ista
an s
Ġin sa
Ġpa pas
Ġso ja
Ġti ras
ali zamos
Ġtra mos
Ġpre ma
Ġver sos
Ġro taciÃ³n
Ġgran ito
Ġmay Ãºs
com enta
Ġpla ystation
Ġmin ia
var o
Ġmal trato
yo ta
Ġpin cha
Ġmor tales
Ġfamili ari
Ġdepen diente
Ġdepen dientes
lin k
Ġmodi ficado
hu ana
Ġcandida ta
Ġaproxi maciÃ³n
Ġsui cidio
Ġjoy erÃŃa
Ġfemin ismo
Ġapas ion
Ġec les
Ġrepubli cano
Ġbolivi ana
Ġronal do
Ġde monios
Ġa fortunadamente
Ġh rs
Ġo z
Ġre za
Ġre quiera
Ġg Ã¼
Ġta mbi
Ġma pu
Ġcar teles
Ġro ble
tari smo
Ġven drÃ¡
Ġ19 50
Ġreg ala
Ġru inas
Ġos teo
oni c
Ġautori za
Ġautori zados
Ġpromo cional
Ġquer ia
Ġtama ulipas
Ġdemos traciÃ³n
Ġsupera ciÃ³n
Ġartes anos
Ġgre gor
Ġmeta bolismo
Ġbru to
Ġom ar
Ġcomprome tidos
Ġph p
Ġinnova dores
amb os
Ġpho tos
Ġstu dio
Ġasfal to
Ġnewslet ter
b Ã¡
c Ã¡r
Ġl lÃ¡
Ġf rio
li tes
cu ida
Ġj ones
Ġle va
pi ta
Ġpas en
Ġnos tal
ren o
Ġter ceras
Ġbar ba
Ġrela jarse
Ġfal tas
Ġban deras
ho o
Ġrecor d
Ġespeci fica
Ġdin osau
Ġalcan zan
Ġafir man
Ġdenun ciado
Ġreti ra
Ġmostrar le
Ġanal ista
Ġche que
Ġmic ros
Ġrecibi mos
Ġenga Ã±ar
ĠteÃ³ rica
Ġpetro lera
Ġacele rar
Ġventi laciÃ³n
apro v
war ts
Ġseri edad
Ġtucu mÃ¡n
c alidad
Ġde pre
os is
Ġa rea
Ġs li
Ġs qu
di um
Ġdes venta
ali zando
Ġtra mpa
Ġvi h
Ġeste mos
Ġmar can
Ġor ina
teri dad
Ġcal entamiento
ton as
Ġllama mos
Ġintegra dos
ĠmÃ¡xi mas
Ġpier da
ĠplÃ¡s tica
Ġcastel lana
Ġyu ca
Ġexcur siones
Ġblue tooth
cuÃ¡n to
ĠdiscÃŃ pulos
Ġdies el
ĠÃŃnte gra
e j
e ciendo
f echa
de ri
ci dios
ta lo
ar la
re f
ca mis
Ġin mej
Ġpa tentes
Ġg p
Ġdi le
Ġdes orden
Ġres istentes
Ġba by
Ġfin alidades
ĠcÃ³ mic
ĠcÃ³ mics
Ġfal da
Ġja ma
Ġrespon den
Ġsitu ados
Ġhaber lo
Ġrefer irse
Ġexten so
Ġcompeti dores
Ġasis tieron
Ġinnova ciones
Ġpais es
Ġlici taciÃ³n
ĠclÃ¡us ula
Ġpesta Ã±as
b by
e idad
g esti
Ð º
Ġp d
Ġen tro
Ġv la
Ġpa pe
Ġdes bor
Ġta cÃ³n
mo vi
fer ente
Ġmis terios
Ġgran os
Ġconsi gna
Ġdesa perci
ĠprÃ³ tesis
Ġllevar lo
ques a
Ġrepresenta do
Ġdeba tir
Ġperman entes
Ġben diciÃ³n
Ġaj enos
Ġescor t
Ġadj un
Ġescla vos
Ġclau dio
Ġwhi te
Ġferrocar ril
Ġpabel lÃ³n
Ġbada joz
t le
de te
or ien
Ġf li
Ġpro hÃŃ
co logÃŃa
ter Ã³
pa ce
qui o
Ġmi ti
Ġna cion
Ġsobre peso
Ġpe u
be th
Ã±a dos
Ġcos tÃ³
Ġven didos
Ġreci ba
Ġpos ts
Ġestudi Ã³
Ġchi huahua
ac tiva
Ġtendr ÃŃan
Ġnoti ficar
Ġubi car
Ġtur ÃŃsticas
Ġvari antes
Ġrespe tando
Ġat lan
Ġpatri o
Ġelabora da
Ġwi ll
Ġmanten drÃ¡
Ġcompa tibilidad
jaja ja
Ġderi vadas
cali psis
Ġhumani dades
Ġucran ia
Ġaugus to
ĠðŁĻ Ĥ
Ġarms trong
a bles
v eras
Ġa diÃ³s
es tÃ¡n
te to
Ġes cultura
Ġun is
Ġper tur
Ġtra zado
Ġco p
Ġda ting
Ġbu que
bo a
Ġaca be
Ġpob ladores
Ġpsi quia
Ġtro feo
Ġexten dido
Ġben i
Ġ198 1
Ã³li cas
Ġderi vado
Ã©ndo la
Ġvalen tÃŃn
Ġactiva ciÃ³n
mato logÃŃa
Ġrecopi lar
Ġrecep tor
Ġsna pe
Ġprece dente
Ġatro pel
Ġabaste cimiento
Ġvengan za
blogs pot
a que
Ġde pri
Ġso Ã±ar
Ġan cla
Ġle ones
Ġli verpool
Ġsin te
lan os
ces is
Ġfa tiga
Ġcor tÃ©s
Ġju ra
Ġra lly
ros os
Ġgo tas
ĠÃ¡ gui
Ġon das
Ġjor di
Ġreco gidos
Ġcali ficar
Ġmari ana
Ġexplo ra
Ġtradu cciones
Ġbre cha
Ġinci dentes
Ġcompa cto
Ġadelan tado
Ġprogres iva
Ġbau tista
Ġabun dancia
Ġllan tas
Ġdirigir se
Ġparale la
Ġgraba ciones
Ġtech no
Ġparadi gma
âĨ ĳ
1 50
c lÃ¡s
f ina
h ombre
da te
Ġf m
Ġpor ciÃ³n
Ġper didos
Ġdes fa
Ġco h
Ġas en
Ġve ran
Ġve gas
Ġdo mÃŃnguez
Ġba jado
Ġne y
Ġx dd
Ġcua dras
ex iste
dis tribu
Ġopera tiva
Ġproces ar
Ġcali ficado
Ġconec tados
Ġartes anÃŃa
pp ing
ĠacadÃ© micas
Ġacor dado
ĠplÃ¡s ticos
Ġpedag Ã³gica
Ġcoher ente
v ÃŃo
Ġre tenciÃ³n
Ġto men
Ġpres ento
ck ey
Ġescri turas
Ġcompar tiÃ³
Ġdesta cadas
Ġubi cadas
Ġdemo cra
Ġgua dalu
Ġaban ico
ĠeconÃ³mica mente
fin an
Ġras tro
Ġbil ingÃ¼
Ġ196 8
Ġexces iva
Ġimprescin dibles
Ġglob alizaciÃ³n
Ġdelincu encia
ĠlegÃŃ timo
Ġponte vedra
Ġsou th
Ġperforman ce
Ġinnumera bles
i mer
k an
en ds
ci erto
Ġn ano
li ana
cia da
ali ce
Ġcomp as
Ġpas Ã©
Ġsen da
para ble
ĠÃ© t
Ġagra ria
Ġhos ting
Ã£ Âº
Ġcompren dido
Ġvolun tario
Ġdra mÃ¡tica
Ġretro ce
ĠsÃŃnto ma
Ġcombus tibles
Ġpublici tarias
Ġnas a
Ġaci erto
archi vos
Ġhomosex uales
e ado
n on
z y
Ġe che
Ġp Ã³n
in f
Ġre cto
mp as
qu eri
Ġcu idad
Ġca t
Ġca pu
Ġso pa
man uel
Ġsin ton
Ġmar ro
Ġperson alizadas
Ġsegu ras
Ġprodu zca
Ġpes taÃ±a
Ġrela ta
Ġ9 2
Ġmal etas
Ġconta dor
ac tivo
Ġsolici te
Ġredu cida
Ġcrea das
ĠaÃ±a diendo
Ġconce jales
Ġalber gue
Ġroman ce
Ġjer ez
Ġaj enas
Ġenfa ti
Ġcompen sar
Ġmarg arita
Ġrug by
l ino
m ala
Ġd ale
Ġi dio
Ġdes bloque
Ġser ios
pi c
me ta
Ġlle ven
so cia
Ġpos turas
Ġentra Ã±a
Ġacep tÃ³
Ġpasa jes
Ġdiri gi
Ġconsul tor
Ġproyec ciones
Ġloc aliza
Ġcara vana
Ġgal erÃŃas
Ġdepen den
san to
Ġrecupera do
Ġtradicional mente
Ġacor des
Ġdefin en
Ġrode ada
Ġdescon fi
Ġhalla zgo
Ġesper emos
ĠportÃ¡ tiles
Ġmonstru o
Ġtron co
ĠfÃ¡rma cos
f ano
g no
z er
de mo
ci es
Ġen ig
ol lo
tor ce
Ġpre dio
Ġman us
gra fia
Ġor illas
Ġhi l
Ġmas tur
mon d
Ġapro x
Ġtermin ales
Ġmues tre
Ġagu da
Ġvari ado
Ġencar ce
Ġorien tar
Ġgua ya
Ġste ph
Ġcicl istas
Ġstre aming
ĠfÃ© lix
ĠcÃ©le bre
Ġcarden al
Ġgera rdo
a vis
f Ã³
u f
Ġla zo
Ġsu mÃ³
men a
co pio
us to
ter res
Ġto cando
ten ario
Ġma cho
Ġcomp rÃ©
Ġmar inos
Ġcons orcio
Ġver bal
Ġtan que
Ġfun era
Ġ4 50
Ġmon ar
Ġcamp ana
Ġcul tivar
Ġos o
terior mente
Ġpresen ten
Ġconsidera blemente
Ġgol fo
Ġparticipa ciones
Ġpob lado
Ġtrabaj adora
Ġara Ã±a
Ġvali oso
Ġves tuario
Ġsusten table
person al
Ġasign ado
ĠlingÃ¼ ÃŃstica
Ġprimor dial
. Â°
a gra
p lante
ue ta
te li
ca ba
Ġg las
Ġvi la
lar se
... ,
Ġni ck
Ġcar ril
lla da
Ġmin ero
Ġante mano
pro mo
Ġrecur rente
Ġlan d
Ġconsu me
Ġredu ciendo
Ġencan tados
Ġenf ri
Ġfas cina
Ġagrade ce
Ġbio grafÃŃa
Ġmicro ondas
Ġcoti zaciÃ³n
ss ss
Ġcubier tos
Ġhipo tecas
Ġobser vando
Ġencabe za
Ġdiscul pas
Ġmanio bra
quiz Ã¡s
Ġmobi le
c lub
f ÃŃ
h ome
Ġa tiende
ca i
ca piÃ©
Ġno t
Ġno venta
Ġca cao
ch ina
Ġi ce
Ġte o
Ġmi cho
mb la
Ġba jando
Ġro que
Ġro ad
Ġuni ted
mar k
Ġop ina
Ġmon tado
ea d
ĠcÃ³mo das
Ġrev uel
Ġinvi tÃ³
Ġvir gin
Ġexi gentes
Ġconcep tual
Ġlimp ias
Ġmaravillos as
dÃ¡ frica
Ġorgullos o
Ġcriti car
ĠnÃ³ mina
desarro llo
Ġjerar quÃŃa
Ġ^ ^
Ġferra ri
e gu
i tamente
de x
Ġen gor
in c
al ta
Ġf ec
Ġd ren
Ã¡s quez
Ġtra en
Ġtra ÃŃdo
gi bles
Ġar en
Ġsus pi
Ġpre c
Ġman dos
lar on
Ġba jÃ³
Ġsen os
tÃ³ rica
Ġpes ada
Ġvol viendo
dan za
Ġapar ezca
Ġconsul tora
Ġbri t
Ġfan Ã¡ticos
ĠacompaÃ± ante
Ã¡r qui
Ġcaracteri zan
land Ã©s
Ġrequeri do
Ġequival e
Ġestri cto
Ġadelga zamiento
Ġnucle ares
Ġlamen table
Ġclan des
Ġcristian ismo
Ġantioxi dantes
d ÃŃn
e jo
r ÃŃas
t p
u men
Ġ ).
Ġp ia
es cu
Ġen re
Ġel as
Ġv ÃŃs
Ġcom iendo
cion istas
Ġti ros
Ġvi p
Ġco o
po der
Ġcar encia
Ġcar bo
Ġlu ce
Ġro o
Ġsen tarse
Ġesp len
ĠÃ© lite
fici encias
Ġvol kswagen
âĢľ .
Ġani mo
Ġcele bri
Ġfalta ba
Ġsuf riendo
Ġcuar tel
Ġarti ficiales
Ġalmacen es
Ġlevan tÃ³
Ġbara ta
Ġexis tan
Ġandalu za
Ġactiv ado
Ġcl ari
inter es
Ġpantal Ã³n
Ġprotagoni zada
Ġinquie tud
tÃ©cni co
Ġcuader no
Ġparroqui al
h l
Ġm Ã³nica
Ġcom ento
Ġal is
Ġdes li
Ġcons pi
Ġmedi aciÃ³n
Ġro les
Ġro tun
Ġtri logÃŃa
Ġnor ue
dis cusiÃ³n
Ġsignifica tivamente
Ġfabri cados
Ġdemo ra
Ġmari huana
Ġilus trado
Ġfar o
Ġcompeti tiva
Ġep isco
Ġcau dal
Ġacla ra
Ġaparecer Ã¡
Ġbl ues
Ġrema te
Ġjack son
Ġfranqui cias
Ġecos istemas
Ġprofe ta
Ġrebe li
Ġguadalu pe
Ġa to
in er
que t
que Ã±o
ti er
Ġse vera
ca t
Ġdi ana
Ġca yendo
Ġdes crip
el Ã©ctri
Ġan he
Ġdis tor
Ġexp uso
Ġesp es
Ġfe o
Ġpes ados
Ġestudi ado
Ġani mado
Ġllevar Ã¡n
Ġeli ja
Ġgal lo
Ġintrodu cido
Ġfacili dades
pres en
Ġfes tivos
Ġaproxi mada
Ġadqui ridos
Ġconcre tar
Ġcomprome tida
Ġempa que
ĠâĤ¬ .
Ġvalenci ano
Ġgin ebra
Ġlinea mientos
Ġaudiovis uales
Ġhuer ta
Ġmadrile Ã±o
Ġunis ex
! âĢĿ
c v
Ġa fortun
ar nos
do men
Ġv ina
Ġb Ã¡
mp e
Ġdes is
gu erra
Ġtra emos
Ġob se
Ġcor on
Ġele gantes
ini lla
Ġorgani zÃ³
Ġir res
gin s
Ġtal las
chi ller
Ġasi lo
Ġinver na
Ġpal os
au tor
Ġprofun dos
Ġmoder nidad
Ġtradu ctor
Ġimpul sado
Ġalcal des
Ġreligi ones
Ġdesapar ece
Ġreve lado
Ġconces iones
recu erda
prote cciÃ³n
Ġspor ts
Ġcredi bilidad
descar gar
Ġhit ler
Ġitinera rio
Ġhorri ble
Ġbiodi versidad
f eb
Ġl us
Ġa rias
vi das
Ġi conos
ter est
ga ba
Ġle i
Ġco yun
Ġpre his
Ġsin alo
ja te
Ġcre aron
Ġw o
ech e
Ġcos mÃ©tica
Ġ10 5
Ġsigu ieron
Ġestar Ã¡s
Ġfoto grÃ¡fico
Ġconstitu ir
Ġpromo cionales
Ġcora l
Ġajus ta
Ġingles es
Ġregistrar on
Ġapas ionado
Ġsimul tÃ¡neamente
Ġcontex tos
Ġserp iente
! ...
[ /
a th
e je
k al
Ġe bro
Ġla ta
te mas
ti cismo
Ġv ano
ri tas
is tÃ¡n
ien ta
cia dos
Ġmar c
Ġinter mina
Ġve as
Ġr Ãºs
Ġcre mas
Ġcre cen
Ġpu tin
Ġprodu cidos
cal le
Ġam ores
Ġacu saciÃ³n
Ġfal las
Ġapro bados
Ġpun tas
Ġrecono cen
Ġtele visor
Ġconven iencia
Ġfre cuencias
Ġvideo juego
Ġace ra
Ġmari pos
Ġdev ol
Ġhaga mos
?? ??
ĠhÃ¡bi to
Ġacor dar
Ġsuces iÃ³n
Ġbanc ario
Ġcicl ista
organ ismos
Ġaer ona
Ġpersi gue
iden ta
Ġadh es
Ġguanaju ato
! )
m isiones
n ol
o ran
s y
Ġl Ã©
Ġin esta
Ġso b
Ġta ra
Ġsus ci
Ġna u
Ġpe z
Ġju lia
Ġcontra ctual
Ġinforma tivos
Ġcal do
Ġam Ã©ricas
Ġfal se
Ġescri tas
Ġart s
Ġabri go
dal e
Ġtro zo
Ġmili tantes
Ġobser vado
Ġhidro carbu
Ġmedal las
ĠaquÃ© l
ĠintÃ©rpre te
Ġantropo logÃŃa
Ġnostal gia
= =
b oy
p df
z gos
ã Ģ
Ġde ad
Ã³n icos
Ġb lu
Ġpor ce
Ġal p
Ġlas er
Ġper ca
Ġsus tra
Ġna tional
po int
gen eral
mb ras
Ġhi drÃ³
com enda
Ġgo za
Ġesti pu
Ġespera s
Ġespera ban
Ġdocu mentales
Ġcru cial
Ġtex turas
Ġdej Ã©
Ġatra e
Ġbel Ã©n
Ġdese ando
ĠestÃ© tico
Ġinflu ir
minis tro
Ġinaugu rÃ³
Ġestatu a
Ġvac una
Ġgin ec
Ġauten tica
ĠperiÃ³dica mente
ĠinÃº til
f is
Ġp era
ar me
Ġen tien
la m
Ġto ques
Ġpo tes
mbi a
Ġsin Ã³nimo
zar o
Ġdo u
Ġdu dar
eb la
Ġven e
Ġhe tero
Ġcomple mentar
Ġbi zco
Ġconten idas
Ġinfor mal
Ġgi jÃ³n
Ġblog ger
Ġconvi erta
Ġtru co
Ġ197 3
iz en
Ġcau te
Ġdesempe Ã±a
Ġvaria das
Ġfantas mas
Ġchil enos
Ġtr ono
Ġsuminis tros
Ġcerem oni
Ġdesas tres
Ġdespren de
Ġbesti a
contro l
ĠfilÃ³so fo
d ÃŃo
e v
Ġm entes
do cu
li tas
Ġpro fec
ten si
Ġap ri
... âĢĿ
Ġgu antes
ge ot
Ġbas an
ĠcÃ³ mpli
var d
Ġbi olÃ³gica
Ġinclu yÃ³
Ġtar da
Ġchi c
Ġjo ur
Ġren al
Ġacer cÃ³
Ġconven to
Ġencontra remos
Ġturis ta
Ġplante amiento
Ġzapa tero
Ġsuel dos
Ġagrade ciÃ³
Ġgoberna dores
Ġdiv orcio
fu entes
Ġadelan tÃ³
Ġvege tari
Ġbole tos
Ġhin capiÃ©
Ġinsu ficiencia
Ġrese Ã±as
Ġencen dido
Ġperf um
Ġdemasia da
- )
f ul
k h
r ing
w d
Ġ \
ta le
Ġen chu
Ġf ero
Ġha cina
men tas
co po
Ġdes p
Ġvi ii
gi e
Ġar men
no che
gra r
Ġmen cion
Ġdon aciones
Ġop uesto
Ġbo e
Ġactu alizados
Ġmayor mente
dan i
Ġconten edores
Ġinstitu tos
Ġorigin alidad
Ġresi dente
Ġpatri monial
Ġpul so
Ġorien tada
Ġcomi cios
ĠfÃŃsica mente
Ġnutri cional
Ġdiv or
Ġdivi dir
poner se
ĠdomÃ©s tico
Ġcria tura
Ġdesn uda
z zo
Ġde tuvo
ci f
Ġcom muni
Ġac tÃºan
Ġas ciende
Ġtran sex
Ġgo ta
Ġfor mular
Ġpos te
Ġing esta
rac ter
Ġlleva ban
Ġempe Ã±o
Ġingres a
Ġflu jos
Ġ197 7
Ġavi aciÃ³n
Ġsho p
Ġcompu taciÃ³n
Ġlavado ra
Ġinsu mos
Ġocta va
Ġmutu o
Ġmenta lidad
Ġenvas es
Ġingen io
ĠhÃºme do
Ġpremis a
ĠÃ¡rbi tro
Ġaje dre
" ).
= "
p ÃŃa
Ġs hu
Ġen dure
Ġy endo
Ġin muni
Ġre an
le jos
le tic
Ġsu dÃ¡frica
vi t
Ġca torce
des ta
Ġna va
Ġmar tillo
Ġve cina
Ġlu x
dar d
Ġyo gu
Ġ8 7
Ġelec tr
Ġconfi dencial
Ġconver sa
Ġofi cios
Ġmulti disciplin
Ġcompeti tivos
Ġimposi bilidad
Ġdescono cida
Ġmini mizar
Ġescon dido
Ġveri fica
Ġobser van
Ġtable ts
ĠmetÃ¡ lico
Ðµ Ð
Ġpelu querÃŃa
ĠdomÃ©s ticos
bul ario
Ġesclavi tud
a cion
i or
p ana
p tico
u y
ra dio
li bros
Ġpro vienen
Ġi remos
Ġ2 20
Ġtra il
Ġser ena
Ġmar te
Ġcons um
Ġpas cua
Ġu va
Ġcre ÃŃ
Ġhe pa
Ġeu car
Ġpos es
Ġrecor ridos
Ġcamin a
Ġcaus ados
Ġagu irre
Ġimpres a
Ġgratu itamente
Ġpul sar
Ġcerti ficada
Ġbre ves
Ġara bia
fu ente
Ġapare cido
Ġrequeri da
Ġbienven idos
far ma
Ġjud ÃŃo
ĠfarmacÃ©u tico
Ġpertin ente
Ġescul turas
a g
j on
l Ã³gica
r enta
es tre
Ġd Ã¡
ch aron
Ġlo gre
Ġlo terÃŃa
Ġma ci
Ġsin ga
Ġmar s
der se
Ġsa t
Ġfi jos
Ġri tuales
Ġsup rimir
Ġgo zar
Ġcal u
Ġhe teros
Ġtener lo
Ġali viar
Ġapoy ando
Ġconver tirÃ¡
tÃ¡n eas
Ġprecios os
og Ã©n
Ġcompeti ciones
Ġproduc tivos
Ġfen om
Ġconvir tiendo
Ġdistri tos
ĠcÃ¡r celes
Ġreve laciÃ³n
Ġeconom ista
Ġfia bilidad
Ġape laciÃ³n
Ġdesign ado
Ġign ora
Ġbille te
Ġadh esiÃ³n
crÃŃ bete
ĠdÃ©ci mo
Ġremun era
mujer es
Ġsing les
d ari
i bles
Ġc ese
Ġa za
Ġse ver
Ġsu ro
Ġme d
si ete
Ġso p
Ġpe ques
Ġmuch isi
Ġcal zada
Ġfu en
Ġindi caciÃ³n
bra sil
Ġele vaciÃ³n
Ġesti maciÃ³n
Ġeven tual
Ġagu ar
Ġbusca dores
Ġases inos
Ġrecomenda da
Ġmexi canas
Ġrecibir Ã¡s
Ġacces orio
Ġesca para
Ġencanta dor
wi ki
Ġingre diente
Ġocci dentales
ĠseÃ±ora s
Ġgobern ar
Ġlumin osidad
ĠreÃºn en
Ġconforma do
a tenciÃ³n
c ue
p ones
Ġde teri
in forme
Ġo ran
Ġca yeron
Ġan tÃ¡r
Ġco do
Ġna zar
xi t
Ġju gos
Ġfin as
Ġmin or
Ġmin imo
Ġnecesi tes
Ġind ones
Ġfoto grÃ¡fica
Ġpoli cia
bas es
Ġdecla rada
sal ud
Ġnorma tivo
Ġperten ecer
Ġobten iendo
Ġinspi rada
Ġimpe di
Ġadver tencia
Ġesque mas
Ġacostumb rado
Ġorgullos os
Ġconfec ciÃ³n
Ġestren Ã³
Ġcastell Ã³n
disfru ta
c res
Ġla ber
un t
to ras
Ġun der
Ġpa ge
Ġg rin
Ġto yota
Ġti l
Ġcar ras
Ġcor dÃ³n
Ġch rome
Ġba chiller
Ġab domen
Ġforma ciones
Ġk an
Ġcos tar
bo rando
Ġmayor ia
Ġhe bre
Ġele vados
Ġbi ts
Ġestar Ã©
Ġsol ÃŃa
Ġgas tro
Ġ[ +]
tÃŃ tulo
Ġinicia ciÃ³n
Ġgaranti zan
Ġseman ales
Ġclasi ficado
Ġmuer en
Ġconvoca torias
Ġexpe dientes
ani midad
Ġpele ar
Ġwal ter
Ġexpecta tiva
Ġwar s
Ġanali zando
Ġadju di
toda vÃŃa
Ġpho to
Ġemis ora
Ġremun eraciÃ³n
Ġmuel le
j Ã¡n
m eral
de ber
Ġp j
Ġo ver
Ġdes gar
se lec
Ġan oni
Ġpres untamente
Ġimp era
Ġmar ea
vo y
ni cos
Ġro bado
lu encia
ÃŃs ta
Ġsan ciona
Ġfi bras
Ġcos mo
Ġcono zcan
Ġbo tÃ¡n
Ġpermi ti
Ġrela x
ĠseÃ± orita
Ġpala cios
Ġbal let
Ġpob la
Ġimpres os
âĢĶ .
Ġdeco rado
Ġextre me
Ġand ando
Ġconcen trado
Ġpreocupa do
pol ÃŃ
Ġderro tar
Ġorganiza dor
Ġorg Ã¡nico
Ġmoni tori
199 2
Ã¨ s
Ġsemin arios
Ġaguan tar
peri dad
Ġvoca bulario
argen tina
Ġde cente
Ġa tes
an ton
Ġno ciÃ³n
us iones
Ġd un
va ya
con du
Ġli ving
Ġpres o
Ġimp o
Ġcons te
Ġfun dÃ³
Ġop osiciones
Ġcos ech
ll ones
Ġeu r
bra l
Ġrecor dando
Ġtendr Ã©
Ġdesta cada
Ġargen tinas
Ġdetal lÃ³
Ġje ho
Ġimpres oras
Ġincre menta
Ġprovo can
Ġvalora do
Ġanal ÃŃtica
Ġsepara da
Ġfarma cias
ĠautÃ©n ticos
Ġhues ca
Ġcomplemen tarias
Ġautomo triz
Ġjubi lados
Ġsecues tro
Ġantro p
ĠðŁĺ ī
word s
( +
a ga
s co
Ġde bida
an ia
Ġes caso
ti dor
Ġin er
tal ler
Ġli vi
cos as
Ġmo is
Ġson ia
Ġpe cados
Ġw ol
Ġsal inas
Ġdu do
Ġcen trar
Ġimpor taciones
Ġini ciaron
Ġapar tados
Ġestar ÃŃan
Ġcontro lada
Ġesc Ã©n
ĠmÃŃ tico
ke ting
Ġdetermin Ã³
Ġdefini dos
Ġexplo tar
Ġvio leta
Ġrefi eren
Ġisla m
Ġadelan tar
Ġadver sos
Ġenamo ra
Ġcilin dros
Ġmotocicle ta
Ġdesagra dable
Ġalte rar
Ġsego via
Ġatle tismo
c na
g la
h ion
Ã ¯
Ġ !!
de be
Ġde can
Ġde ni
Ġs tyle
Ġm t
Ġm Ã©ndez
in vesti
to ma
Ġcon tÃ¡c
la tina
Ġal tar
Ġ( Â¿
el u
si tu
Ġco e
pe a
Ġcor ba
Ġmis s
Ġsan as
Ġsup uso
Ġbar cel
Ġinsta la
ju lio
Ġenfer mera
Ġreco gido
Ġcuen ten
Ġejerci tar
Ġproba bilidades
Ġarti cular
Ġtru jillo
Ġdev oluciones
Ġdura bilidad
Ġgastron Ã³mico
Ġorg Ã¡nicos
Ġbea triz
Ġindis cu
Ġbrasile Ã±a
Ġmerce d
Ġsupe rando
Ġdesn udo
Ġm x
Ġo ye
Ġin her
us se
Ġj r
Ġle Ã±a
Ġco u
ver sal
Ġtu bos
Ġcons uelo
Ġcons olas
Ġins ur
Ġfin alizaciÃ³n
Ġpi cos
Ġk al
bo la
Ġcal la
Ġz or
mu cho
Ġemb al
fe i
Ġrecono cidas
Ġrecom pen
Ġdejar se
Ġtomar Ã¡
Ġpal eta
Ġhon ora
san ta
col om
Ġparticipar Ã¡n
Ġaprovech Ã³
Ġdesemp le
Ġcarga dor
Ġenfo cado
Ġdescri to
Ġmone tario
Ġpedir le
Ġascen dente
Ġimplica dos
Ġdivi dido
ĠtrÃ¡ iler
ĠtÃŃpi cas
Ġcuri osa
Ġcafe terÃŃa
ĠÃŃ bamos
Ġfia ble
Ġhen ry
Ġdemasia dos
Ġfores tales
Ġdistribui dor
Ġreembol so
Ġmagdal ena
: :
b ala
o c
s om
Ġ Î
es io
re v
Ġse i
Ġal mi
mi g
Ġch eck
Ġpu reza
Ġven cimiento
Ġutili dades
for midad
Ġpos grado
Ġorgani zan
mon iales
Ġhistoria dor
Ġori gina
Ġasegu ro
Ġbal anza
Ġcaracter ÃŃstico
Ġidenti ficados
Ġvar ÃŃan
Ġasigna turas
Ġplu ral
Ġapare cieron
Ġsencil lez
Ġzu mo
Ġsosten ido
Ġangus ti
Ġrid ÃŃculo
Ġderoga toria
b oni
p unto
s m
Ñ ĭ
ue ve
ar ch
Ġn on
di oso
li ce
Ġi ran
ĠmÃ¡s cara
ru lina
Ġli gas
lu la
Ġop cional
Ġles ion
Ġsalu dar
Ġcaus Ã³
Ġfre el
gh ts
Ġopin ar
ji lla
Ġge omÃ©
pri mera
Ġporno grafÃŃa
Ġeco logÃŃa
Ġsemej antes
Ġfelici taciones
Ġinto le
ĠidÃ³n eo
ĠcosmÃ© ticos
c tividad
d Ã¡n
f lores
ta in
to tal
Ġn eb
ca ras
Ã© mon
mi zaciÃ³n
Ġas socia
Ġcomp rando
Ġcan tando
Ġad ven
Ġven ÃŃan
Ġtrans ferencias
Ġcamp ing
pen siones
Ġmal ware
Ġinclu ya
Ġaten ta
Ġesti mula
Ġcompar ti
pas o
Ġsur tido
Ġarte fa
Ġpoten cias
Ġdefen sas
Ġciru jano
Ġaeropuer tos
ĠcatÃ³ lico
Ġjoy a
Ġlogo tipo
and Ã©s
Ġrecip iente
a caso
o bs
ã Ĥ
Ġs pan
es es
Ġt l
ca ja
is t
lo cu
Ġme ramente
Ġi es
Ġso dio
Ġta y
Ġser Ã¡s
Ġcomp res
ven tar
Ġcar os
tica mente
Ġw ay
Ġsan os
Ġri ge
Ġmin orÃŃa
ĠcÃ³ mp
Ġja c
Ġja bÃ³n
Ġinten taba
Ġara u
Ġcomba tes
Ġitali anos
Ġvincu lada
Ġincen tivos
Ġgimnas ia
estu dio
Ġapel lidos
blan co
Ġalfom bra
Ġpv c
Ġm ori
Ġo brera
fi cantes
Ġma jes
Ġpar ciales
Ġmi d
man ga
Ġcas arse
Ġimp lÃŃ
Ġsa bio
Ġgra ti
ban as
Ġhe mo
Ġpos ter
Ġmal la
Ġali vio
Ġante pas
Ġaten tados
Ġpresenta ba
Ġconstru yÃ³
chi le
Ġguar dan
Ġfacili tan
Ġsegui remos
Ġcontribu ciones
Ġreti rado
ĠpodÃŃa mos
Ġromp iÃ³
Ġhier ba
Ġjer sey
Ġprivile gios
Ġexces os
ĠmÃ¡r mol
Ġparlamen tarios
Ġola vide
Ġtai landia
Ġjardin erÃŃa
Ã² n
Ġtransfer ir
hidra tos
Ġhua wei
ĠvÃ¡lv ula
Ġcordi llera
Ġcoun try
Ġbail ando
f Ã¡
Ġ !!!
Ġa k
Ġa fa
in ing
te mos
Ġf ly
ri das
Ġg asta
Ġsu dor
Ġdi rÃ©
Ġpo zos
Ġpo int
car d
mb e
ve do
fer os
Ġexp lor
pon a
Ġab ru
Ġsan dra
Ġcan ela
bu lo
Ġdef ra
Ġdepor tista
Ġacep tando
Ġinver sa
Ġol ores
Ġsignifica tivas
Ġdeli cias
Ġcel este
Ġdesarrolla das
ĠcomÃºn mente
Ġlon g
Ġconce de
Ġobten ida
wa tch
Ġlevan tamiento
Ġinspi ra
Ġdescono cimiento
Ġvali osa
Ġintercambi ar
Ġcompara do
categor ÃŃa
Ġinespera do
ĠquirÃºr gica
Ġpedia trÃŃa
Ġpato logÃŃas
Ġlou is
Ġsatisfactor ia
Ġolimp ia
Ġprision eros
Ġvina gre
h el
j ana
o jo
u ma
Ġde i
in vi
Ġt rÃŃ
Ġo pa
li ciÃ³n
Ġpara gua
Ġuna m
bi llas
Ġar sen
der ÃŃas
Ġu k
Ġro bles
Ġad her
cip es
Ġgo ur
Ġval er
Ġcal l
Ġga mes
Ġacu diÃ³
Ġru bro
hi p
Ġreal ismo
Ġdirec tas
Ġlin ares
Ã£ o
Ġcomien ce
Ġafir mado
Ġquedar Ã¡n
Ġampli tud
ciente mente
Ġpros peridad
Ġrei terÃ³
Ġreser vado
Ġproducir se
Ġwal l
ĠfantÃ¡s ticos
dere cho
Ġstor y
Ġwillia ms
ĠclÃ¡us ulas
l Ã©n
Ġl ord
es pec
on do
do wn
Ġn ero
Ġb ena
Ġg et
Ġpor t
vi embre
se le
Ġma gna
les s
Ġmo vil
Ġmar es
Ġor lando
Ġro do
Ġro bos
Ġfor males
vis to
Ġactu ando
Ġce jas
ĠcÃ³mo damente
Ġtermin aciÃ³n
Ġfra cciÃ³n
Ġbor rador
Ġextre mas
âĢĵ âĢĵ
Ġexperi menta
tÃ¡s tro
Ġadver tir
Ġperci be
Ġimpli caciÃ³n
âĢ¦âĢ¦ âĢ¦âĢ¦
Ġpedag Ã³gico
Ġplen i
Ġcombin an
ĠlÃ¡mpa ras
Ġpiz za
Ġprovi dencia
Ġaclar Ã³
Ġath letic
Ġs d
Ġre estructura
Ġno ci
Ġca po
Ġdes ti
se mos
du ro
tan as
Ġpre co
Ġna cho
Ġfa cti
Ġcar dia
Ġus adas
Ġr t
be x
Ġra cismo
Ġsegu idos
Ġsan ti
Ġmer cu
ck ing
Ġexper ta
Ġref uerzo
Ġhabi tan
ex tra
Ġpun tual
Ġrev olu
Ġponer lo
Ġesco gido
Ġpal e
Ġmue ven
Ġocupa cional
Ġreuni eron
Ġconsigu ieron
Ġdefin ida
Ġopti mismo
Ġviven cias
Ġdetec tado
Ġib Ã©rica
Ġenamo rar
produ ctos
Ġdina marca
Ġinsis tiÃ³
Ġconfun dir
Ġcamb ridge
ĠdÃº o
Ġblock chain
Ġpeu geot
. ;
u dar
de ci
Ġf mi
tra jes
ga te
Ġvi l
Ġvi ves
Ġres on
Ġdo taciÃ³n
Ġsan g
Ġsen deros
Ġcol ina
âĢ¦ ..
Ġval para
ion al
Ġindi cados
Ġpes cados
Ġpermi tÃŃa
Ġtri Ã¡n
Ġsolici tante
Ġponer me
Ġpropor ciones
Ġusar se
bor Ã³
Ġconfigu ra
Ġraz on
Ġalterna tivos
Ġexperi mentos
Ġara gones
Ġreprodu ctor
Ġequili brada
Ġtelef ono
Ġempi ece
Ġline al
Ġpene traciÃ³n
Ġdiferen cial
Ġencen der
Ġgla ciar
Ġsupe ran
Ġtranscur rido
ĠintÃ©rpre tes
Ġinvestigado ra
Ġburbu ja
e mo
u gh
in dica
Ġv on
om al
ma Ã±ana
Ġper se
ba c
ĠâĢ º
Ġpas illo
Ġver dades
cen tenario
ren a
Ġcan cer
ge o
Ġreci bidas
ĠcÃ³ c
Ġpon ti
Ġacu mular
quÃŃ mica
pro pi
rea d
Ġapoy an
Ġsur gido
Ġcolor ido
Ġejecu ta
Ġlin das
Ġregu lares
Ġplante Ã³
Ġcomi cs
Ġmira ba
Ġalu cin
Ġempa tÃŃa
Ġhumani taria
Ġadri Ã¡n
Ġaval an
Ġcontamin antes
Ġsovi Ã©tica
Ġladr ones
Ġcardiovas cular
ĠlÃ¡pi z
Ġcolle ge
ĠcÃ©spe d
Ġhacina miento
b ero
e mail
f rente
Ġe pub
ar is
da vid
Ġre cesiÃ³n
Ġan estes
Ġpar ecÃŃan
Ġvi Ã±
ĠâĢ ĭ
gra mos
Ġve cinas
Ġver los
osi dades
Ġdu arte
pu lo
Ġgenera da
il le
Ġtrav esÃŃa
tina mente
Ġdistin gue
Ġsolici tados
Ġloc alizado
Ġdetermin ante
Ġproces iÃ³n
Ġpropor cionado
Ġhon g
Ġat las
ĠenseÃ± Ã³
Ġcome tidos
Ġverda deras
Ġsuce diendo
Ġdesi gnaciÃ³n
Ġaplicar se
Ġxi ii
Ġvigi lar
Ġalejan dra
Ġrecomien dan
Ġimpar tir
Ġpade cer
Ġsuda mÃ©rica
Ġeter nidad
gÃ©n ero
Ġdiplom ado
ĠfotÃ³ grafos
ĠcÃº pula
Ġmix ta
Ġcepi llo
Ġperfu me
> >
a ch
a me
f Ã©rica
Ġ osi
un e
Ġes quinas
Ġse cas
ri es
Ġdi ar
Ġno bles
Ġper didas
fi lo
Ġta bas
Ġres isten
Ġap rue
min ado
Ġsin cer
mb rado
Ġau da
Ġmedi cin
Ġmedi anas
Ġsa can
Ġdo g
Ġinc omo
Ġcan asta
Ġfi jado
Ġmas cari
Ġja va
Ġbi os
ĠmÃ¡ gicos
Ġestable zca
Ġembar caciones
cin go
Ġur ss
Ġcru za
Ġado raciÃ³n
Ġer gon
Ġdepen der
Ġevalu aciones
Ġmulti plica
Ġpreten dÃŃa
Ġmira dor
Ġagrade cido
Ġflu ido
ĠquerÃŃa mos
Ã©ndo me
Ġagres iones
Ġmetodo logÃŃas
Ġecol Ã³gicos
Ġperi fÃ©
Ġcerve zas
Ġreempla zo
Ġabur rido
Ġjajaja ja
Ġrepeti ciÃ³n
Ġhem is
Ġvillan ueva
Ġconmemo raciÃ³n
Ġrefrigera ciÃ³n
Ġauri culares
Ġnorue ga
Ġsuro este
d c
Ġa dr
ro ra
Ġin can
Ġmu ra
Ġma za
Ġap eri
Ġar enas
Ġna tivos
âĢĿ ),
Ġr Ã³
Ġhom ogÃ©n
Ġconten cioso
Ġvia jan
Ġsuper hÃ©ro
Ġdisfru ten
Ġgi ras
Ġaf gan
Ġtur nos
Ġhaya mos
Ġregu lador
Ġhor tali
Ġpul ver
Ġemi tiÃ³
ameri canas
Ġlograr lo
ĠÃ³r bita
Ġestatu s
Ġmostra rÃ¡
Ġpesca dores
Ġsindi cales
Ġtrascen dencia
inclu yendo
acep tar
Ġava tar
Ġneoli beral
ta mpoco
Ġla ure
Ġt Ã¡
Ġpa pi
Ġdi visiones
ch Ã©
Ġest res
ver tido
Ġu tensi
Ġya cimiento
Ġba mb
Ġra ras
Ġri vas
cto ras
Ġcol lar
ada p
Ġacu dieron
Ġencon trando
Ġali en
Ġtor pe
Ġauto ma
Ġconver sar
Ġafi an
Ġconven ciones
-- -
Ġlen in
Ġadap te
Ġviol ento
Ġenci clo
Ġuniver sos
Ġobten ga
wit ch
Ġber na
Ġ196 9
Ġcaracteri zado
Ġatribu ye
Ġimpli can
orden ar
Ġocta vos
Ġinser tar
Ġrebel des
Ġdegus tar
Ġwat ch
Ġasequi ble
Ġsinga pur
? ...
i gu
i mas
Ġe val
Ġs n
li zados
lo c
co le
Ġlo w
ru m
sa t
Ġpres cin
Ġver b
Ġcan tantes
Ġservi ce
Ġcol u
Ġdesarro llos
Ġacu sados
Ġmer ecido
Ġvo la
Ġjor dan
Ġencan tarÃŃa
gon z
Ġbuscar Ã¡
Ġdemos trando
Ġth er
Ġtradu cido
Ġregres Ã³
Ġchar lie
Ġtransforma do
Ġrespec tivo
Ġ197 9
Ġinaugu rado
Ġdedica mos
Ġagrupa ciones
Ġincom pa
Ġadju dicaciÃ³n
Ġpsic Ã³logo
Ġoposi tores
Ġamis toso
hot mail
Ġchimen ea
ĠmaÃ± anas
g ger
l ones
o a
ã ĥ
de za
Ġp sÃŃ
ri cardo
Ã± al
Ġca tÃ¡stro
Ġsi mulaciÃ³n
gu ra
Ġso ber
Ġma i
Ġco bi
Ġco bar
Ġins iste
Ġro om
Ġpi dieron
Ġfi jas
Ġfun dadores
Ġva ra
Ġespe jos
Ġdeci da
bo le
Ġfor mula
Ġart ÃŃsticos
lado ras
Ġtermin aron
Ġrecono cimientos
Ġem erg
Ġconsidera das
Ġbal as
Ġcentra da
Ġconf ÃŃa
Ġgri egos
Ġmarke t
Ġenfo car
Ġsil via
Ġenorme mente
Ġzo om
Ġconser van
Ġanci ano
ĠsÃ©pti ma
Ġcontrar res
Ġsobren a
Ġcarbo hidratos
Ġjeho vÃ¡
c f
e cimiento
g y
Ġe ar
Ġn an
Ġt rin
Ġin hu
Ġdi ente
ma c
Ġpo dia
Ġcomp any
Ã©s ter
Ġr ene
Ġra dios
Ġvisi on
ur ce
Ġrecor da
Ġcuan tÃŃa
Ġcru ces
Ġeli giÃ³
Ġamp lÃŃa
Ġayudar nos
Ġabier tamente
Ġros tros
Ġselec cionada
rer ÃŃas
Ġmala ga
Ġmicro organismos
Ġdispu tado
Ġdescen tra
Ġvel ar
Ġed gar
Ġinscri tos
Ġasesora r
Ġredon de
camp o
Ġrapi do
Ġinfla ma
Ġbb c
Ġbendi ciones
Ġhormon as
Ġarzobis po
Ġphotos hop
ĠpÃ³n gase
Ġrebeli Ã³n
Ġajedre z
f ini
Ġj ona
mi les
Ġta uro
tar ra
ve da
Ġver sÃ¡til
Ġch ur
Ġlu bri
Ġro dar
com i
Ġcol on
Ġcol pensiones
Ġhe gem
esta ba
Ġmal eta
he im
gor ÃŃ
Ġenvi ando
Ġfre d
ĠtÃ©r mico
Ġincre ible
Ġcel da
Ġilus iones
Ġmatri monios
Ġbro ok
Ġsuje ciÃ³n
Ġflo or
ĠcÃ¡r denas
ĠmetÃ¡ f
Ġreper cusiÃ³n
Ġmagistra dos
Ġcai ga
ĠmÃºs culo
Ġprestigi oso
Ġdri ve
may or
Ġbiblio grafÃŃa
Ġhim no
Ġlien zo
Ġesplen dor
c Ã©is
f lor
Ġc los
Ġc lor
es tar
re ll
Ġt la
Ġin cul
Ġpro visiÃ³n
Ġcu ch
Ġper cep
Ġsi ri
Ġdes h
pa dos
Ġan ular
Ġcons ciencia
ve a
Ġw ii
Ġbu ques
Ġven diendo
Ġven imos
cor pora
Ġho g
Ġrecor riendo
Ġautori zada
Ġdescu brÃŃ
200 1
Ġperman ecen
Ġplante les
ameri ca
Ġvio la
Ġom ni
Ġaspi rante
Ġtribu to
Ġafirma ciones
Ġacele raciÃ³n
Ġtremen da
Ġmejo ran
def ini
Ġinstan tÃ¡nea
Ġguion ista
Ġmatan za
Ġinscribir se
Ġrequi eran
ingeni erÃŃa
ĠpsÃŃ qui
) ...
- >
g ome
p ing
Ġ ~
Ġp ando
Ġa vel
to les
Ġun animidad
Ġse quÃŃa
is s
Ġsu mando
Ġper las
mos o
tr ina
Ġma gaz
Ġpo Ã©tica
Ġinter valos
Ġpas iones
Ġins om
Ġra mo
Ġcal vo
fa gasta
Ġaten dido
Ġdisfru tes
Ġdisfru tamos
Ġpremi er
Ġluis a
Ġajus tado
Ġdesarrollar se
Ġadul ta
Ġsh an
Ġsocio econ
Ġenfrenta mientos
wi ch
Ġcontes ta
Ġblack berry
Ġfirme za
Ġwa ter
gues as
ĠmetÃ¡ licos
Ġmodera do
Ġcoca ÃŃna
Ġdelica da
Ġproxi midad
Ġredac tado
presenta ciÃ³n
Ġmanzan as
Ġpreocupar se
Ġpuls era
Ġdre am
ĠmicrÃ³ fono
Ġgregor io
Ġsinalo a
Ġhidrocarbu ros
Ġ ÃŃdo
Ġa a
di mir
Ġpa ja
Ġal z
tos os
Ġlo tes
tiv es
Ġte leno
Ġser ias
des te
Ġas h
me dios
Ġten taciÃ³n
Ġmar quÃ©s
Ġpas ivo
tri a
Ġri gen
Ġele f
Ġobje tiva
Ġcua dri
Ġvia bilidad
Ġis bn
Ġpel os
vin os
Ġsoci e
Ġnu blado
Ġ24 0
ka i
Ġnove doso
Ġhon dure
Ġquedar ÃŃa
Ġadmi rar
Ġexis tÃŃan
Ġalar mas
Ġjohn son
Ã¨ n
Ġlig eros
Ġdesespera ciÃ³n
Ġmanio bras
ĠtÃºn el
Ġpreli minar
Ġnis san
( ...)
x eles
ta u
Ġes por
Ġf eri
Ġpa yas
ma dre
Ġj as
si vas
Ġac ento
Ġcomp rÃ³
Ġcor eo
Ġcor ral
Ġr r
Ġsal gan
Ġpu b
Ġesp in
Ġayu dante
Ġpeque Ã±
Ġsub ord
Ġpin terest
tÃŃ tulos
Ġenvi ada
Ã¡ndo las
parta mento
Ġben Ã©
Ġnorma tivas
Ġjugar Ã¡
ĠrÃ© plica
Ġ197 2
Ġmaravillos os
Ġplas ma
Ġpade ce
Ġcortes ÃŃa
inten a
Ġlegi Ã³n
econ omÃŃa
Ġrebel de
Ġmolesti a
Ġgole ador
Ġgalard Ã³n
Ġgros or
9 00
o lo
Ġl c
Ġsu cre
Ġdi ur
cion arios
vi ra
Ġca jÃ³n
si co
Ġpo dio
Ġmi ran
Ġres or
Ġres ort
gi c
ru ta
Ġli tro
no viembre
Ġexp uestas
Ġmis iles
Ġsal pi
Ġpi cado
Ġinc lin
cri tos
Ġmin eros
Ġcaus ando
Ġobli gar
Ġreco lec
Ġnota bles
ĠhÃ¡bi tat
pue den
Ã©ndo te
Ġdispu tar
ĠbritÃ¡n icos
Ġconvo car
Ġevan gÃ©
Ġtable ta
Ġpade cen
Ġline as
Ġcarcel aria
Ġasign ar
Ġconsa gra
Ġpse udo
r entes
v iente
di ado
Ġf rÃ¡
Ġv iste
Ġb ull
Ġpro mul
Ġme ti
Ġi pod
Ġlo cu
Ġma tÃŃas
Ġap ari
Ġco in
con ec
Ġve is
Ġsa cando
Ġins os
Ġpi edad
Ãºn ete
Ġsen sual
jar on
Ġfu ma
Ġnor th
mon te
Ġfav orables
ĠcompaÃ± eras
Ġmor talidad
Ġpoli tica
Ġacer can
Ġ17 0
Ġagu jas
Ġpropor cional
Ġviol entos
Ġexa minar
Ġsalva guar
Ġka izen
Ġfle cha
Ġconclu ido
Ġdesempe Ã±ar
Ġcho fer
Ġapun tar
Ġprefi eres
Ġfren os
Ġarreg los
Ġvulnera ble
ĠaÃ© reas
Ġarque ologÃŃa
Ġarticu laciones
ĠnÃºcle os
Ġsam uel
Ġgener osidad
Ġcontradi ctor
ĠestÃŃ mulo
Ġbun des
ĠanÃ©cdo tas
Ġtern ura
f ren
i b
j s
Ġp irÃ¡
Ġt hat
ca racter
Ġg t
Ġan der
Ġvi vas
Ġte jado
Ġcomp lu
Ġcomp resiÃ³n
Ġor todo
Ġpas illos
Ġch el
Ġlu la
Ġsal mÃ³n
Ġcen so
Ġz ana
tivi dades
Ġcli p
Ġdar emos
Ġtri at
Ġ11 2
Ġencontra dos
Ġencan tadora
Ġllega ra
Ġdemos tra
Ġaproxi mado
Ġinflu ye
Ġcapi tan
Ġsalva jes
pri mer
Ġasis tido
Ġocul tos
Ġ196 6
Ġpeda zo
Ġino cencia
Ġdesay un
inter pre
vol ta
Ġparlamen taria
Ġconcentra ciones
Ġatraves ar
Ġdefien den
Ġdisp uso
ĠcÃŃvi co
Ġcuchi llo
Ġsci ento
ĠcatedrÃ¡ tico
Ġcoyun tura
Ġporce lana
. *
d Ã©s
g ÃŃas
k k
re almente
Ġel isa
al u
di Ã©ndose
ec emos
Ġca brera
ce dente
fi quen
mo der
Ġma quinas
Ġan tÃ³n
Ġpar ra
Ġpr d
Ġtu mores
Ġw as
Ġtan ques
Ġhora cio
Ġpon encia
Ġpare ciera
ju ana
Ġnu do
Ġadecu aciÃ³n
Ġplante an
visi on
Ġaspi raciÃ³n
Ġaspi raciones
Ġcro a
Ġsuave mente
Ġhisp ana
Ġtremen do
Ġfrus traciÃ³n
Ġtraga monedas
impor tante
er Ã³
Ġse pas
Ġg oya
Ġal le
Ġd t
Ġso cia
go b
enta do
Ġmo jado
Ġro ji
Ġcan tera
eri oridad
Ġdeci sivo
Ġfe ed
Ġvol vÃŃ
Ġ15 00
Ġcomen zaba
Ġinvi tan
Ġmarca dos
Ġcali ficÃ³
Ġhor ne
18 9
Ġmanifes tar
bus ca
Ġenrique ce
ĠestratÃ© gicas
Ġasesina dos
Ġdesapare ciÃ³
Ġasom bros
Ġbb va
Ġmadrile Ã±a
bienven idos
Ġentreten ido
Ġtesor os
Ġcontroversi a
Ġtarra gona
Ġheteros ex
ĠpirÃ¡ mi
? -
f l
n n
¸ ı
Ġe z
Ġde tiene
Ġp li
Ġs tal
or s
Ã¡ micas
Ġse ti
Ġin jer
Ġb ue
cion ismo
bi cos
Ġdes er
Ġvi ral
min i
Ġmar tÃŃ
Ġmar chas
Ġbu da
ros as
Ġk y
Ġtoda via
Ġedi l
Ġescri ben
Ġvisi ones
Ġconta gi
Ġx ia
len cias
bar ra
Ġcri anza
cipa ciÃ³n
Ġsaber lo
lin es
Ġcel das
Ġesf eras
Ġgri pe
Ġcorpora ciones
Ġadqui riÃ³
Ġreuni do
Ġproduc tivas
Ġconserva dor
Ġimper fec
Ġaspi ra
Ġreac cionar
Ġton to
Ġsusten tabilidad
Ġrena cimiento
Ġtoal la
avis o
p ros
v olver
do m
Ġes cur
Ġin quisi
Ġdel l
ec erÃŃa
vi al
ol s
Ġesta bles
Ġta par
tr Ã¡ndose
tan y
Ġar cos
Ġfa bulos
ve t
Ġsen su
Ġrep oso
ĠÃ© tico
tis h
Ġcomuni tarios
Ġga ys
Ġtrata mos
jes Ãºs
Ġinten sos
Ġtemp los
Ġpare cida
Ġjo der
Ġsuper ficial
Ġrecono zco
Ġconsidera ba
Ġguer ri
Ġdese ada
Ġcora zon
Ġjoven es
mÃ¡n dose
Ġmari e
Ġpreten siones
Ġrevis a
pp y
Ġsor teos
Ġflor encia
Ġactiv istas
Ġbreve dad
Ġste ve
Ġconvo cÃ³
Ġapo calipsis
Ġremi tir
Ġinjus to
Ġmutu a
Ġsatisf echos
ĠlÃ¡s tima
Ġglu cosa
Ġbarran quilla
Ġpira tas
Ġmotiv ado
Ġtoal las
Ġduran go
Ġalmo ha
Ġbarbaco a
Ġyuca tÃ¡n
Ġmois Ã©s
Ġarsen al
Ġhog warts
j illas
s ala
ï ¸ı
de co
Ġs pin
Ġcon formaciÃ³n
Ã© taro
Ġdi mos
Ġesta dÃŃa
Ġma qui
Ġan Ã¡
Ġpo de
pe lo
Ġna dar
Ġcar gada
Ġk on
Ġespe cias
Ġacu de
Ġpubli can
fa to
Ġefec tivas
Ġprote gidas
Ġgan aron
Ġgas ol
Ġpregun tan
Ġur gentes
Ġcompro baciÃ³n
Ġcru j
Ġproyec ta
Ġcine asta
Ġpreven tivo
Ġgri tar
Ġpod cast
Ġpier re
Ġentrar on
Ġdele i
din Ã¡mica
ĠprÃ³xima mente
Ġrefu gi
Ġsta ff
Ġapos tÃ³
we et
Ġeconom istas
Ġhiper tensiÃ³n
Ġjapones es
sec re
Ġore ja
Ġpl omo
Ġprivilegi ada
Ġladri llo
ĠislÃ¡ mico
Ġpatrul la
Ġl ina
Ġl isa
en d
en glish
Ġm ona
da tos
Ġin tro
Ã© ricos
men tados
Ġdes hidra
ran t
ran as
gu ala
Ġfa bi
Ġpi cas
Ġra p
Ġcer radas
Ġqui ebra
Ġindi ferente
Ġedi tion
Ġsocial mente
dis te
erra t
Ġconsul tores
Ġdetermin an
Ġbri gada
Ġconsecu ciÃ³n
Ġgaranti zado
Ġinterpre tado
Ġrecha zÃ³
Ġâ ĸ
Ġsocio logÃŃa
Ġeco log
ĠcontemporÃ¡n eos
ĠÐ ¿
Ġproven iente
ĠmediterrÃ¡n ea
Ġpales tina
Ġpales tinos
Ġcomplu tense
g rano
Ġp ec
ti e
ti me
Ġin us
Ġal usiÃ³n
Ġdes vel
ba y
si mple
Ġvi c
pe dro
con ven
ĠÂ ´
be o
Ġdu reza
Ġesp lÃ©n
Ġva cÃŃa
Ġva queros
Ġreg ÃŃs
cre en
Ġz ur
Ġacu ario
Ġinte l
Ġcul tiv
Ġfal si
Ġapli que
Ġcha pa
Ġafec taciÃ³n
Ġconsegu imos
Ġagu ja
Ġguar dias
Ġregu lan
Ġhon gos
ĠacompaÃ± antes
ĠÃŃn timo
Ġaplicar Ã¡
Ġhol andÃ©s
Ġimagin ario
Ġmostra ba
Ġtemporal mente
espe cial
Ġtable tas
Ġasumi Ã³
Ġindu dable
Ġgir ona
Ġbill ones
fran cis
Ġfeste jos
Ġpedi Ã¡
Ġpea ton
Ġconv ul
Ġsubsecre tario
Ġreporta jes
Ġproli fera
ĠmandÃŃ bula
Ġepisco pal
es as
Ġen ta
li ma
Ġpor sche
lo ok
bi co
Ġ2 10
pa c
Ġac ar
Ġci tados
car ta
Ġpres untos
Ġve gan
Ġni ght
Ġju ana
Ġmuch ÃŃsimos
Ġro m
dr Ã©
Ġforma dos
Ġencon tre
mon i
ĠÂ¡ Â¡Â¡
fun da
Ġterri toriales
Ġorien tadas
Ġpele as
Ġflexi bles
Ġobser vÃ³
Ġauxi lio
Ġtour s
Ġinsu ficiente
ĠmetÃ¡ lica
Ġgir os
Ġcaba Ã±as
Ġintes tinal
Ġmultina cional
n Ã³
te te
Ġel che
ma gn
ga ta
ga dores
Ġco ol
Ġpri me
Ġni ebla
Ġcor tado
Ġch iste
lu x
Ġgen iales
Ġsup l
vis tas
Ġqui l
Ġanti concep
Ġpala dar
Ġjo e
Ġapren dÃŃ
Ġdescu bren
biÃ³ ticos
Ġexten siones
Ġorien tados
Ġinci dencias
Ġbos ch
Ġom i
Ġprohi bir
Ġcomun istas
Ġcontac te
Ġsusten to
Ġape tito
Ġmagistra do
encuen tro
Ġegres ados
obje tivo
Ãºlti ma
e gas
s ue
z Ã¡ndose
Ġc p
Ġen co
que da
li fe
tu osos
Ġto mÃ©
mi tir
Ġma chos
tiv al
Ġna talia
Ġpas toral
Ġ3 000
Ġins tantes
Ġro bin
lu z
Ġinc l
Ġgen es
Ġk ong
cha t
Ġacu den
Ġinv ali
Ġfr ÃŃas
Ġinteres an
fe liz
fo bia
Ġrecor te
Ġur nas
Ġpoli Ã©ster
Ġdiri gen
Ġbri tt
Ã¼ r
Ġaus ente
Ġincorpora dos
Ġcau ca
Ġsensi bilizaciÃ³n
Ġfri gorÃŃ
Ġresal ta
Ġverti cales
Ġincom ple
ĠcÃŃr culos
amb iente
Ġspi der
Ġpesa dilla
Ġdevo ciÃ³n
depor tivo
dibu jos
ĠprohÃŃ be
) )
a pli
b om
b ones
g ine
v ali
de as
Ġc enta
Ġla menta
Ġse car
Ġal in
Ġno u
cu ba
Ġcu bren
mi dos
tr Ã¡n
Ġtra za
qui pa
ente cos
Ġar renda
cos ur
lan ds
Ġinter cep
Ġfa ra
Ġpas to
Ġsobre car
Ġcor dones
Ġw om
Ġpi Ã±a
Ġdeci dida
ĠÃ© ramos
Ġga u
Ġpon dremos
dan zas
Ġexpres an
Ġgar ra
Ġadi cciÃ³n
au tori
Ġrespe ta
Ġmucha chos
Ġconfor table
Ġadap tada
Ġdistribu ye
book s
ĠdifÃŃcil mente
Ġrespec tiva
Ġexis tido
Ġfom en
trans par
Ġges tores
Ġdiscri mina
Ġnavi dades
Ġguia da
Ġprede termin
Ġmisteri osa
Ġanto fagasta
Ġrun ning
Ġcurr ÃŃcu
Ġpanor Ã¡mica
Ġpreocup ante
Ġrefun dido
Ġinesta bilidad
Ġrodo lfo
" ...
i le
o fer
w is
Ġe re
Ġs ismo
ci sa
ta tivos
Ġla w
in k
Ġin ca
ien to
ga ran
Ġma tÃ³
Ġob so
Ġmedi Ã¡tica
Ġdon a
Ġne to
Ġindi cios
pos t
he imer
tÃ© is
Ġasegu rando
Ġcru zado
Ġconse jera
Ġmol esto
Ġvari ante
Ġdedi carse
Ġmucha cha
Ã³li cos
Ġdele gaciones
Ġlegisla tivas
Ġenrique cer
Ġcomerci aliza
Ġinversi onistas
Ġlidera do
ĠcuÃ¡n tos
domin io
Ġsar miento
Ġenga Ã±o
Ġbac teri
Ġocasion ar
Ġgenerali zada
ĠtÃ¡c til
Ġpsic Ã³logos
comp ra
Ġsilves tre
ĠmolÃ© culas
Ġsolem ne
inno va
Ġdinosau rios
Ġinmej orable
Ġjour nal
a gua
i remos
v ÃŃn
ĺ ħ
Ġde ficiencias
Ġp Ã³s
en an
Ġla dy
Ġque hacer
Ġcon cha
la to
Ġpa tios
tu ve
Ġha m
Ġno tablemente
Ġme mora
Ġdes cripciones
Ġ2 30
mi tas
Ġso Ã±a
Ġti rado
Ġvi Ã±a
Ġvi Ã±e
Ġte jer
Ġac rÃŃ
Ġar bol
pe o
00 00
Ġpas as
Ġlu go
Ġlu chan
Ġgenera dos
Ġ19 36
Ġprofes iones
Ġgus ten
Ġescri bÃŃ
per ras
pro yec
Ġespera da
Ġrefer Ã©ndu
Ġqueda ban
Ġagu jeros
Ġalo jar
Ġgre y
Ġbos ton
Ġabandon Ã³
Ġ196 7
ĠcÃ© lula
Ġvaya mos
Ġconden ados
Ġrequeri dos
Ġcomplemen taria
Ġcoman dos
Ġincom pren
Ġhidra taciÃ³n
Ġcai xa
Ġrepubli canos
Ġvini lo
htt ps
Ġtecni co
Ġprecau ciones
Ġvelas co
Ġpreserva ciÃ³n
Ġresur recciÃ³n
Ġpir ine
Ġencua der
Ġincondi cional
Ġindones ia
Ġsincer idad
Ġhemis fer
g los
Ġ dadas
Ġp echos
Ġs m
Ġen uncia
Ġes quÃŃ
Ġse vil
ca jadas
is tÃŃa
Ġsu ciedad
Ġle gu
Ġar marios
Ġpre dica
Ġna cida
Ġmar cando
Ġinf rac
Ġdo tar
Ġpi car
Ġhi to
Ġk ei
ll s
Ġestu pi
Ġutili zo
ĠcÃ³ mico
Ġhe mbras
Ġmer e
Ġpermi tieron
Ġproble mÃ¡ticas
Ġx l
Ġpasa jero
ps ulas
Ġmil Ã¡n
Ġobli gÃ³
Ġpasar ÃŃa
Ġingres Ã³
Ġcali ficaciones
Ġdistribu idos
Ġ28 0
Ġinmedia ciones
Ġprome tido
Ġcontribu yentes
Ġvin cular
Ã³s copo
bus car
Ġahor ra
Ġbai la
Ã©ndo les
Ġrepar tir
Ġpreparar se
organ izaciÃ³n
Ġanticipa ciÃ³n
Ġdemasia das
Ġauten ticidad
ĠcaÃ± Ã³n
ĠdemÃ³cra tas
Ġcampeona tos
regla mento
Ġpleni tud
Ġhortali zas
Ġfloor ing
Ġbundes liga
y era
en tra
on to
ci bles
an un
cu lado
Ġdes esti
Ġti mo
Ġan ÃŃ
Ġsus ur
Ġpres tan
Ġro ger
tras te
Ġven as
ban k
Ġcal dera
bier to
Ġ10 1
Ġaten cion
Ġuniversi tarias
Ġabri eron
Ġlar gome
Ġtec las
ju y
Ġcap taciÃ³n
Ġcara col
Ġocur riendo
Ġcolo can
Ġrefle jado
mer s
Ġencar gar
Ġgaranti zando
trÃ³ geno
Ġconvi vir
rÃ¡n dose
ji mos
Ġconfigu raciones
Ġaus teridad
Ġocu p
Ġiniciar Ã¡
neces i
Ġgabri ela
Ġcucha radas
Ġremon ta
Ġcuader nos
Ġhomeo patÃŃa
c cional
f p
h d
h p
h y
r ro
t ton
Ñ Į
Ġen mien
Ġen comien
Ġes tero
ri son
Ġre den
Ġal lan
tra du
us as
ba ba
den ciales
con su
Ġcomp osiciones
Ġcas illas
Ã©s el
Ġcar ecen
Ġro w
Ġprim ario
Ġuni lateral
teri ales
Ġ19 30
Ġtri b
ori as
Ġbi centenario
Ġprote c
Ġinteres e
Ġcontro lador
Ġcr ÃŃa
Ġsom br
Ġrefer idos
Ġbal l
Ġocas iona
Ġquer Ã©taro
Ġcate gori
ĠseÃ±al ando
Ġresi dencias
Ġpropia mente
Ġocupa da
,, ,,
Ġdescri ben
Ġflor en
Ġisrael ÃŃ
Ġexces ivamente
Ġinjus ticia
Ġlagun as
Ġrena ult
Ġsometer se
Ġreclus iÃ³n
ĠapÃ³s toles
Ġinverna dero
f lo
p ÃŃ
ï ¼
Ġs lo
ci po
Ġla pso
te ando
Ġy er
la men
Ġo de
Ġsu mo
mp i
Ġca ter
ter es
pa ta
si les
Ġan omal
Ġte ologÃŃa
pe uta
po drÃŃa
Ġinter disciplin
Ġve lada
be t
lu ca
Ġdu al
Ġbu zÃ³n
Ġuni Ã³
com paÃ±
Ġva is
Ġposi tivamente
fa ctor
ciona mientos
Ġsol tera
Ġvo cales
Ġorden ada
ju gador
Ġredu cen
Ġproce derÃ¡
Ġfra y
Ġesco te
Ġidenti ficada
Ġcuales quiera
Ġtoma tes
Ġdescubri endo
Ġgui ar
Ġmanifes tantes
Ġtranqui los
minis terio
Ġtris tes
Ġacos ta
Ġdicta dor
Ġextraord inarios
Ġfemin istas
Ġinsi gni
Ġane mia
Ġove jas
Ġsqu are
Ġvalpara ÃŃso
Ġutensi lios
d ria
i ga
i gual
Ġa fer
Ġs ql
Ġf ÃŃ
Ġf ea
Ġo dia
Ġpa usa
res puesta
tiv ismo
Ġna ta
po p
Ġpas tores
Ġqu esos
Ġpe gado
tri ciÃ³n
lu gar
ren se
Ġespa ciales
Ġcen as
Ġ19 45
zado ra
Ġbus h
Ġir Ã©
Ġvo tantes
Ġllama tivo
Ġdese es
Ġpron os
Ġcomi c
Ġdra mÃ¡tico
Ġimposi bles
Ġ% .
Ġsil vio
Ġbru jas
Ġresu me
Ġdespe dir
Ġremo ta
Ġincen tivar
Ġadelan to
Ġextraord inarias
Ġtoca ba
Ġaro mas
Ġgras os
Ġcompi laciÃ³n
Ġespiritu alidad
Ġdefensor ÃŃa
Ġvete ranos
ĠasegÃº rate
Ġdiscapa ci
chaba mba
ĠhidrÃ³ geno
i ts
Ġen glo
Ġcon gel
qu ino
si gue
Ġac tÃº
Ġco ge
con tamos
Ġcar to
Ġch ir
Ġlu jÃ¡n
Ġab u
Ġra dial
Ġhacer los
tÃ³ logo
tori edad
Ġden tales
Ġini guala
Ġnom inal
Ġaca bamos
ex cep
Ġsur real
Ġcha tear
Ġalta voces
ĠelectrÃ³n icas
Ġejecu tado
Ġq a
Ġhas h
Ġdescubri mientos
Ġconce der
Ġbole to
Ġarque olÃ³gico
Ġretra tos
Ġinterac ciones
sec ciÃ³n
Ġdesgracia damente
Ġorto grafÃŃa
Ġglu ten
Ġbern ardo
Ġvacun as
Ġmanufa ctura
Ġmagaz ine
ĠreferÃ©ndu m
? :
v ro
Ġin vir
Ġre inte
Ġdel gada
Ġal ti
Ġpro ject
Ġper seguir
Ġi mb
ol las
Ġvi uda
du r
sa bemos
Ġimp arte
Ġimp iden
Ġver bo
Ġmis m
Ġbu ffe
cri ta
Ġcos tura
Ġmas sa
Ġutili cen
Ġvol vÃŃa
Ġinterna cionalizaciÃ³n
Ġsol es
Ġjo han
Ġobs esiÃ³n
Ġllegar Ã¡n
Ġtermin ada
Ġdiver tirse
Ġ11 5
Ġconse jeros
Ġescu cho
Ġencar gÃ³
Ġama bles
Ġolvi de
Ġaus pi
Ġvolun tariado
Ġana tomÃŃa
Ġasis tiÃ³
Ġcomprome ter
Ġconvir tieron
Ġdic tado
Ġcomerci alizar
Ġtribu tario
Ġefectu ado
Ġenamo rada
Ġinfini ta
ĠcuÃ¡n tas
ima gen
Ġmeter se
Ġexhi bi
Ġaler tas
Ġjose ph
liz ante
Ġhomosex ual
Ġvete rano
Ġrecau dar
ĠestÃŃ mulos
Ġnoven a
Ġcelesti al
Ġmicho acÃ¡n
anton io
Ġmercu rio
os e
ri les
Ġto uch
ali mentaciÃ³n
Ġan tologÃŃa
los o
Ġmar ti
ni ch
Ġsa p
Ġcre as
cen t
Ġdo tado
Ġdo bla
Ġpi an
Ġpi ro
Ġpu lido
Ġga za
Ġedi ficaciones
Ġeuro win
Ġinteres ar
Ġfinal istas
Ġfoto volta
Ġalcan tari
Ġagra dables
Ġpal om
Ġsala zar
Ġvolver ÃŃa
Ġperder se
Ġocupa dos
Ġdele gada
Ġpresentar Ã¡n
Ġacaba ba
Ġtranspar entes
ome trÃŃa
Ġrevolucion arios
Ġrecopi la
Ġsuminis trar
Ġdomini cano
Ġapropi ada
ĠanÃ³n imo
Ġsospech oso
Ġindire cta
Ġviv ÃŃan
Ġfire fox
ĠvÃ© ase
ĠcÃ³n yu
ĠaerolÃŃn ea
Ġpotos ÃŃ
i er
ci ano
re cientemente
Ġque ramos
li cencia
Ġdi y
Ġlo zano
bre mos
Ġpar tÃŃ
Ġten or
Ġinter valo
Ġni do
emp resas
Ġra ya
Ġven us
Ġdar k
Ġescri ba
cono cer
Ġdecir se
Ġsol tar
Ġvia jÃ³
Ġesc lar
Ġespeci ficar
Ġapren den
Ġdiver sa
Ġmor elos
Ġconstitu yente
Ġcrea mos
Ġadi vin
Ġrepresenta dos
Ġfer rer
Ġlimi tadas
Ġautor ÃŃa
Ġpreten siÃ³n
âĢĵ .
Ġdev asta
Ġrevis ado
Ġaproxi ma
Ġadop ta
Ġsacar le
Ġlevan tado
Ġresu mir
Ġinaugu ra
Ġdr Ã¡stica
Ġvar Ã³n
comuni dad
Ġpublici tario
Ġhalla zgos
Ġrestri cciÃ³n
Ġmetropoli tano
ĠpÃ¡rra fos
Ġprecipi taciones
Ġcercan ÃŃas
Ġconcesion ario
Ġacord Ã³
Ġreconci liaciÃ³n
Ġpotes tad
a migos
b ec
b lada
g alo
m aria
à ¸
de remos
Ġm osa
Ġque das
di ana
Ġse gre
Ġo je
Ġpa tron
cu Ã¡ndo
Ġ( Â¡
Ġvi toria
Ġmar ÃŃn
Ġmar gin
Ġgra va
Ġhi ciste
pu ra
Ġah u
ea dos
Ġcambi emos
Ġprin cipa
Ġindi as
Ġinten tamos
Ġprote ctora
fo tos
dro mo
Ġesc ru
Ġencontrar Ã¡n
Ġren diciÃ³n
Ġextra Ã±as
Ġconstitu ida
Ġpromo tores
Ġacom e
Ġsos tienen
Ġaf p
Ġmol des
Ġata ca
Ġalum nas
Ġcolo cÃ³
Ġsien tas
Ġara gon
Ġmanten ÃŃa
Ġderi vada
Ġsepara das
Ġapun tes
tol Ã³gico
Ġdesapare cidos
espe cialmente
Ġabsor ber
hab ÃŃa
Ġcuestion ario
Ġsys tem
Ġlt d
introdu cciÃ³n
Ġtripu laciÃ³n
" ),
k os
x os
Ġ ),
to m
Ġn al
Ġin cau
Ġg li
Ġg io
Ġdi osa
âĢ İ
Ġmi lla
Ġar quero
Ġmo la
Ġinter rupciÃ³n
Ġentre gan
Ġdo m
Ġba tido
fica dores
Ġpi cante
Ġra tos
Ġne gado
Ġcono cieron
bra dos
Ġdef orma
Ġpoder osas
Ġtor mentas
Ġrecu pe
Ġis land
Ġpun tuales
ĠcÃ¡ lida
ĠmÃŃ tica
Ġjos ep
Ġcondu cen
Ġcondu cido
Ġfre ud
Ġdefen diÃ³
tec nia
Ġmec Ã¡nicos
Ġmec Ã¡nicas
Ġopin ion
Ġperten encia
Ġcorpora tivos
Ġllamar on
Ġestad ÃŃstico
Ġdue Ã±a
Ġimplica ciones
Ġencabe zado
Ġpublici taria
Ġagar re
Ġvini eron
Ġign orar
Ġadri ana
Ġenvas e
Ġinterrump ir
Ġtuvi eran
m v
Ġl ino
Ġla tin
al ma
Ġno tado
Ġper la
Ġper ver
mi za
Ġna cen
Ġsin cera
na tura
Ġentre gados
Ġba je
Ġsal te
Ġro meo
Ġcan ario
Ġcos tera
Ġfo od
Ġencuen tres
Ġce uta
Ġinten taron
Ġpun k
Ġren Ã©
Ġ12 8
Ġpregun tÃ©
Ġcamin ata
Ġacep tada
Ġminis terios
Ġmarca dores
Ġbri lla
Ġdese mbol
Ġcolabora ciones
Ġnorte americanos
Ġcel os
san tiago
Ġjes us
Ġcompa trio
Ġsua vi
Ġano tÃ³
Ġmate mÃ¡tico
Ġvul gar
Ġinscri to
ĠhistÃ³rica mente
Ġinven ciÃ³n
Ġgradu ados
Ġmodera da
Ġagi lidad
Ġocta vo
jor ge
ĠfarmacÃ©u tica
Ġdisfra ces
Ġbox eo
Ġsustan cial
ĠpÃŃ l
Ġtraga perras
comer cial
Ġsinf ÃŃn
Ġlide rar
Ġnel son
Ġleva dura
Ġantepas ados
k ra
p pe
u me
y on
Ġc esta
Ġa tor
te as
Ġb ari
Ġan tivi
Ġmi ke
Ġpre dis
me ja
Ġfa x
Ġpas cual
Ġfor ro
ĠÃ¡ to
Ġnecesi tarÃ¡
bri miento
Ġcamp anas
Ġentra mos
Ġextra Ã±ar
Ġlan zada
Ġrev isiones
Ġbel grano
Ġconj un
Ġincre mentado
Ġadi ciÃ³n
Ġacce da
ins tein
Ġalmacen ados
Ġespi ral
Ġmini mal
Ġasisten cial
Ġlor ca
imp res
199 7
Ġaconse jar
tea tro
Ġdelan teros
Ġrecti ficar
Ġtropi cales
Ġvibra ciÃ³n
temp orada
Ġsie mbra
Ġcardiovas culares
Ġpisto la
ĠhelicÃ³p tero
Ġcaf Ã©s
ĠvÃŃs pera
! "
g aria
t ÃŃsimo
Ġ Ã±
Ġde ne
Ã³ metro
Ã¡ mico
Ġf ana
ca to
Ġpa ter
res umen
ma terial
vi ch
Ġi f
Ġdes cali
Ġso Ã±ado
ga e
Ġti rando
Ġco cciÃ³n
Ġinter mi
Ġcor tina
Ġba tir
Ġespa das
Ġne gli
Ġcal mar
Ġgu ard
Ġmon tero
Ġpon i
Ġele vadas
Ġnacional ista
Ġfr ÃŃos
val le
Ġgan e
Ġemple ada
Ġinvi tada
Ġbel l
Ġestra da
Ġaplica das
Ġgar cia
Ġrepresenta da
Ġmane jan
Ġlitera rios
ji tos
Ġenca ja
Ġdespe jado
Ġsome tida
espera mos
Ġcontes tÃ³
Ġsopor ta
Ġseria mente
aso ciaciÃ³n
Ġasumi do
Ġadj unta
Ġreconstru ir
Ġjan eiro
Ġende uda
Ġacen tu
mig uel
c Ãºn
f one
Ġ Ã
Ġl cd
es ca
Ġen teros
in forma
Ġh ung
la tes
Ġsu ben
Ġdes alo
Ġco c
Ġas in
Ġci ego
Ġmo ciÃ³n
Ġor ques
Ġcar l
Ġcar encias
Ġau ra
Ġau rora
xi mo
tri tis
Ġra ros
Ġhi ts
Ġcontra ta
Ġreci bÃŃ
Ġmes o
Ġlib rerÃŃas
Ġmer cosur
ck ets
Ġale jar
fo lio
Ġinsta u
Ġpasa ra
Ġacer tada
Ġpromo tor
Ġbel le
Ġfis calizaciÃ³n
Ġutilizar Ã¡
Ġselec cionadas
Ġsimi li
Ġsorpren dentes
Ġadop tada
Ġsh ort
Ġlicencia da
Ġporta bilidad
gran a
Ġcoinci dir
Ġmagn esio
Ġcalen tar
Ġagres ivo
Ġconsoli dado
Ġtr ÃŃo
Ġmoni tores
Ġaler gia
Ġprolon gado
Ġens aladas
Ġsimul tÃ¡nea
Ġadu an
Ġhones tidad
ĠdemÃ³cra ta
Ġserra t
Ġjama ica
ĠcÃ³mp uto
Ġgour met
n d
v iste
Ġl lano
Ġp entecos
ar ma
an dro
Ġque en
di ciembre
Ġpor cen
Ġal ha
men cia
Ġpro pen
Ġd v
Ġi ll
Ġi ris
mi llo
Ġan ch
mb as
Ġhi gi
Ġval verde
Ġpos tales
Ġfal das
Ġorgani zadas
Ġnatura lidad
Ġpare cidos
ex pli
ĠpolÃŃtica mente
Ġenerg Ã©ticos
Ġsolici tada
Ġinvi er
Ġconstitu ido
Ġayuda mos
Ġgal ar
Ġelimin ando
Ġfas hion
Ġmoder n
Ġface ta
Ġfar os
Ġalmacen a
Ġgrave mente
Ġclima tizaciÃ³n
Ġperju dica
Ġgor da
Ġais lado
Ġtelef Ã³nico
Ġhern Ã¡n
Ġcuri osidades
Ġsufri eron
Ġimpli car
Ġambi cioso
Ġcaza dores
Ġrecep tores
Ġemble mÃ¡ticos
Ġexquisi to
Ġalfom bras
Ġladr Ã³n
Ġrefuer za
ĠenvÃŃ e
mode lo
Ġpizar ra
Ġzel anda
ĠcurrÃŃcu lum
: .
a co
w orld
Ġ Ã¢
en ero
ra ma
ci tamente
ci ty
Ġen ven
ÃŃ menes
Ġv eras
Ġre tir
Ġpor to
Ġal cor
Ġal bar
gu eros
Ġtra tos
ĠâĢ Ļ
Ġna zi
Ġpres unta
Ġpri s
Ġor na
Ġmej ÃŃa
Ġinc lina
cri bir
Ġcal ce
Ġcambi aron
Ġtrav esti
Ġmal donado
Ġanti cor
Ġdomin a
Ġdiver tir
Ġvien a
Ġbal ne
Ġenfer ma
Ġguar dado
Ġempe zaba
Ġpropor cionando
Ġcora je
Ġarchi piÃ©
Ġadap tados
Ġcomis arÃŃa
Ġindica das
ins tru
Ġregla mentos
Ġacci dental
Ġdesea dos
Ġ197 1
Ġreuni dos
Ġconti enda
Ġbea t
Ġrell en
Ġtrai ciÃ³n
nor m
Ġsubven ciÃ³n
Ġcinemato grÃ¡fico
Ġpresupues taria
Ġdiagnos tica
Ġtuber ÃŃas
ĠcadÃ¡ver es
Ġsili cona
ĠlÃ¡c teos
ĠÃŃntegra mente
Ġhepa titis
& #
a qui
s hop
Ġen gran
Ġel u
al ba
ch era
Ġlo la
gu laciÃ³n
Ġco de
âĢĿ ?
Ġpres cripciÃ³n
Ġve ÃŃan
Ġexp ro
Ġch asis
pon go
com e
com isiÃ³n
Ġk in
Ġcontra dicciÃ³n
Ġreg ÃŃmenes
Ġrela jar
Ġini cie
Ġnom ina
Ġbi olÃ³gico
ĠprÃ³ sta
Ġmani cura
Ġquer iendo
Ġllega ban
Ġros e
Ġgua po
Ġinflu yen
Ġexperi mentaciÃ³n
Ġocho a
Ġxi v
Ġdormi do
Ġliqui dez
Ġaver ÃŃas
Ġtrasla dÃ³
Ġhen ares
Ġfrag mento
Ġmaris ol
Ġindire ctamente
Ġestuvi eran
ĠvÃ© lez
Ġanfitri Ã³n
Ġmayori tariamente
Ġcomisi onado
Ġalimenti cios
Ġuri be
Ġguate malte
ĠrobÃ³ tica
Ġrecambi os
Ġbolivari ana
Ġecles i
cuida do
/ .
o ut
z cas
Ġde mar
Ġs cra
Ġs tone
Ġen zi
Ã¡ tegui
la terales
Ġpa Ã±o
Ġcom it
mi os
Ġres tante
Ġdis oluciÃ³n
Ġci bern
ven ciÃ³n
Ġdo ctores
lu do
Ġprodu cirÃ¡
Ġforma tivos
Ġsen ten
Ġservi ces
Ġru tinas
Ġinten te
Ġale gaciones
Ġnovi as
Ġprote gen
gue ras
Ġextra terres
Ġinsta ladas
Ġemple an
Ġredu cidos
Ġlogra mos
Ġconsecu tivos
Ġadap tan
Ġpod Ã©s
Ġcontribu ido
Ġvolun tariamente
24 3
Ġabrir se
Ġcabel los
Ġ> >
ĠlÃ¡ zaro
Ġnorm alizaciÃ³n
Ġpaisa j
Ġ196 5
Ġincluir Ã¡
Ġacuer da
Ġsubs istema
Ġseg mentos
Ġdiplom Ã¡tico
Ġanex os
quien es
Ġanten as
figu ra
Ġdividen dos
ĠvÃ¡lv ulas
ĠhidrÃ¡u lica
Ġcompos tela
Ġprincipi antes
Ġinfrac ciones
a ten
l co
Ñ ı
Ġs tri
ri t
Ġin dio
Ġre trans
cu lada
Ġcu raciÃ³n
ch is
ten ÃŃa
Ġvi b
Ġle ves
Ġcomp ul
Ġli bia
Ġmar gina
Ġpe dÃŃ
Ġbu ceo
Ġpu pi
Ġhu mb
Ġmal vinas
Ġbi omas
cil los
Ġref in
Ġcentro amÃ©rica
201 9
Ġmus e
Ġrefer ida
Ġconsu men
Ġpasar ela
Ġconven cidos
Ġaf lo
Ġpal oma
Ġinstru ctor
Ġnie tos
Ġguitar rista
Ġcotidi anas
Ġambi ciÃ³n
Ġpere g
Ġvicepres identa
Ġasom bro
Ġprestigi osa
Ġcarri llo
cris ti
Ġinto xi
Ġsimpa tÃŃa
ĠapÃ³s tol
ĠasegÃº rese
fÃŃsi ca
ĠfÃ³ siles
Ġdiges tivo
Ġseti embre
l Ã³gicos
Ġs witch
Ġen marca
Ġen glish
ri an
Ġre ini
le Ã³n
Ã± en
Ġmi lan
Ġman ta
âĢĿ âĢ¦
ja ck
Ġpas ivos
Ġcor dial
Ġba tman
Ġcontra er
Ġval ientes
Ġmon os
Ġbas Ã¡ndose
Ġbus cÃ³
Ġhe alth
Ġacu sÃ³
Ġcomple tado
Ġfal lar
Ġru mor
Ġce cilia
Ġpresi de
Ġvia ble
Ġinstitu te
Ġdiri gÃŃa
Ġeli te
Ġpromo viendo
Ġenvi o
Ġgrande za
Ġpul mones
Ġsuce den
Ġprome tiÃ³
Ġapre hen
ear ch
Ġhol an
Ġocu pÃ³
ĠincreÃŃ blemente
Ġvita lidad
Ġculpa bles
Ġperu anos
Ġinsul tos
Ġcarpe tas
Ġare quipa
Ġimpermea bilizaciÃ³n
Ġdevuel ve
Ġcontradi cciones
diri gido
Ġallen de
ĠaerolÃŃn eas
Ġcarpin terÃŃa
Ġtobi llo
Ġinsa tis
Ġvirgin ia
eje mp
g rante
Ġl s
Ġp lie
Ġc b
ci ero
Ġm ys
Ġes gri
ri ller
ma t
us u
us ton
Ġme tiÃ³
Ġi ps
Ġesta bas
pa go
qui llas
Ġser en
Ġco orden
Ġdis uel
ver Ã³
Ġli gada
Ġpr osa
Ġtu te
Ġda te
Ġpu Ã±ado
Ġk ris
rÃ¡ c
Ġale da
Ġdecir me
Ġsino psis
Ġprograma da
don cia
Ġvuel van
Ġpin os
Ġcaus an
Ġdirec tivas
rÃŃ e
Ġjuga ba
Ġselec cion
Ġpreten der
Ġconce dido
Ġaudi tor
Ġabo ut
Ġflo ral
Ġfres cas
Ġcomun ismo
Ġilu mina
ĠlÃ¡ minas
Ġcaracteri zaciÃ³n
Ġpana me
ĠplÃ¡s ticas
Ġproto tipo
Ġspa ce
Ġsuces or
Ġimpon ente
Ġgradu aciÃ³n
Ġnervi osa
Ġrazona bles
Ġadh eri
ĠlegÃŃ tima
Ġprocu rar
ĠdÃ©ci ma
Ġmediano che
Ġcorrup tos
Ġerra dicar
espa cio
nin gun
Ġepide mi
francis co
a k
f ines
o ctubre
t za
Ġl ecto
ti Ã©ndose
al as
Ġcon torno
Ġre tar
Ġpa gÃ³
Ġsu yas
Ġha das
Ġcu id
Ġsi da
ol ÃŃ
Ġex termin
qui l
Ġten Ã©s
Ġsin to
Ġmo tori
can arias
Ġr ss
Ġgra titud
Ġgen ere
Ġsen sori
Ġk el
Ġrep osi
versi ble
Ġcli mÃ¡ticas
Ġtrata ra
Ġale aciÃ³n
Ġdecir les
Ġclas sic
Ġconocer se
Ġalcan zando
ĠÃ³ sea
Ġponer nos
gon ia
Ġnorte amÃ©rica
Ġfer tilidad
Ġcelebra mos
ph er
Ġpatri ar
Ġfacili tando
Ġexten dida
pres idente
Ġalber gar
Ġenfren tarÃ¡
vier ten
Ġfol c
ĠhÃ¡bi l
Ġvalen tÃŃa
Ġfom enta
Ġdescen dientes
Ġauton Ã³mico
Ġmanifi estan
Ġequival entes
Ġgobern ante
Ġpuntu alizÃ³
Ġdisfra z
Ġdesnu das
mbur go
Ġafri cana
Ġrefres cante
Ġchis tes
Ġsco tt
Ġvamp iros
Ġfit ness
Ġsaba dell
Ġclin ton
Ġpota sio
Ġscien ce
colom bia
Ġexplor er
u ti
u tica
z onas
de termin
de bemos
Ġla tinos
Ġy ol
Ġt b
Ġo asis
Ġg lÃ¡n
Ġdes habili
mi one
mo ral
Ġtra tarÃ¡
Ġpar che
Ġte Ã±
Ġac trices
Ġman dado
Ġli der
âĢĿ ).
Ġcar net
Ġexp en
Ġexp uesta
Ġcre yentes
Ġra cha
com a
Ġcontra tados
Ġpla tÃ³n
bo li
âĢ¦ ,
Ġfor ex
Ġindi ferencia
Ġnecesi ten
ho use
Ġobs ta
tÃ© tico
Ġmovi lizar
Ġinvi taciones
Ġdia gonal
Ġbel ga
unta in
Ġreco gidas
Ġregu ladora
Ġpreci sar
ph p
Ġacces s
Ġilus tre
Ġcontribu yendo
Ġagrade cemos
pue do
fon do
Ġetique tada
Ġbenefici ar
Ġentregar Ã¡
Ġcombina dos
camp ista
neces ito
Ġcarro cerÃŃa
Ġsobe rano
Ġprocura dor
Ġconforma da
Ġvaca cional
ĠdiÃ³ cesis
Ġingen u
Ġdegra daciÃ³n
Ġpresion ar
Ġphi lip
Ġincorpo rando
Ġabdomin al
Ġmagis terio
Ġeucar istÃŃa
ĠprÃ³sta ta
a par
d ano
e mi
f fer
Ġen ti
Ġin ces
Ġpara mili
dos is
cu lum
Ġcu pos
Ġca tar
Ġsi mon
Ġme t
ol ar
Ġto x
si ve
Ġso ul
Ġma o
Ġtra iler
Ġres plan
pe la
Ġcomp ran
... ).
Ġpe ca
Ġcre yendo
Ġfin landia
Ġcan tos
Ġcos me
Ġpla gas
Ġequi voca
Ġbo om
Ġmayor ista
Ġtras lados
cul ando
Ġir onÃŃa
Ġir responsa
Ġbi lateral
chi cas
Ġamor osa
Ġsab ÃŃamos
Ġcru ceros
Ġnu b
Ġdetermin e
Ġinver sor
Ġexi lio
Ġace it
Ġros al
Ġcambiar Ã¡
Ġvie w
Ġpod ras
Ġclasi ficaciones
Ġcatal ina
Ġsua vidad
Ġoli ver
Ġresu ci
Ġdetec tive
Ġalquiler es
Ġprogres ivamente
Ġdenomina dos
Ġimpar tido
Ġbanc arios
Ġsuscri to
Ġlook s
Ġbolivi anos
Ġcucha rada
Ġgrues a
ĠerÃ³ ticos
Ġarra i
Ġsteph en
Ġlaber into
2 25
? Â¿
i miento
u ca
y ar
de ar
de cir
Ġp t
en con
es paÃ±
la c
Ġdes pl
Ġex c
Ġte mo
Ġco te
Ġdis play
Ġli diar
car e
Ġdo blado
Ġba Ã±
Ġins o
Ġforma tiva
Ġvol vo
ĠseÃ± alizaciÃ³n
ie zo
vil Ã©s
Ġpasa ban
Ġpoli tÃ©cnica
Ġcaus ada
Ġaplica dos
ĠseÃ±al aron
Ġlimi tados
Ġinno var
Ġdolor oso
Ġlis boa
Ġcari ca
Ġnutri cionales
Ġalcanzar on
Ġpermitir ÃŃa
Ġderro tas
Ġapun tado
Ġfantas y
Ġrell ena
meri cano
Ġinven to
Ġhin chas
Ġsumar se
Ġartesan ales
Ġbaj ista
Ġlun ar
ĠarquitectÃ³n ico
Ġcadu cidad
Ġeugen ia
Ġney mar
Ġsciento logy
Ã «
Ġde bilidades
Ġa ge
en trada
on ismo
re da
Ġes malte
Ġb lus
ma g
Ġper dona
era do
Ġta s
Ġte mÃ¡tico
Ġest her
Ã©s tor
ĠâĢľ âĢ¦
Ġba te
Ġuni formes
Ġforma tivas
Ġter tu
Ġad je
Ġri v
Ġay uno
Ġbo w
Ġqui tado
Ġpodr Ã©
Ġresul ten
Ġ7 50
Ġapar ezcan
Ġinfor mÃ¡ticas
Ġsue co
Ġfinan ciado
Ġbol che
Ġmensa jero
Ġgal lar
dÃ³ j
Ġdeli ciosos
og rÃ¡fico
Ġindividu almente
Ġorien tales
ws ki
ĠacompaÃ± Ã³
Ġbara ck
Ġconcen trar
Ġ197 4
Ġfol la
Ġcami lo
Ġinaugu ral
Ġche ca
Ġino centes
Ġcompli cidad
Ġprogres ivo
Ġcarb on
Ġentregar on
comuni caciÃ³n
Ġenamo rados
Ġllo rando
Ġprostitu ta
Ġgris es
Ġrepi to
Ġcenten ares
Ġreba ja
ĠcontinÃº e
Ġalex ander
Ġtranquila mente
Ġanali zan
ĠfarmacÃ©u ticos
Ġafri cano
Ġafri canos
Ġmedioambien tales
Ġanta Ã±o
Ġbei ge
sigu iendo
ofre cemos
Ġwee k
Ġjona than
transpar encia
! -
? âĢĿ.
e al
f ero
g las
m ware
s ky
Ġde ven
Ġm Ã¡n
in fla
ca pi
la gos
Ġg eri
Ġpor tadas
Ġdi Ã©sel
lo ca
Ġpro bando
Ġca mu
Ġdes men
za je
za ban
Ġma cha
tros is
Ġmar ciales
Ġmedi ciones
xi ma
Ġra quel
Ġhab las
Ġk w
Ġk ra
Ġad hi
Ġval la
Ġpubli cando
Ġrela jante
Ġvol ando
Ġtor onto
th is
Ġinfor man
Ġigu ali
Ġconstru idos
Ġpost grado
Ġsuce da
Ġpien se
Ġaudi encias
Ġka ya
Ġespi rulina
Ġfres cura
Ġsil ver
Ġrepor tÃ³
Ġcau tiv
Ġcomun ÃŃ
Ġ196 2
Ġequili brado
Ġplu mas
plan ta
Ġton y
Ġarran cÃ³
inter rump
Ġlanzar ote
Ġgradu almente
Ġ195 8
Ġsenta da
Ġhidra tante
Ġpermanecer Ã¡
Ġsubsi dios
vesti do
Ġcapri chos
ĠpÃ¡jar o
Ġconfron taciÃ³n
sab ÃŃas
Ġtok io
ĠÃ¡gui la
Ġstal in
e Ã±os
g ales
h erra
l t
Ġa xi
es tra
ta tivas
Ġn Ã³r
Ġf ala
la ta
Ġin co
li an
Ġcom ar
mp er
Ġdes precio
si onar
mo di
mo ur
Ġma ca
des ay
Ġas ti
Ġli gado
Ġcor tinas
Ġpe dal
Ġ" Â¡
Ġbu il
Ġsan gri
Ġprodu cidas
bo t
par se
Ġhe la
Ġrela cionan
Ġban k
Ġbi m
Ġbi om
Ġestable ciendo
Ġgi li
Ġatra pado
Ġcrea tivas
Ġcolabora do
Ġcolo rado
Ġselec ci
Ġpul mon
Ġface tas
Ġbro che
Ġsacar on
Ġbru ja
Ġom isiÃ³n
Ġabra ham
Ġcau cho
Ġsecund arias
Ġasamble as
Ġadver tido
Ġbenefici arse
Ġcd mx
Ġsp rin
Ġstan dard
Ġsubra ya
Ġestamp ados
Ġacumu lada
Ġantio quia
Ġsudameri cano
Ġrestable cer
Ġsucur sal
Ġcofra dÃŃa
Ġbrit tany
e h
e ven
m uer
r d
w il
Ġe ru
in u
Ġv arela
Ġal bor
Ġpro geni
Ġdes ech
ba t
Ġpar do
Ġte me
Ġac ue
du lo
ve te
Ġus Ã³
Ġr y
Ġsa o
Ġya cimientos
cen o
Ġdeci des
bier ta
Ġbo he
Ġofre ci
Ġapar ecÃŃa
Ġcontro lados
Ġlan gos
Ġanun ciaron
Ġtex tiles
Ġfir maron
Ġproce den
Ġred un
Ġapor tado
Ġenten dÃŃa
Ġguar di
Ġeduca dores
Ġterri bles
Ġsir van
Ġcorpora les
Ġenfo ques
Ġotor gÃ³
nues tras
Ġrecha zado
Ġcreado ra
Ġfortale ce
Ġactiv ista
Ġintensi vo
Ġapa gar
ther ine
cÃ¡ mara
Ġpsicol Ã³gicos
Ġplantea mientos
Ġdecora tivos
Ġperf oraciÃ³n
Ġdedu cir
Ġrever tir
Ġtecni ca
Ġcombin ando
Ġaconseja ble
Ġentreten ida
euro pa
Ġprivilegi ado
Ġatar decer
Ġmeli lla
Ġtay lor
Ġinsom nio
Ġprotec ted
Ġprincipa do
1 20
c co
g c
g pd
j ena
p tica
p rÃ¡c
ta to
Ġm esti
Ġun ed
ro ck
Ġse di
Ġse lla
la ya
Ġb esa
Ġsu cio
Ġdi rÃ¡
Ġcu po
Ġca bida
Ġna dal
tre ras
sa m
Ġcas aciÃ³n
na cionales
Ġch ac
Ġab ono
Ġpol ar
ton o
Ġtrans versal
ori zaciÃ³n
Ġide o
Ġir ÃŃa
Ġhistoria dores
Ġinvesti gando
tÃ¡ is
chi to
Ġpregun tarse
pro ble
Ġtermin ando
dal os
Ġllevar ÃŃa
Ġdese mbar
Ġocur ridos
Ġingres ado
Ġcompra venta
tali zar
pla za
ĠaÃ±a den
ee ee
Ġnar rador
Ġka ra
Ġcompa cta
Ġaprendiza jes
Ġdeb iendo
Ġ196 4
Ġperju dicar
Ġpeda zos
Ġke vin
Ġed ward
Ġcuri osamente
Ġhere dero
Ġges taciÃ³n
Ġsp ring
Ġcurios os
Ġari el
Ġsinies tros
ĠsatÃ© lites
Ġinsi gn
________ ________
Ġreu ters
quiz Ã¡
Ġcolch Ã³n
Ġsobr ino
Ġumb ral
Ġapasion ante
Ġmarro quÃŃ
e ando
m g
al qui
Ġin m
Ġpa ten
Ġal mer
qu istas
Ġesta bili
fi la
Ġmi tologÃŃa
Ġle en
Ġas fi
Ġman tuvieron
sa ble
Ġpr Ã³logo
Ġau mentos
Ġju juy
cen se
Ġw ell
Ġda mi
Ġro b
Ġgra mÃ¡tica
Ġsan z
Ġhu Ã©r
Ġcer vec
Ġven eno
Ġinten sas
Ġos a
Ġpel is
gn ado
Ġnu la
Ġtur co
Ġidenti fican
Ġcampa mentos
Ġvas ca
Ġdeman dante
voca toria
Ġlitera rias
Ġajus table
Ġdesarrollar on
cambi o
Ġadmi tiÃ³
Ġnie ves
Ġocu pando
Ġsuces ivamente
Ġdefender se
Ġplane ado
Ġabur ri
Ġec lip
Ġente rar
Ġpsic Ã³loga
enal ina
Ġsinf Ã³nica
administra ciÃ³n
agre gÃ³
Ġanunci antes
Ġemerg ente
h ada
de mont
ra bles
ci siÃ³n
Ġen Ã©r
re du
Ã³ grafo
Ġf s
Ġin se
us ia
Ġper ez
Ġti rada
Ġtra ck
Ġan n
Ġvi de
me da
Ġdis puestas
ver y
je t
Ġcas tillos
ven ez
Ġnue ces
Ġfi cti
Ġmejor ÃŃa
ine tes
Ġofre zca
Ġale ga
Ġmos quitos
Ġmor o
Ġeven tualmente
Ġintegra das
Ġobli gan
Ġinstru mental
Ġdefini Ã³
Ġestan dar
Ġmili tante
Ġdefen dido
Ġconec tarse
Ġlengua jes
Ġtradu ctores
Ġpropon go
Ġdisminu ido
Ġprohi bi
ĠejÃ©r citos
Ġrequeri miento
algun a
Ġenga Ã±os
Ġagro ali
Ġrique zas
Ġape laciones
Ġsugi eren
Ġform almente
Ġventi lador
Ġadu anas
Ġfus ion
Ġfisio terapia
Ġburo cracia
Ġeslo ven
Ġecuatori ano
Ġremode laciÃ³n
Ġlavan derÃŃa
Ġreele cciÃ³n
Ġcortome traje
Ġcompas iÃ³n
Ġenfati zÃ³
Ġbizco cho
Ġchel sea
Ġbuffe t
Ġcoorden adas
b ante
g ÃŃan
Ġe min
Ġl p
Ġl yn
Ġa tu
al an
Ġn m
di l
Ġsu ra
lo ck
Ġha za
vi dades
Ġdes lumb
pa ge
si e
Ġpre fec
con f
Ġdis gus
na cional
Ġor gas
Ġau re
Ġdo rados
Ġgra bados
Ġtraba je
ros is
com un
ona je
Ġindi gnaciÃ³n
Ġresul tante
pos teriormente
Ġcontin entes
posi tivas
Ġrecor daba
Ġemple ador
Ġcru zada
Ġpropor cionalidad
Ġfil ms
pla ta
Ġexten diÃ³
ah ÃŃ
Ġnar uto
Ġsuspen dido
Ġase verÃ³
Ġfemen inas
Ġtriun fos
Ġdispu tarÃ¡
Ġcoinci dencia
vada via
Ġtelef Ã³nicas
Ġib Ã©rico
Ġinmo vi
Ġsole mos
Ġguitar ras
Ġgradu al
Ġestri cta
Ġsec uela
Ġemble mÃ¡tico
Ġprofe tas
comp rar
ĠquirÃºr gico
Ġcurr ÃŃculo
Ġener gia
igu almente
ĠarchipiÃ© lago
l Ã³gico
n ull
p ticos
ta se
Ġm hz
re ta
Ã³ tica
di es
Ġcon n
Ġcon tados
Ġt ina
Ġi ri
Ġdes cif
Ġex cre
Ġest Ãºpi
Ġsin tiendo
Ġinter roga
Ġcar n
Ġsa tan
Ġpe dÃŃa
Ġinc rus
Ġesp ere
Ġmon arca
Ġjue za
ya d
segu ramente
Ġvol vi
Ġjun tar
Ġgas o
ben se
Ġ13 5
ques e
Ġenvi arÃ¡
Ġregu laciones
Ġgaranti ce
Ġmez clas
âĤ¬ ,
Ġhal lado
Ġenca jar
Ġreti rarse
Ġlibera do
mpa ras
Ġcuesti onar
Ġdescono cen
Ġcomun al
Ġâ ľ
Ġsosteni bles
Ġamari llas
199 8
Ġcombus tiÃ³n
Ġazu car
Ġbon dad
Ġimpu tado
Ġinfi de
Ġarbi traje
Ġorgullos a
ĠdidÃ¡c tico
Ġmel li
fri ends
Ġrecar ga
ĠilÃŃ cito
ĠterapÃ©u tica
ĠinalÃ¡mb rica
Ġpatrocina dores
prin cip
Ġsimb Ã³lica
Ġsocor ro
Ġpok Ã©mon
Ġfuji mori
Ġceni zas
Ġmapu che
Ġcontrarres tar
f rancia
f urt
s erÃŃa
Ġe ros
Ġp ine
Ġa tas
Ġa mino
Ġs ri
Ġm Âª
Ġes tru
ti fy
Ġque bra
di vi
Ã¡ zquez
Ġv endo
ri llos
is eo
Ġsu bidas
Ġpor terÃŃa
Ġsi rio
Ġme e
pa pel
Ġan dadura
des es
Ġar bus
Ġco que
tros pec
ces os
Ġinter locu
Ġinf arto
Ġpe inado
Ġsal vado
Ġro tura
Ġdu re
Ġpi que
Ġgra f
Ġpu ramente
Ġprodu jeron
mar keting
Ġesp ino
Ġne vada
Ġad min
Ġcol gado
Ġcer rando
Ġ19 41
Ġindi caron
Ġide olÃ³gica
ie la
Ġami g
Ġconten gan
Ġcasi ta
Ġmus culares
Ġcha co
Ġfir mes
Ġfeli cito
Ġgar den
Ġhablar emos
Ġrepresen tando
Ġintrodu jo
sal vo
Ġlitera l
Ġizquier das
Ġenrique cimiento
aa a
Ġcomun as
Ġatrac tivas
Ġabun dantes
ĠmetÃ¡ licas
Ġlanza mientos
Ġevolu cionado
Ġinvoluc rado
Ġvice versa
Ġdecre tos
Ġcogni tivo
Ġmichel le
ĠanÃ©cdo ta
Ġrevesti miento
Ġincorpo ran
tritura dora
Ġenfri ar
ĠtriÃ¡n gulo
Ġanestes ia
Ġpando ra
caracter ÃŃsticas
g Ã¡n
ä ¸
on da
ÃŃ lica
Ġo bre
Ġpro pul
qu a
Ġca br
Ġme ade
Ġdes me
pa y
gu o
Ġtra ining
Ġvi vieron
Ġar ch
Ġar jona
con fi
Ġcar ni
Ġau mente
Ġsal tos
Ġro dillos
dr ÃŃan
Ġuni on
Ġtran vÃŃa
Ġactu ado
Ġyo ung
ĠcÃ³ r
Ġbar ni
Ġdar ÃŃo
Ġ8 55
Ġtor na
posi ciones
ĠcÃ¡ psulas
Ġcontinu ado
Ġproyec tar
ĠÃ³ mni
Ġaz teca
Ġestan dari
Ġfas ti
Ġdefen siva
Ġzapa ta
Ġmasa cre
Ġmira flores
of fice
Ġequipa das
Ġargu menta
Ġbru ce
Ġdescan sa
Ġradi ante
Ġllen ado
Ġfla mante
Ġhaci Ã©ndolo
bur g
Ġhici eran
ĠolÃŃmp ica
dere chos
Ġmagistra l
Ġdina mismo
Ġimpac tante
Ġperjudi cial
ĠacÃºs tica
jun io
you tube
institu to
Ġmole cular
e ti
s ing
u los
de d
de cla
Ġde ban
Ġde bieron
ra lidad
er vi
er ense
Ġm d
Ġv oso
Ġo tan
Ġcom ido
Ġd f
Ġdes al
si de
ga t
Ġac anti
Ġco cer
Ġco chabamba
Ġas co
Ġli onel
man as
Ġcas ada
Ġpas tilla
Ġdo pa
Ġfin cas
Ġcol in
Ġgo od
Ġven cido
Ġfor zar
Ġcomuni tarias
Ġfo cos
Ġvol taje
Ġ10 7
Ġusu almente
Ġaca mp
tener se
Ġdispon ga
Ġesti mulaciÃ³n
Ġsub ya
Ġinsta lados
Ġmovi lizaciones
Ġsolici tando
Ġenfer meras
Ġcorrespon der
Ġol d
Ġdescar tar
Ġata cante
Ġcolabora tivo
Ġfer tili
Ġpreci sos
Ġgaranti zada
Ġdeman dado
Ġsolu ciona
Ġconfir maron
Ġemi tida
Ġimpul sada
Ġaprovech ado
Ġcristi anas
Ġsil ueta
Ġsui tes
mil ton
Ġais lada
Ġprogres ista
fre d
Ġescucha ba
ĠtÃ³ picos
ĠmÃ¡r genes
tÃ¡ndo lo
ĠdomÃ©s tica
Ġtranscur re
Ġdrama tur
Ġvini los
ĠtÃ¡c tica
ĠterapÃ©u tico
Ġhai tÃŃ
Ġhumi lla
abri l
lei bol
Ġoran ge
Ġcomit Ã©s
ĠÃ³mni bus
d us
f ro
f ol
v ala
Ġp ante
Ġs ka
ci er
ci ma
in tes
in cre
Ġes meral
ti ciÃ³n
Ġcon cor
Ġse par
Ġdi ci
tu ri
dos os
Ġpro puestos
cu erdo
ba ble
se ptiembre
Ġtra vel
Ġan do
Ġpar ientes
qui Ã¡
Ġmi xto
Ġcomp rue
Ġmar inas
Ġplan tar
Ġgenera dor
tis mos
Ġvisi tamos
Ġx p
Ġcua tri
Ġmill en
Ġcontro ladores
Ġagua cate
Ġfunda ciones
Ġpregun tando
Ġminis terial
Ġem ma
Ġeli jas
Ġinde x
Ġpasar Ã¡n
Ġexpli cando
Ġpropor cionados
Ġpresu me
Ġth or
Ġpagar Ã¡
Ġcapaci tado
Ġapre ciaciÃ³n
Ġsuje tas
Ġcoti zaciones
Ġmezcla do
Ġconcur rencia
Ġdani lo
Ġvulnera ciÃ³n
Ġph il
Ġpata gonia
gues es
Ġllan to
Ġprolon gada
Ġapla usos
Ġevolu cionar
Ġrespira torias
Ġchal et
Ġcogni tiva
Ġcongre gaciÃ³n
Ġdespro por
Ġpio jos
Ġnaz is
Ġdesconfi anza
Ġalz heimer
Ġcroa cia
Ġincl inaciÃ³n
8 95
c les
t n
u k
Ġde dico
Ġde genera
Ġc Ã¡s
on line
in depen
ti zado
al to
Ġn Ã©stor
Ġpara dos
Ġdi jera
ec encia
Ġi ta
Ġto can
mi t
Ġta cos
se la
tor e
tor y
[...]
