{
  "version": "1.0",
  "truncation": null,
  "padding": null,
  "added_tokens": [
    {
      "id": 0,
      "content": "[UNK]",
      "single_word": false,
      "lstrip": false,
      "rstrip": false,
      "normalized": false,
      "special": true
    },
    {
      "id": 1,
      "content": "[PAD]",
      "single_word": false,
      "lstrip": false,
      "rstrip": false,
      "normalized": false,
      "special": true
    },
    {
      "id": 2,
      "content": "[CLS]",
      "single_word": false,
      "lstrip": false,
      "rstrip": false,
      "normalized": false,
      "special": true
    },
    {
      "id": 3,
      "content": "[SEP]",
      "single_word": false,
      "lstrip": false,
      "rstrip": false,
      "normalized": false,
      "special": true
    },
    {
      "id": 4,
      "content": "[MASK]",
      "single_word": false,
      "lstrip": false,
      "rstrip": false,
      "normalized": false,
      "special": true
    }
  ],
  "normalizer": {
    "type": "Sequence",
    "normalizers": [
      {
        "type": "Replace",
        "pattern": {
          "String": "``"
        },
        "content": "\""
      },
      {
        "type": "Replace",
        "pattern": {
          "String": "''"
        },
        "content": "\""
      },
      {
        "type": "Lowercase"
      }
    ]
  },
  "pre_tokenizer": {
    "type": "BertPreTokenizer"
  },
  "post_processor": {
    "type": "TemplateProcessing",
    "single": [
      {
        "SpecialToken": {
          "id": "[CLS]",
          "type_id": 0
        }
      },
      {
        "Sequence": {
          "id": "A",
          "type_id": 0
        }
      },
      {
        "SpecialToken": {
          "id": "[SEP]",
          "type_id": 0
        }
      }
    ],
    "pair": [
      {
        "SpecialToken": {
          "id": "[CLS]",
          "type_id": 0
        }
      },
      {
        "Sequence": {
          "id": "A",
          "type_id": 0
        }
      },
      {
        "SpecialToken": {
          "id": "[SEP]",
          "type_id": 0
        }
      },
      {
        "Sequence": {
          "id": "B",
          "type_id": 1
        }
      },
      {
        "SpecialToken": {
          "id": "[SEP]",
          "type_id": 1
        }
      }
    ],
    "special_tokens": {
      "[CLS]": {
        "id": "[CLS]",
        "ids": [
          2
        ],
        "tokens": [
          "[CLS]"
        ]
      },
      "[SEP]": {
        "id": "[SEP]",
        "ids": [
          3
        ],
        "tokens": [
          "[SEP]"
        ]
      }
    }
  },
  "decoder": {
    "type": "WordPiece",
    "prefix": "##",
    "cleanup": true
  },
  "model": {
    "type": "WordPiece",
    "unk_token": "[UNK]",
    "continuing_subword_prefix": "##",
    "max_input_chars_per_word": 100,
    "vocab": {
      "[UNK]": 0,
      "[PAD]": 1,
      "[CLS]": 2,
      "[SEP]": 3,
      "[MASK]": 4,
      "\u0000": 5,
      "\u0001": 6,
      "\u0002": 7,
      "\u0003": 8,
      "\u0007": 9,
      "\b": 10,
      "\u000f": 11,
      "\u0010": 12,
      "\u0013": 13,
      "\u0019": 14,
      "\u001d": 15,
      "\u001f": 16,
      "!": 17,
      "\"": 18,
      "#": 19,
      "$": 20,
      "%": 21,
      "&": 22,
      "'": 23,
      "(": 24,
      ")": 25,
      "*": 26,
      "+": 27,
      ",": 28,
      "-": 29,
      ".": 30,
      "/": 31,
      "0": 32,
      "1": 33,
      "2": 34,
      "3": 35,
      "4": 36,
      "5": 37,
      "6": 38,
      "7": 39,
      "8": 40,
      "9": 41,
      ":": 42,
      ";": 43,
      "<": 44,
      "=": 45,
      ">": 46,
      "?": 47,
      "@": 48,
      "[": 49,
      "\\": 50,
      "]": 51,
      "^": 52,
      "_": 53,
      "`": 54,
      "a": 55,
      "b": 56,
      "c": 57,
      "d": 58,
      "e": 59,
      "f": 60,
      "g": 61,
      "h": 62,
      "i": 63,
      "j": 64,
      "k": 65,
      "l": 66,
      "m": 67,
      "n": 68,
      "o": 69,
      "p": 70,
      "q": 71,
      "r": 72,
      "s": 73,
      "t": 74,
      "u": 75,
      "v": 76,
      "w": 77,
      "x": 78,
      "y": 79,
      "z": 80,
      "{": 81,
      "|": 82,
      "}": 83,
      "~": 84,
      "": 85,
      "": 86,
      "": 87,
      "": 88,
      "": 89,
      "": 90,
      "": 91,
      "": 92,
      "": 93,
      "": 94,
      "": 95,
      "": 96,
      "": 97,
      "": 98,
      "": 99,
      "": 100,
      "": 101,
      "": 102,
      "": 103,
      "": 104,
      "": 105,
      "": 106,
      "": 107,
      "¡": 108,
      "¢": 109,
      "£": 110,
      "¤": 111,
      "¥": 112,
      "¦": 113,
      "§": 114,
      "¨": 115,
      "©": 116,
      "ª": 117,
      "«": 118,
      "¬": 119,
      "­": 120,
      "®": 121,
      "¯": 122,
      "°": 123,
      "±": 124,
      "²": 125,
      "³": 126,
      "´": 127,
      "µ": 128,
      "¶": 129,
      "·": 130,
      "¸": 131,
      "¹": 132,
      "º": 133,
      "»": 134,
      "¼": 135,
      "½": 136,
      "¾": 137,
      "¿": 138,
      "×": 139,
      "ß": 140,
      "à": 141,
      "á": 142,
      "â": 143,
      "ã": 144,
      "ä": 145,
      "å": 146,
      "æ": 147,
      "ç": 148,
      "è": 149,
      "é": 150,
      "ê": 151,
      "ë": 152,
      "ì": 153,
      "í": 154,
      "î": 155,
      "ï": 156,
      "ð": 157,
      "ñ": 158,
      "ò": 159,
      "ó": 160,
      "ô": 161,
      "õ": 162,
      "ö": 163,
      "÷": 164,
      "ø": 165,
      "ù": 166,
      "ú": 167,
      "û": 168,
      "ü": 169,
      "ý": 170,
      "þ": 171,
      "ÿ": 172,
      "ā": 173,
      "ă": 174,
      "ą": 175,
      "ć": 176,
      "ĉ": 177,
      "č": 178,
      "ď": 179,
      "đ": 180,
      "ē": 181,
      "ė": 182,
      "ę": 183,
      "ě": 184,
      "ĝ": 185,
      "ğ": 186,
      "ī": 187,
      "ĭ": 188,
      "ı": 189,
      "ĺ": 190,
      "ľ": 191,
      "ł": 192,
      "ń": 193,
      "ň": 194,
      "ō": 195,
      "ő": 196,
      "œ": 197,
      "ŕ": 198,
      "ř": 199,
      "ś": 200,
      "ş": 201,
      "š": 202,
      "ţ": 203,
      "ť": 204,
      "ū": 205,
      "ŭ": 206,
      "ů": 207,
      "ű": 208,
      "ų": 209,
      "ŷ": 210,
      "ź": 211,
      "ż": 212,
      "ž": 213,
      "ƈ": 214,
      "ƒ": 215,
      "ơ": 216,
      "ư": 217,
      "ǵ": 218,
      "ȏ": 219,
      "ș": 220,
      "ț": 221,
      "ɑ": 222,
      "ə": 223,
      "ɣ": 224,
      "ɪ": 225,
      "ɭ": 226,
      "ʖ": 227,
      "˂": 228,
      "ˇ": 229,
      "ˈ": 230,
      "ː": 231,
      "˚": 232,
      "˜": 233,
      "̀": 234,
      "́": 235,
      "̃": 236,
      "̄": 237,
      "̇": 238,
      "̈": 239,
      "̌": 240,
      "̥": 241,
      "̨": 242,
      "̶": 243,
      "͎": 244,
      "͜": 245,
      "͡": 246,
      ";": 247,
      "΄": 248,
      "·": 249,
      "ά": 250,
      "έ": 251,
      "ή": 252,
      "ί": 253,
      "α": 254,
      "β": 255,
      "γ": 256,
      "δ": 257,
      "ε": 258,
      "ζ": 259,
      "η": 260,
      "θ": 261,
      "ι": 262,
      "κ": 263,
      "λ": 264,
      "μ": 265,
      "ν": 266,
      "ξ": 267,
      "ο": 268,
      "π": 269,
      "ρ": 270,
      "ς": 271,
      "σ": 272,
      "τ": 273,
      "υ": 274,
      "φ": 275,
      "χ": 276,
      "ψ": 277,
      "ω": 278,
      "ϊ": 279,
      "ό": 280,
      "ύ": 281,
      "ώ": 282,
      "ϕ": 283,
      "а": 284,
      "б": 285,
      "в": 286,
      "г": 287,
      "д": 288,
      "е": 289,
      "ж": 290,
      "з": 291,
      "и": 292,
      "й": 293,
      "к": 294,
      "л": 295,
      "м": 296,
      "н": 297,
      "о": 298,
      "п": 299,
      "р": 300,
      "с": 301,
      "т": 302,
      "у": 303,
      "ф": 304,
      "х": 305,
      "ц": 306,
      "ч": 307,
      "ш": 308,
      "щ": 309,
      "ъ": 310,
      "ы": 311,
      "ь": 312,
      "э": 313,
      "ю": 314,
      "я": 315,
      "ё": 316,
      "ђ": 317,
      "ѓ": 318,
      "є": 319,
      "ѕ": 320,
      "і": 321,
      "ї": 322,
      "ј": 323,
      "љ": 324,
      "њ": 325,
      "ў": 326,
      "ҫ": 327,
      "ӿ": 328,
      "ԁ": 329,
      "ա": 330,
      "գ": 331,
      "դ": 332,
      "ե": 333,
      "զ": 334,
      "է": 335,
      "ժ": 336,
      "ի": 337,
      "խ": 338,
      "հ": 339,
      "ղ": 340,
      "յ": 341,
      "ն": 342,
      "ո": 343,
      "վ": 344,
      "ր": 345,
      "ְ": 346,
      "ִ": 347,
      "ֵ": 348,
      "ֶ": 349,
      "ַ": 350,
      "ָ": 351,
      "א": 352,
      "ב": 353,
      "ג": 354,
      "ד": 355,
      "ה": 356,
      "ו": 357,
      "ט": 358,
      "י": 359,
      "ל": 360,
      "ם": 361,
      "מ": 362,
      "ן": 363,
      "נ": 364,
      "ס": 365,
      "ע": 366,
      "פ": 367,
      "צ": 368,
      "ק": 369,
      "ר": 370,
      "ש": 371,
      "ת": 372,
      "ײ": 373,
      "׳": 374,
      "،": 375,
      "ؙ": 376,
      "؟": 377,
      "ء": 378,
      "آ": 379,
      "أ": 380,
      "ؤ": 381,
      "إ": 382,
      "ئ": 383,
      "ا": 384,
      "ب": 385,
      "ة": 386,
      "ت": 387,
      "ث": 388,
      "ج": 389,
      "ح": 390,
      "خ": 391,
      "د": 392,
      "ذ": 393,
      "ر": 394,
      "ز": 395,
      "س": 396,
      "ش": 397,
      "ص": 398,
      "ض": 399,
      "ط": 400,
      "ظ": 401,
      "ع": 402,
      "غ": 403,
      "ف": 404,
      "ق": 405,
      "ك": 406,
      "ل": 407,
      "م": 408,
      "ن": 409,
      "ه": 410,
      "و": 411,
      "ى": 412,
      "ي": 413,
      "َ": 414,
      "ِ": 415,
      "ّ": 416,
      "ک": 417,
      "گ": 418,
      "ی": 419,
      "ं": 420,
      "अ": 421,
      "आ": 422,
      "क": 423,
      "ख": 424,
      "ज": 425,
      "त": 426,
      "प": 427,
      "म": 428,
      "य": 429,
      "र": 430,
      "ळ": 431,
      "स": 432,
      "ा": 433,
      "ि": 434,
      "ी": 435,
      "ु": 436,
      "्": 437,
      "ॐ": 438,
      "আ": 439,
      "ক": 440,
      "ছ": 441,
      "ট": 442,
      "ড": 443,
      "ন": 444,
      "প": 445,
      "ম": 446,
      "র": 447,
      "ল": 448,
      "த": 449,
      "ம": 450,
      "ழ": 451,
      "ி": 452,
      "்": 453,
      "ก": 454,
      "ข": 455,
      "ค": 456,
      "ง": 457,
      "จ": 458,
      "ช": 459,
      "ณ": 460,
      "ด": 461,
      "ต": 462,
      "ถ": 463,
      "ท": 464,
      "ธ": 465,
      "น": 466,
      "บ": 467,
      "ป": 468,
      "ผ": 469,
      "พ": 470,
      "ภ": 471,
      "ม": 472,
      "ย": 473,
      "ร": 474,
      "ฤ": 475,
      "ล": 476,
      "ว": 477,
      "ศ": 478,
      "ษ": 479,
      "ส": 480,
      "ห": 481,
      "อ": 482,
      "ะ": 483,
      "ั": 484,
      "า": 485,
      "ำ": 486,
      "ิ": 487,
      "ี": 488,
      "ื": 489,
      "ุ": 490,
      "ู": 491,
      "ฺ": 492,
      "เ": 493,
      "แ": 494,
      "โ": 495,
      "ใ": 496,
      "ไ": 497,
      "็": 498,
      "่": 499,
      "้": 500,
      "์": 501,
      "ཽ": 502,
      "ღ": 503,
      "ន": 504,
      "ស": 505,
      "េ": 506,
      "៛": 507,
      "᠔": 508,
      "ᠢ": 509,
      "ᢃ": 510,
      "ḷ": 511,
      "ṛ": 512,
      "ṭ": 513,
      "ẕ": 514,
      "ạ": 515,
      "ả": 516,
      "ấ": 517,
      "ầ": 518,
      "ẩ": 519,
      "ẫ": 520,
      "ậ": 521,
      "ặ": 522,
      "ẹ": 523,
      "ẻ": 524,
      "ế": 525,
      "ề": 526,
      "ể": 527,
      "ệ": 528,
      "ị": 529,
      "ố": 530,
      "ồ": 531,
      "ỗ": 532,
      "ộ": 533,
      "ớ": 534,
      "ờ": 535,
      "ở": 536,
      "ụ": 537,
      "ủ": 538,
      "ứ": 539,
      "ừ": 540,
      "ữ": 541,
      "ự": 542,
      "ỹ": 543,
      "ἀ": 544,
      "ἄ": 545,
      "ἐ": 546,
      "ἡ": 547,
      "ἰ": 548,
      "ἱ": 549,
      "ὀ": 550,
      "ὑ": 551,
      "ὰ": 552,
      "ὴ": 553,
      "ό": 554,
      "ᾥ": 555,
      "ᾶ": 556,
      "ῖ": 557,
      "​": 558,
      "‌": 559,
      "‍": 560,
      "‎": 561,
      "‏": 562,
      "‐": 563,
      "‑": 564,
      "‒": 565,
      "–": 566,
      "—": 567,
      "―": 568,
      "‘": 569,
      "’": 570,
      "‚": 571,
      "‛": 572,
      "“": 573,
      "”": 574,
      "„": 575,
      "‟": 576,
      "†": 577,
      "‡": 578,
      "•": 579,
      "…": 580,
      "‪": 581,
      "‬": 582,
      "‭": 583,
      "‰": 584,
      "′": 585,
      "″": 586,
      "‹": 587,
      "›": 588,
      "※": 589,
      "‼": 590,
      "‿": 591,
      "⁉": 592,
      "⁠": 593,
      "⁦": 594,
      "⁩": 595,
      "⁪": 596,
      "⁰": 597,
      "₂": 598,
      "₄": 599,
      "₆": 600,
      "₡": 601,
      "€": 602,
      "₰": 603,
      "⃣": 604,
      "℃": 605,
      "℅": 606,
      "℉": 607,
      "№": 608,
      "℗": 609,
      "℠": 610,
      "™": 611,
      "ℹ": 612,
      "⅔": 613,
      "ⅰ": 614,
      "ⅱ": 615,
      "←": 616,
      "↑": 617,
      "→": 618,
      "↓": 619,
      "↲": 620,
      "↳": 621,
      "↴": 622,
      "⇒": 623,
      "⇓": 624,
      "∀": 625,
      "∂": 626,
      "∅": 627,
      "∆": 628,
      "∇": 629,
      "∑": 630,
      "−": 631,
      "∗": 632,
      "∙": 633,
      "√": 634,
      "∞": 635,
      "∨": 636,
      "∩": 637,
      "∼": 638,
      "≤": 639,
      "≥": 640,
      "⊃": 641,
      "⌚": 642,
      "⏩": 643,
      "⏰": 644,
      "⏱": 645,
      "⏳": 646,
      "①": 647,
      "②": 648,
      "ⓒ": 649,
      "─": 650,
      "│": 651,
      "┐": 652,
      "└": 653,
      "├": 654,
      "┬": 655,
      "║": 656,
      "╜": 657,
      "╠": 658,
      "╨": 659,
      "▄": 660,
      "▒": 661,
      "■": 662,
      "▧": 663,
      "▪": 664,
      "▫": 665,
      "▬": 666,
      "▲": 667,
      "▶": 668,
      "▷": 669,
      "▸": 670,
      "►": 671,
      "▻": 672,
      "▼": 673,
      "◁": 674,
      "◄": 675,
      "◅": 676,
      "◆": 677,
      "◇": 678,
      "◉": 679,
      "◊": 680,
      "○": 681,
      "●": 682,
      "◐": 683,
      "◕": 684,
      "◗": 685,
      "◘": 686,
      "◙": 687,
      "◡": 688,
      "◦": 689,
      "◼": 690,
      "☀": 691,
      "★": 692,
      "☆": 693,
      "☉": 694,
      "☎": 695,
      "☑": 696,
      "☔": 697,
      "☕": 698,
      "☛": 699,
      "☝": 700,
      "☞": 701,
      "☰": 702,
      "☺": 703,
      "☻": 704,
      "☼": 705,
      "♀": 706,
      "♂": 707,
      "♍": 708,
      "♐": 709,
      "♓": 710,
      "♕": 711,
      "♛": 712,
      "♡": 713,
      "♣": 714,
      "♥": 715,
      "♦": 716,
      "♩": 717,
      "♪": 718,
      "♫": 719,
      "♬": 720,
      "♻": 721,
      "♿": 722,
      "⚀": 723,
      "⚕": 724,
      "⚖": 725,
      "⚠": 726,
      "⚡": 727,
      "⚪": 728,
      "⚫": 729,
      "⚰": 730,
      "⚲": 731,
      "⚽": 732,
      "⚾": 733,
      "⛄": 734,
      "⛪": 735,
      "⛰": 736,
      "✅": 737,
      "✈": 738,
      "✉": 739,
      "✊": 740,
      "✋": 741,
      "✌": 742,
      "✍": 743,
      "✏": 744,
      "✓": 745,
      "✔": 746,
      "✖": 747,
      "✘": 748,
      "✜": 749,
      "✨": 750,
      "✰": 751,
      "✲": 752,
      "✽": 753,
      "✾": 754,
      "✿": 755,
      "❀": 756,
      "❄": 757,
      "❅": 758,
      "❌": 759,
      "❏": 760,
      "❓": 761,
      "❖": 762,
      "❗": 763,
      "❘": 764,
      "❝": 765,
      "❣": 766,
      "❤": 767,
      "❥": 768,
      "➆": 769,
      "➋": 770,
      "➔": 771,
      "➜": 772,
      "➝": 773,
      "➠": 774,
      "➡": 775,
      "➢": 776,
      "➤": 777,
      "➨": 778,
      "➽": 779,
      "⟶": 780,
      "⠀": 781,
      "⦁": 782,
      "⫹": 783,
      "⫺": 784,
      "⬅": 785,
      "⬇": 786,
      "⭐": 787,
      "、": 788,
      "。": 789,
      "〃": 790,
      "《": 791,
      "》": 792,
      "「": 793,
      "」": 794,
      "【": 795,
      "】": 796,
      "〰": 797,
      "あ": 798,
      "い": 799,
      "う": 800,
      "え": 801,
      "お": 802,
      "か": 803,
      "が": 804,
      "き": 805,
      "く": 806,
      "け": 807,
      "げ": 808,
      "こ": 809,
      "ご": 810,
      "さ": 811,
      "ざ": 812,
      "し": 813,
      "じ": 814,
      "す": 815,
      "ず": 816,
      "せ": 817,
      "そ": 818,
      "た": 819,
      "だ": 820,
      "ち": 821,
      "っ": 822,
      "つ": 823,
      "て": 824,
      "で": 825,
      "と": 826,
      "ど": 827,
      "な": 828,
      "に": 829,
      "ね": 830,
      "の": 831,
      "は": 832,
      "ば": 833,
      "ぱ": 834,
      "ひ": 835,
      "ふ": 836,
      "へ": 837,
      "べ": 838,
      "ほ": 839,
      "ま": 840,
      "み": 841,
      "め": 842,
      "も": 843,
      "や": 844,
      "よ": 845,
      "ら": 846,
      "り": 847,
      "る": 848,
      "れ": 849,
      "わ": 850,
      "を": 851,
      "ん": 852,
      "ア": 853,
      "ィ": 854,
      "イ": 855,
      "ウ": 856,
      "ェ": 857,
      "オ": 858,
      "カ": 859,
      "ガ": 860,
      "キ": 861,
      "ギ": 862,
      "ク": 863,
      "グ": 864,
      "ケ": 865,
      "コ": 866,
      "サ": 867,
      "ザ": 868,
      "シ": 869,
      "ジ": 870,
      "ス": 871,
      "ズ": 872,
      "セ": 873,
      "ゾ": 874,
      "タ": 875,
      "チ": 876,
      "ッ": 877,
      "ツ": 878,
      "テ": 879,
      "デ": 880,
      "ト": 881,
      "ド": 882,
      "ナ": 883,
      "ニ": 884,
      "ネ": 885,
      "ノ": 886,
      "ハ": 887,
      "バ": 888,
      "パ": 889,
      "ヒ": 890,
      "ビ": 891,
      "ピ": 892,
      "フ": 893,
      "ブ": 894,
      "プ": 895,
      "ペ": 896,
      "ホ": 897,
      "ボ": 898,
      "ポ": 899,
      "マ": 900,
      "ミ": 901,
      "ム": 902,
      "メ": 903,
      "モ": 904,
      "ャ": 905,
      "ュ": 906,
      "ユ": 907,
      "ョ": 908,
      "ラ": 909,
      "リ": 910,
      "ル": 911,
      "レ": 912,
      "ロ": 913,
      "ン": 914,
      "ヵ": 915,
      "・": 916,
      "ー": 917,
      "ヾ": 918,
      "㋡": 919,
      "一": 920,
      "七": 921,
      "万": 922,
      "丈": 923,
      "三": 924,
      "上": 925,
      "下": 926,
      "不": 927,
      "与": 928,
      "专": 929,
      "且": 930,
      "世": 931,
      "业": 932,
      "东": 933,
      "两": 934,
      "个": 935,
      "中": 936,
      "串": 937,
      "临": 938,
      "丹": 939,
      "为": 940,
      "主": 941,
      "丽": 942,
      "么": 943,
      "之": 944,
      "乌": 945,
      "乎": 946,
      "乏": 947,
      "乐": 948,
      "乗": 949,
      "也": 950,
      "了": 951,
      "事": 952,
      "二": 953,
      "于": 954,
      "云": 955,
      "五": 956,
      "井": 957,
      "些": 958,
      "亜": 959,
      "交": 960,
      "产": 961,
      "京": 962,
      "亮": 963,
      "亲": 964,
      "人": 965,
      "亿": 966,
      "什": 967,
      "仁": 968,
      "今": 969,
      "介": 970,
      "从": 971,
      "仓": 972,
      "他": 973,
      "代": 974,
      "以": 975,
      "们": 976,
      "仲": 977,
      "件": 978,
      "任": 979,
      "份": 980,
      "企": 981,
      "伏": 982,
      "众": 983,
      "优": 984,
      "会": 985,
      "伝": 986,
      "伟": 987,
      "传": 988,
      "似": 989,
      "但": 990,
      "位": 991,
      "低": 992,
      "住": 993,
      "体": 994,
      "何": 995,
      "佗": 996,
      "作": 997,
      "你": 998,
      "佩": 999,
      "使": 1000,
      "供": 1001,
      "依": 1002,
      "価": 1003,
      "侧": 1004,
      "保": 1005,
      "信": 1006,
      "修": 1007,
      "倒": 1008,
      "候": 1009,
      "借": 1010,
      "债": 1011,
      "做": 1012,
      "停": 1013,
      "储": 1014,
      "傾": 1015,
      "像": 1016,
      "儒": 1017,
      "優": 1018,
      "兀": 1019,
      "元": 1020,
      "先": 1021,
      "光": 1022,
      "免": 1023,
      "児": 1024,
      "入": 1025,
      "全": 1026,
      "八": 1027,
      "公": 1028,
      "六": 1029,
      "兰": 1030,
      "共": 1031,
      "关": 1032,
      "兵": 1033,
      "其": 1034,
      "具": 1035,
      "典": 1036,
      "内": 1037,
      "円": 1038,
      "册": 1039,
      "写": 1040,
      "农": 1041,
      "决": 1042,
      "准": 1043,
      "几": 1044,
      "凭": 1045,
      "凸": 1046,
      "出": 1047,
      "击": 1048,
      "分": 1049,
      "划": 1050,
      "列": 1051,
      "创": 1052,
      "初": 1053,
      "別": 1054,
      "利": 1055,
      "别": 1056,
      "到": 1057,
      "制": 1058,
      "前": 1059,
      "力": 1060,
      "办": 1061,
      "功": 1062,
      "加": 1063,
      "务": 1064,
      "动": 1065,
      "助": 1066,
      "努": 1067,
      "効": 1068,
      "势": 1069,
      "動": 1070,
      "務": 1071,
      "募": 1072,
      "包": 1073,
      "化": 1074,
      "北": 1075,
      "区": 1076,
      "医": 1077,
      "升": 1078,
      "华": 1079,
      "单": 1080,
      "卖": 1081,
      "南": 1082,
      "卡": 1083,
      "印": 1084,
      "厂": 1085,
      "压": 1086,
      "原": 1087,
      "去": 1088,
      "县": 1089,
      "及": 1090,
      "友": 1091,
      "双": 1092,
      "发": 1093,
      "取": 1094,
      "受": 1095,
      "古": 1096,
      "另": 1097,
      "召": 1098,
      "叭": 1099,
      "叮": 1100,
      "可": 1101,
      "台": 1102,
      "史": 1103,
      "右": 1104,
      "号": 1105,
      "司": 1106,
      "吃": 1107,
      "各": 1108,
      "合": 1109,
      "同": 1110,
      "名": 1111,
      "后": 1112,
      "向": 1113,
      "吗": 1114,
      "否": 1115,
      "吧": 1116,
      "含": 1117,
      "听": 1118,
      "吹": 1119,
      "告": 1120,
      "员": 1121,
      "周": 1122,
      "命": 1123,
      "和": 1124,
      "咫": 1125,
      "品": 1126,
      "哈": 1127,
      "响": 1128,
      "員": 1129,
      "哪": 1130,
      "唤": 1131,
      "售": 1132,
      "商": 1133,
      "善": 1134,
      "喇": 1135,
      "喚": 1136,
      "喰": 1137,
      "営": 1138,
      "嘉": 1139,
      "嘱": 1140,
      "器": 1141,
      "四": 1142,
      "回": 1143,
      "因": 1144,
      "团": 1145,
      "困": 1146,
      "図": 1147,
      "固": 1148,
      "国": 1149,
      "图": 1150,
      "圈": 1151,
      "園": 1152,
      "土": 1153,
      "圧": 1154,
      "在": 1155,
      "地": 1156,
      "圳": 1157,
      "场": 1158,
      "坊": 1159,
      "块": 1160,
      "坚": 1161,
      "坛": 1162,
      "坡": 1163,
      "型": 1164,
      "城": 1165,
      "域": 1166,
      "報": 1167,
      "場": 1168,
      "塑": 1169,
      "境": 1170,
      "壊": 1171,
      "声": 1172,
      "売": 1173,
      "备": 1174,
      "変": 1175,
      "夏": 1176,
      "外": 1177,
      "多": 1178,
      "够": 1179,
      "夢": 1180,
      "大": 1181,
      "天": 1182,
      "太": 1183,
      "夫": 1184,
      "失": 1185,
      "头": 1186,
      "夹": 1187,
      "女": 1188,
      "奴": 1189,
      "好": 1190,
      "如": 1191,
      "妖": 1192,
      "委": 1193,
      "婁": 1194,
      "子": 1195,
      "存": 1196,
      "学": 1197,
      "宅": 1198,
      "守": 1199,
      "安": 1200,
      "完": 1201,
      "官": 1202,
      "定": 1203,
      "实": 1204,
      "実": 1205,
      "客": 1206,
      "室": 1207,
      "家": 1208,
      "容": 1209,
      "宾": 1210,
      "寂": 1211,
      "寄": 1212,
      "寮": 1213,
      "对": 1214,
      "寺": 1215,
      "寻": 1216,
      "封": 1217,
      "専": 1218,
      "射": 1219,
      "将": 1220,
      "小": 1221,
      "少": 1222,
      "尔": 1223,
      "尘": 1224,
      "就": 1225,
      "尸": 1226,
      "居": 1227,
      "届": 1228,
      "屋": 1229,
      "展": 1230,
      "属": 1231,
      "山": 1232,
      "岗": 1233,
      "岡": 1234,
      "峰": 1235,
      "島": 1236,
      "川": 1237,
      "州": 1238,
      "工": 1239,
      "左": 1240,
      "巧": 1241,
      "差": 1242,
      "己": 1243,
      "巾": 1244,
      "市": 1245,
      "布": 1246,
      "师": 1247,
      "希": 1248,
      "带": 1249,
      "師": 1250,
      "席": 1251,
      "帰": 1252,
      "常": 1253,
      "帽": 1254,
      "幅": 1255,
      "干": 1256,
      "平": 1257,
      "年": 1258,
      "幸": 1259,
      "幼": 1260,
      "广": 1261,
      "広": 1262,
      "库": 1263,
      "应": 1264,
      "底": 1265,
      "店": 1266,
      "度": 1267,
      "廊": 1268,
      "建": 1269,
      "开": 1270,
      "异": 1271,
      "弊": 1272,
      "式": 1273,
      "弟": 1274,
      "弯": 1275,
      "弱": 1276,
      "强": 1277,
      "归": 1278,
      "当": 1279,
      "彬": 1280,
      "影": 1281,
      "彼": 1282,
      "很": 1283,
      "律": 1284,
      "後": 1285,
      "得": 1286,
      "御": 1287,
      "徴": 1288,
      "德": 1289,
      "心": 1290,
      "必": 1291,
      "志": 1292,
      "応": 1293,
      "念": 1294,
      "态": 1295,
      "怎": 1296,
      "思": 1297,
      "性": 1298,
      "怪": 1299,
      "息": 1300,
      "恵": 1301,
      "您": 1302,
      "情": 1303,
      "惜": 1304,
      "想": 1305,
      "意": 1306,
      "感": 1307,
      "慈": 1308,
      "態": 1309,
      "慮": 1310,
      "戏": 1311,
      "成": 1312,
      "我": 1313,
      "或": 1314,
      "戴": 1315,
      "房": 1316,
      "所": 1317,
      "手": 1318,
      "扎": 1319,
      "托": 1320,
      "扮": 1321,
      "扱": 1322,
      "承": 1323,
      "技": 1324,
      "抜": 1325,
      "択": 1326,
      "护": 1327,
      "报": 1328,
      "抹": 1329,
      "拓": 1330,
      "招": 1331,
      "拠": 1332,
      "拥": 1333,
      "括": 1334,
      "持": 1335,
      "指": 1336,
      "掃": 1337,
      "掉": 1338,
      "排": 1339,
      "接": 1340,
      "推": 1341,
      "掲": 1342,
      "描": 1343,
      "提": 1344,
      "揚": 1345,
      "換": 1346,
      "援": 1347,
      "搞": 1348,
      "搬": 1349,
      "摆": 1350,
      "支": 1351,
      "收": 1352,
      "改": 1353,
      "放": 1354,
      "政": 1355,
      "故": 1356,
      "效": 1357,
      "教": 1358,
      "敢": 1359,
      "敬": 1360,
      "整": 1361,
      "文": 1362,
      "料": 1363,
      "断": 1364,
      "斯": 1365,
      "新": 1366,
      "方": 1367,
      "施": 1368,
      "族": 1369,
      "日": 1370,
      "旨": 1371,
      "早": 1372,
      "时": 1373,
      "昌": 1374,
      "明": 1375,
      "易": 1376,
      "星": 1377,
      "是": 1378,
      "显": 1379,
      "時": 1380,
      "晚": 1381,
      "普": 1382,
      "景": 1383,
      "晶": 1384,
      "智": 1385,
      "暗": 1386,
      "曲": 1387,
      "更": 1388,
      "書": 1389,
      "替": 1390,
      "最": 1391,
      "月": 1392,
      "有": 1393,
      "服": 1394,
      "望": 1395,
      "期": 1396,
      "木": 1397,
      "未": 1398,
      "本": 1399,
      "术": 1400,
      "机": 1401,
      "权": 1402,
      "杆": 1403,
      "李": 1404,
      "材": 1405,
      "村": 1406,
      "杠": 1407,
      "来": 1408,
      "杯": 1409,
      "東": 1410,
      "松": 1411,
      "板": 1412,
      "极": 1413,
      "构": 1414,
      "果": 1415,
      "架": 1416,
      "某": 1417,
      "柔": 1418,
      "查": 1419,
      "标": 1420,
      "校": 1421,
      "株": 1422,
      "样": 1423,
      "核": 1424,
      "格": 1425,
      "案": 1426,
      "桜": 1427,
      "桥": 1428,
      "梅": 1429,
      "梯": 1430,
      "械": 1431,
      "棒": 1432,
      "森": 1433,
      "楊": 1434,
      "楚": 1435,
      "業": 1436,
      "楽": 1437,
      "榄": 1438,
      "構": 1439,
      "様": 1440,
      "模": 1441,
      "権": 1442,
      "橋": 1443,
      "橡": 1444,
      "權": 1445,
      "次": 1446,
      "款": 1447,
      "歐": 1448,
      "正": 1449,
      "此": 1450,
      "步": 1451,
      "武": 1452,
      "歧": 1453,
      "殘": 1454,
      "比": 1455,
      "毕": 1456,
      "氏": 1457,
      "民": 1458,
      "气": 1459,
      "気": 1460,
      "水": 1461,
      "求": 1462,
      "汉": 1463,
      "汕": 1464,
      "汚": 1465,
      "江": 1466,
      "池": 1467,
      "決": 1468,
      "汽": 1469,
      "沂": 1470,
      "没": 1471,
      "沢": 1472,
      "沧": 1473,
      "河": 1474,
      "油": 1475,
      "治": 1476,
      "況": 1477,
      "法": 1478,
      "注": 1479,
      "泵": 1480,
      "洗": 1481,
      "津": 1482,
      "活": 1483,
      "流": 1484,
      "测": 1485,
      "济": 1486,
      "浪": 1487,
      "海": 1488,
      "涂": 1489,
      "消": 1490,
      "润": 1491,
      "深": 1492,
      "清": 1493,
      "游": 1494,
      "湖": 1495,
      "湛": 1496,
      "湯": 1497,
      "源": 1498,
      "溶": 1499,
      "滨": 1500,
      "演": 1501,
      "激": 1502,
      "火": 1503,
      "炎": 1504,
      "炫": 1505,
      "点": 1506,
      "為": 1507,
      "炼": 1508,
      "烏": 1509,
      "烟": 1510,
      "無": 1511,
      "然": 1512,
      "照": 1513,
      "熔": 1514,
      "片": 1515,
      "版": 1516,
      "牛": 1517,
      "物": 1518,
      "特": 1519,
      "状": 1520,
      "狗": 1521,
      "独": 1522,
      "狼": 1523,
      "猛": 1524,
      "獲": 1525,
      "率": 1526,
      "王": 1527,
      "玩": 1528,
      "现": 1529,
      "玻": 1530,
      "珍": 1531,
      "珠": 1532,
      "現": 1533,
      "球": 1534,
      "理": 1535,
      "琪": 1536,
      "璃": 1537,
      "環": 1538,
      "瓷": 1539,
      "生": 1540,
      "産": 1541,
      "用": 1542,
      "田": 1543,
      "由": 1544,
      "申": 1545,
      "电": 1546,
      "画": 1547,
      "界": 1548,
      "番": 1549,
      "異": 1550,
      "疗": 1551,
      "疲": 1552,
      "癃": 1553,
      "白": 1554,
      "皂": 1555,
      "的": 1556,
      "益": 1557,
      "监": 1558,
      "盘": 1559,
      "盛": 1560,
      "盟": 1561,
      "目": 1562,
      "直": 1563,
      "相": 1564,
      "省": 1565,
      "看": 1566,
      "県": 1567,
      "真": 1568,
      "眼": 1569,
      "着": 1570,
      "瞻": 1571,
      "矢": 1572,
      "知": 1573,
      "石": 1574,
      "研": 1575,
      "破": 1576,
      "硬": 1577,
      "确": 1578,
      "硼": 1579,
      "碎": 1580,
      "碳": 1581,
      "示": 1582,
      "礼": 1583,
      "社": 1584,
      "祖": 1585,
      "神": 1586,
      "禁": 1587,
      "福": 1588,
      "私": 1589,
      "秋": 1590,
      "种": 1591,
      "科": 1592,
      "称": 1593,
      "移": 1594,
      "程": 1595,
      "種": 1596,
      "穏": 1597,
      "空": 1598,
      "突": 1599,
      "立": 1600,
      "站": 1601,
      "竜": 1602,
      "章": 1603,
      "端": 1604,
      "竹": 1605,
      "第": 1606,
      "等": 1607,
      "筒": 1608,
      "策": 1609,
      "筷": 1610,
      "简": 1611,
      "箇": 1612,
      "管": 1613,
      "箱": 1614,
      "築": 1615,
      "篮": 1616,
      "籍": 1617,
      "类": 1618,
      "粒": 1619,
      "糊": 1620,
      "系": 1621,
      "紙": 1622,
      "級": 1623,
      "素": 1624,
      "紧": 1625,
      "細": 1626,
      "紹": 1627,
      "組": 1628,
      "経": 1629,
      "絡": 1630,
      "統": 1631,
      "絵": 1632,
      "続": 1633,
      "綠": 1634,
      "編": 1635,
      "繁": 1636,
      "级": 1637,
      "纪": 1638,
      "纳": 1639,
      "纸": 1640,
      "线": 1641,
      "经": 1642,
      "绝": 1643,
      "统": 1644,
      "绿": 1645,
      "缆": 1646,
      "编": 1647,
      "缘": 1648,
      "缩": 1649,
      "缺": 1650,
      "罐": 1651,
      "网": 1652,
      "罪": 1653,
      "美": 1654,
      "群": 1655,
      "羲": 1656,
      "翼": 1657,
      "考": 1658,
      "者": 1659,
      "而": 1660,
      "耳": 1661,
      "联": 1662,
      "聘": 1663,
      "聚": 1664,
      "聯": 1665,
      "職": 1666,
      "聽": 1667,
      "肘": 1668,
      "股": 1669,
      "育": 1670,
      "胶": 1671,
      "能": 1672,
      "腐": 1673,
      "膚": 1674,
      "臂": 1675,
      "自": 1676,
      "至": 1677,
      "致": 1678,
      "舎": 1679,
      "舒": 1680,
      "良": 1681,
      "色": 1682,
      "艾": 1683,
      "节": 1684,
      "芊": 1685,
      "芦": 1686,
      "花": 1687,
      "苏": 1688,
      "苦": 1689,
      "苯": 1690,
      "英": 1691,
      "茶": 1692,
      "荐": 1693,
      "荘": 1694,
      "莞": 1695,
      "華": 1696,
      "营": 1697,
      "落": 1698,
      "葉": 1699,
      "著": 1700,
      "蘭": 1701,
      "融": 1702,
      "血": 1703,
      "衆": 1704,
      "行": 1705,
      "術": 1706,
      "街": 1707,
      "衞": 1708,
      "衣": 1709,
      "表": 1710,
      "装": 1711,
      "裕": 1712,
      "製": 1713,
      "襄": 1714,
      "西": 1715,
      "要": 1716,
      "見": 1717,
      "規": 1718,
      "視": 1719,
      "覧": 1720,
      "规": 1721,
      "视": 1722,
      "角": 1723,
      "解": 1724,
      "言": 1725,
      "計": 1726,
      "記": 1727,
      "設": 1728,
      "話": 1729,
      "詳": 1730,
      "誌": 1731,
      "認": 1732,
      "語": 1733,
      "誠": 1734,
      "説": 1735,
      "調": 1736,
      "請": 1737,
      "譲": 1738,
      "计": 1739,
      "议": 1740,
      "讯": 1741,
      "讲": 1742,
      "论": 1743,
      "设": 1744,
      "证": 1745,
      "评": 1746,
      "识": 1747,
      "试": 1748,
      "话": 1749,
      "该": 1750,
      "语": 1751,
      "说": 1752,
      "读": 1753,
      "调": 1754,
      "谩": 1755,
      "谷": 1756,
      "豆": 1757,
      "象": 1758,
      "販": 1759,
      "費": 1760,
      "賛": 1761,
      "購": 1762,
      "贅": 1763,
      "负": 1764,
      "贡": 1765,
      "责": 1766,
      "货": 1767,
      "贫": 1768,
      "购": 1769,
      "贸": 1770,
      "费": 1771,
      "资": 1772,
      "赖": 1773,
      "赤": 1774,
      "赦": 1775,
      "走": 1776,
      "赵": 1777,
      "起": 1778,
      "超": 1779,
      "跑": 1780,
      "跟": 1781,
      "路": 1782,
      "身": 1783,
      "軒": 1784,
      "載": 1785,
      "輪": 1786,
      "车": 1787,
      "轩": 1788,
      "转": 1789,
      "轮": 1790,
      "软": 1791,
      "较": 1792,
      "辆": 1793,
      "辉": 1794,
      "辑": 1795,
      "输": 1796,
      "辺": 1797,
      "込": 1798,
      "达": 1799,
      "过": 1800,
      "运": 1801,
      "近": 1802,
      "返": 1803,
      "还": 1804,
      "这": 1805,
      "连": 1806,
      "述": 1807,
      "送": 1808,
      "适": 1809,
      "通": 1810,
      "造": 1811,
      "連": 1812,
      "進": 1813,
      "遁": 1814,
      "遇": 1815,
      "過": 1816,
      "道": 1817,
      "適": 1818,
      "遵": 1819,
      "選": 1820,
      "遺": 1821,
      "那": 1822,
      "邦": 1823,
      "部": 1824,
      "都": 1825,
      "配": 1826,
      "酢": 1827,
      "酶": 1828,
      "酷": 1829,
      "酸": 1830,
      "采": 1831,
      "释": 1832,
      "里": 1833,
      "重": 1834,
      "量": 1835,
      "金": 1836,
      "鉄": 1837,
      "銃": 1838,
      "鋼": 1839,
      "鏡": 1840,
      "鐡": 1841,
      "钢": 1842,
      "钳": 1843,
      "铁": 1844,
      "铜": 1845,
      "链": 1846,
      "销": 1847,
      "锈": 1848,
      "锋": 1849,
      "错": 1850,
      "锻": 1851,
      "镇": 1852,
      "长": 1853,
      "門": 1854,
      "開": 1855,
      "閑": 1856,
      "間": 1857,
      "閲": 1858,
      "门": 1859,
      "间": 1860,
      "队": 1861,
      "阳": 1862,
      "阴": 1863,
      "际": 1864,
      "陆": 1865,
      "降": 1866,
      "限": 1867,
      "陕": 1868,
      "院": 1869,
      "除": 1870,
      "陰": 1871,
      "陳": 1872,
      "陽": 1873,
      "際": 1874,
      "障": 1875,
      "隣": 1876,
      "隷": 1877,
      "难": 1878,
      "雄": 1879,
      "雅": 1880,
      "集": 1881,
      "雑": 1882,
      "雜": 1883,
      "雷": 1884,
      "電": 1885,
      "静": 1886,
      "面": 1887,
      "鞍": 1888,
      "音": 1889,
      "韶": 1890,
      "頃": 1891,
      "頼": 1892,
      "類": 1893,
      "项": 1894,
      "顺": 1895,
      "须": 1896,
      "预": 1897,
      "领": 1898,
      "频": 1899,
      "颗": 1900,
      "题": 1901,
      "风": 1902,
      "食": 1903,
      "飼": 1904,
      "饰": 1905,
      "首": 1906,
      "駅": 1907,
      "験": 1908,
      "驶": 1909,
      "驾": 1910,
      "验": 1911,
      "體": 1912,
      "高": 1913,
      "鬼": 1914,
      "魅": 1915,
      "魔": 1916,
      "鲁": 1917,
      "鳥": 1918,
      "麿": 1919,
      "黄": 1920,
      "黑": 1921,
      "黒": 1922,
      "齐": 1923,
      "齡": 1924,
      "龙": 1925,
      "가": 1926,
      "개": 1927,
      "거": 1928,
      "게": 1929,
      "경": 1930,
      "계": 1931,
      "고": 1932,
      "공": 1933,
      "과": 1934,
      "관": 1935,
      "광": 1936,
      "교": 1937,
      "구": 1938,
      "국": 1939,
      "궁": 1940,
      "그": 1941,
      "급": 1942,
      "기": 1943,
      "꼭": 1944,
      "남": 1945,
      "내": 1946,
      "눇": 1947,
      "눉": 1948,
      "는": 1949,
      "능": 1950,
      "니": 1951,
      "다": 1952,
      "단": 1953,
      "닫": 1954,
      "대": 1955,
      "더": 1956,
      "덕": 1957,
      "도": 1958,
      "동": 1959,
      "될": 1960,
      "등": 1961,
      "또": 1962,
      "라": 1963,
      "랜": 1964,
      "령": 1965,
      "로": 1966,
      "롬": 1967,
      "뢰": 1968,
      "루": 1969,
      "를": 1970,
      "리": 1971,
      "린": 1972,
      "만": 1973,
      "많": 1974,
      "맹": 1975,
      "며": 1976,
      "면": 1977,
      "명": 1978,
      "모": 1979,
      "문": 1980,
      "민": 1981,
      "반": 1982,
      "발": 1983,
      "방": 1984,
      "버": 1985,
      "보": 1986,
      "부": 1987,
      "브": 1988,
      "비": 1989,
      "사": 1990,
      "산": 1991,
      "삼": 1992,
      "상": 1993,
      "서": 1994,
      "선": 1995,
      "설": 1996,
      "성": 1997,
      "세": 1998,
      "소": 1999,
      "속": 2000,
      "수": 2001,
      "스": 2002,
      "습": 2003,
      "시": 2004,
      "신": 2005,
      "실": 2006,
      "쌓": 2007,
      "아": 2008,
      "안": 2009,
      "약": 2010,
      "양": 2011,
      "어": 2012,
      "업": 2013,
      "없": 2014,
      "에": 2015,
      "여": 2016,
      "역": 2017,
      "열": 2018,
      "예": 2019,
      "옹": 2020,
      "와": 2021,
      "왔": 2022,
      "외": 2023,
      "요": 2024,
      "용": 2025,
      "우": 2026,
      "웃": 2027,
      "유": 2028,
      "으": 2029,
      "은": 2030,
      "을": 2031,
      "음": 2032,
      "의": 2033,
      "이": 2034,
      "인": 2035,
      "일": 2036,
      "임": 2037,
      "입": 2038,
      "있": 2039,
      "자": 2040,
      "장": 2041,
      "저": 2042,
      "전": 2043,
      "점": 2044,
      "접": 2045,
      "정": 2046,
      "제": 2047,
      "주": 2048,
      "중": 2049,
      "즈": 2050,
      "지": 2051,
      "진": 2052,
      "집": 2053,
      "차": 2054,
      "창": 2055,
      "천": 2056,
      "총": 2057,
      "축": 2058,
      "출": 2059,
      "콜": 2060,
      "터": 2061,
      "템": 2062,
      "통": 2063,
      "특": 2064,
      "판": 2065,
      "포": 2066,
      "프": 2067,
      "필": 2068,
      "하": 2069,
      "학": 2070,
      "한": 2071,
      "할": 2072,
      "해": 2073,
      "행": 2074,
      "혜": 2075,
      "호": 2076,
      "홍": 2077,
      "회": 2078,
      "흥": 2079,
      "히": 2080,
      "": 2081,
      "": 2082,
      "": 2083,
      "": 2084,
      "": 2085,
      "": 2086,
      "": 2087,
      "": 2088,
      "": 2089,
      "": 2090,
      "": 2091,
      "": 2092,
      "": 2093,
      "": 2094,
      "": 2095,
      "": 2096,
      "": 2097,
      "": 2098,
      "": 2099,
      "": 2100,
      "": 2101,
      "": 2102,
      "": 2103,
      "": 2104,
      "": 2105,
      "": 2106,
      "": 2107,
      "": 2108,
      "": 2109,
      "": 2110,
      "": 2111,
      "": 2112,
      "": 2113,
      "": 2114,
      "": 2115,
      "": 2116,
      "": 2117,
      "": 2118,
      "": 2119,
      "": 2120,
      "": 2121,
      "": 2122,
      "": 2123,
      "": 2124,
      "": 2125,
      "": 2126,
      "": 2127,
      "": 2128,
      "": 2129,
      "": 2130,
      "": 2131,
      "": 2132,
      "": 2133,
      "": 2134,
      "": 2135,
      "": 2136,
      "": 2137,
      "": 2138,
      "": 2139,
      "": 2140,
      "": 2141,
      "": 2142,
      "": 2143,
      "": 2144,
      "": 2145,
      "": 2146,
      "": 2147,
      "": 2148,
      "": 2149,
      "": 2150,
      "": 2151,
      "": 2152,
      "": 2153,
      "": 2154,
      "": 2155,
      "": 2156,
      "": 2157,
      "": 2158,
      "": 2159,
      "": 2160,
      "": 2161,
      "": 2162,
      "": 2163,
      "": 2164,
      "": 2165,
      "": 2166,
      "": 2167,
      "": 2168,
      "": 2169,
      "": 2170,
      "": 2171,
      "": 2172,
      "": 2173,
      "": 2174,
      "": 2175,
      "": 2176,
      "": 2177,
      "": 2178,
      "": 2179,
      "": 2180,
      "": 2181,
      "": 2182,
      "": 2183,
      "": 2184,
      "": 2185,
      "": 2186,
      "": 2187,
      "": 2188,
      "": 2189,
      "": 2190,
      "": 2191,
      "": 2192,
      "": 2193,
      "": 2194,
      "": 2195,
      "": 2196,
      "": 2197,
      "": 2198,
      "": 2199,
      "": 2200,
      "": 2201,
      "": 2202,
      "": 2203,
      "": 2204,
      "": 2205,
      "": 2206,
      "": 2207,
      "": 2208,
      "": 2209,
      "": 2210,
      "": 2211,
      "": 2212,
      "": 2213,
      "": 2214,
      "": 2215,
      "": 2216,
      "": 2217,
      "蘿": 2218,
      "珞": 2219,
      "藍": 2220,
      "來": 2221,
      "ﬀ": 2222,
      "ﬁ": 2223,
      "ﬂ": 2224,
      "ﷺ": 2225,
      "﷽": 2226,
      "︎": 2227,
      "️": 2228,
      "﻿": 2229,
      "！": 2230,
      "＆": 2231,
      "（": 2232,
      "）": 2233,
      "，": 2234,
      "６": 2235,
      "：": 2236,
      "；": 2237,
      "＜": 2238,
      "＞": 2239,
      "？": 2240,
      "＾": 2241,
      "｀": 2242,
      "ａ": 2243,
      "ｅ": 2244,
      "ｇ": 2245,
      "ｉ": 2246,
      "ｎ": 2247,
      "ｐ": 2248,
      "ｓ": 2249,
      "ｔ": 2250,
      "ｖ": 2251,
      "｜": 2252,
      "～": 2253,
      "､": 2254,
      "･": 2255,
      "ﾉ": 2256,
      "￼": 2257,
      "�": 2258,
      "🅰": 2259,
      "🅲": 2260,
      "🅴": 2261,
      "🅻": 2262,
      "🅾": 2263,
      "🆁": 2264,
      "🆕": 2265,
      "🆙": 2266,
      "🇦": 2267,
      "🇧": 2268,
      "🇨": 2269,
      "🇪": 2270,
      "🇫": 2271,
      "🇬": 2272,
      "🇭": 2273,
      "🇮": 2274,
      "🇲": 2275,
      "🇳": 2276,
      "🇴": 2277,
      "🇵": 2278,
      "🇷": 2279,
      "🇸": 2280,
      "🇹": 2281,
      "🇺": 2282,
      "🇻": 2283,
      "🇽": 2284,
      "🇾": 2285,
      "🌀": 2286,
      "🌃": 2287,
      "🌈": 2288,
      "🌊": 2289,
      "🌎": 2290,
      "🌐": 2291,
      "🌑": 2292,
      "🌞": 2293,
      "🌟": 2294,
      "🌭": 2295,
      "🌱": 2296,
      "🌳": 2297,
      "🌴": 2298,
      "🌶": 2299,
      "🌷": 2300,
      "🌸": 2301,
      "🌹": 2302,
      "🌺": 2303,
      "🌻": 2304,
      "🌽": 2305,
      "🌾": 2306,
      "🌿": 2307,
      "🍀": 2308,
      "🍁": 2309,
      "🍄": 2310,
      "🍅": 2311,
      "🍆": 2312,
      "🍇": 2313,
      "🍉": 2314,
      "🍋": 2315,
      "🍌": 2316,
      "🍍": 2317,
      "🍎": 2318,
      "🍏": 2319,
      "🍑": 2320,
      "🍒": 2321,
      "🍓": 2322,
      "🍔": 2323,
      "🍗": 2324,
      "🍚": 2325,
      "🍛": 2326,
      "🍜": 2327,
      "🍝": 2328,
      "🍠": 2329,
      "🍤": 2330,
      "🍪": 2331,
      "🍫": 2332,
      "🍬": 2333,
      "🍯": 2334,
      "🍰": 2335,
      "🍲": 2336,
      "🍳": 2337,
      "🍷": 2338,
      "🍸": 2339,
      "🍹": 2340,
      "🍺": 2341,
      "🍻": 2342,
      "🍽": 2343,
      "🍿": 2344,
      "🎁": 2345,
      "🎂": 2346,
      "🎃": 2347,
      "🎄": 2348,
      "🎅": 2349,
      "🎈": 2350,
      "🎉": 2351,
      "🎊": 2352,
      "🎒": 2353,
      "🎗": 2354,
      "🎙": 2355,
      "🎝": 2356,
      "🎞": 2357,
      "🎟": 2358,
      "🎠": 2359,
      "🎣": 2360,
      "🎤": 2361,
      "🎥": 2362,
      "🎧": 2363,
      "🎨": 2364,
      "🎪": 2365,
      "🎫": 2366,
      "🎬": 2367,
      "🎭": 2368,
      "🎮": 2369,
      "🎯": 2370,
      "🎶": 2371,
      "🎸": 2372,
      "🎹": 2373,
      "🎼": 2374,
      "🎾": 2375,
      "🏀": 2376,
      "🏂": 2377,
      "🏃": 2378,
      "🏆": 2379,
      "🏈": 2380,
      "🏉": 2381,
      "🏍": 2382,
      "🏎": 2383,
      "🏐": 2384,
      "🏖": 2385,
      "🏜": 2386,
      "🏝": 2387,
      "🏟": 2388,
      "🏠": 2389,
      "🏡": 2390,
      "🏥": 2391,
      "🏩": 2392,
      "🏯": 2393,
      "🏳": 2394,
      "🏴": 2395,
      "🏺": 2396,
      "🏻": 2397,
      "🏼": 2398,
      "🏽": 2399,
      "🏾": 2400,
      "🐀": 2401,
      "🐈": 2402,
      "🐕": 2403,
      "🐚": 2404,
      "🐝": 2405,
      "🐞": 2406,
      "🐟": 2407,
      "🐩": 2408,
      "🐱": 2409,
      "🐶": 2410,
      "🐸": 2411,
      "🐾": 2412,
      "👀": 2413,
      "👁": 2414,
      "👅": 2415,
      "👆": 2416,
      "👇": 2417,
      "👈": 2418,
      "👉": 2419,
      "👊": 2420,
      "👋": 2421,
      "👌": 2422,
      "👍": 2423,
      "👏": 2424,
      "👐": 2425,
      "👑": 2426,
      "👒": 2427,
      "👖": 2428,
      "👗": 2429,
      "👚": 2430,
      "👛": 2431,
      "👜": 2432,
      "👠": 2433,
      "👡": 2434,
      "👢": 2435,
      "👣": 2436,
      "👤": 2437,
      "👦": 2438,
      "👧": 2439,
      "👨": 2440,
      "👩": 2441,
      "👫": 2442,
      "👭": 2443,
      "👯": 2444,
      "👷": 2445,
      "👺": 2446,
      "👿": 2447,
      "💁": 2448,
      "💃": 2449,
      "💄": 2450,
      "💅": 2451,
      "💆": 2452,
      "💇": 2453,
      "💉": 2454,
      "💋": 2455,
      "💍": 2456,
      "💎": 2457,
      "💓": 2458,
      "💔": 2459,
      "💕": 2460,
      "💖": 2461,
      "💗": 2462,
      "💙": 2463,
      "💚": 2464,
      "💛": 2465,
      "💜": 2466,
      "💝": 2467,
      "💞": 2468,
      "💡": 2469,
      "💣": 2470,
      "💤": 2471,
      "💥": 2472,
      "💨": 2473,
      "💩": 2474,
      "💪": 2475,
      "💫": 2476,
      "💬": 2477,
      "💭": 2478,
      "💯": 2479,
      "💰": 2480,
      "💳": 2481,
      "💸": 2482,
      "💻": 2483,
      "📀": 2484,
      "📃": 2485,
      "📅": 2486,
      "📆": 2487,
      "📍": 2488,
      "📓": 2489,
      "📔": 2490,
      "📕": 2491,
      "📖": 2492,
      "📚": 2493,
      "📝": 2494,
      "📞": 2495,
      "📟": 2496,
      "📢": 2497,
      "📣": 2498,
      "📥": 2499,
      "📦": 2500,
      "📧": 2501,
      "📨": 2502,
      "📩": 2503,
      "📱": 2504,
      "📲": 2505,
      "📷": 2506,
      "📸": 2507,
      "📹": 2508,
      "📺": 2509,
      "📻": 2510,
      "📼": 2511,
      "📽": 2512,
      "📿": 2513,
      "🔊": 2514,
      "🔋": 2515,
      "🔎": 2516,
      "🔔": 2517,
      "🔖": 2518,
      "🔜": 2519,
      "🔝": 2520,
      "🔥": 2521,
      "🔧": 2522,
      "🔩": 2523,
      "🔪": 2524,
      "🔫": 2525,
      "🔮": 2526,
      "🔰": 2527,
      "🔴": 2528,
      "🔵": 2529,
      "🕊": 2530,
      "🕍": 2531,
      "🕔": 2532,
      "🕕": 2533,
      "🕵": 2534,
      "🕺": 2535,
      "🖤": 2536,
      "🖱": 2537,
      "🗓": 2538,
      "🗣": 2539,
      "🗽": 2540,
      "😀": 2541,
      "😁": 2542,
      "😂": 2543,
      "😃": 2544,
      "😄": 2545,
      "😅": 2546,
      "😆": 2547,
      "😇": 2548,
      "😈": 2549,
      "😉": 2550,
      "😊": 2551,
      "😋": 2552,
      "😌": 2553,
      "😍": 2554,
      "😎": 2555,
      "😏": 2556,
      "😐": 2557,
      "😒": 2558,
      "😓": 2559,
      "😖": 2560,
      "😘": 2561,
      "😙": 2562,
      "😚": 2563,
      "😛": 2564,
      "😜": 2565,
      "😞": 2566,
      "😡": 2567,
      "😢": 2568,
      "😣": 2569,
      "😤": 2570,
      "😥": 2571,
      "😦": 2572,
      "😧": 2573,
      "😨": 2574,
      "😭": 2575,
      "😮": 2576,
      "😯": 2577,
      "😱": 2578,
      "😲": 2579,
      "😳": 2580,
      "😷": 2581,
      "🙁": 2582,
      "🙂": 2583,
      "🙄": 2584,
      "🙅": 2585,
      "🙆": 2586,
      "🙊": 2587,
      "🙋": 2588,
      "🙌": 2589,
      "🙏": 2590,
      "🚂": 2591,
      "🚌": 2592,
      "🚘": 2593,
      "🚛": 2594,
      "🚨": 2595,
      "🚫": 2596,
      "🚲": 2597,
      "🚴": 2598,
      "🚷": 2599,
      "🛀": 2600,
      "🛋": 2601,
      "🛍": 2602,
      "🛠": 2603,
      "🛫": 2604,
      "🡺": 2605,
      "🤓": 2606,
      "🤔": 2607,
      "🤖": 2608,
      "🤗": 2609,
      "🤘": 2610,
      "🤞": 2611,
      "🤠": 2612,
      "🤣": 2613,
      "🤤": 2614,
      "🤦": 2615,
      "🤨": 2616,
      "🤩": 2617,
      "🤪": 2618,
      "🤭": 2619,
      "🤶": 2620,
      "🤷": 2621,
      "🤽": 2622,
      "🥂": 2623,
      "🥅": 2624,
      "🥇": 2625,
      "🥈": 2626,
      "🥊": 2627,
      "🥔": 2628,
      "🥕": 2629,
      "🥞": 2630,
      "🥣": 2631,
      "🥦": 2632,
      "🥰": 2633,
      "🥳": 2634,
      "🦁": 2635,
      "🦃": 2636,
      "🦔": 2637,
      "🦹": 2638,
      "🧐": 2639,
      "🧚": 2640,
      "🧛": 2641,
      "🧟": 2642,
      "🧠": 2643,
      "󠁢": 2644,
      "󠁣": 2645,
      "󠁥": 2646,
      "󠁧": 2647,
      "󠁮": 2648,
      "󠁳": 2649,
      "󠁴": 2650,
      "󠁿": 2651,
      "󰀰": 2652,
      "##n": 2653,
      "##s": 2654,
      "##t": 2655,
      "##a": 2656,
      "##g": 2657,
      "##r": 2658,
      "##m": 2659,
      "##p": 2660,
      "##l": 2661,
      "##z": 2662,
      "##e": 2663,
      "##d": 2664,
      "##ñ": 2665,
      "##o": 2666,
      "##c": 2667,
      "##i": 2668,
      "##b": 2669,
      "##2": 2670,
      "##0": 2671,
      "##6": 2672,
      "##7": 2673,
      "##x": 2674,
      "##u": 2675,
      "##é": 2676,
      "##k": 2677,
      "##f": 2678,
      "##í": 2679,
      "##h": 2680,
      "##y": 2681,
      "##á": 2682,
      "##4": 2683,
      "##3": 2684,
      "##€": 2685,
      "##q": 2686,
      "##v": 2687,
      "##9": 2688,
      "##1": 2689,
      "##ó": 2690,
      "##�": 2691,
      "##™": 2692,
      "##j": 2693,
      "##ú": 2694,
      "##ª": 2695,
      "##8": 2696,
      "##ã": 2697,
      "##±": 2698,
      "##w": 2699,
      "##5": 2700,
      "##◐": 2701,
      "##◡": 2702,
      "##✾": 2703,
      "##́": 2704,
      "##å": 2705,
      "##´": 2706,
      "##³": 2707,
      "##č": 2708,
      "##è": 2709,
      "##­": 2710,
      "##ü": 2711,
      "##レ": 2712,
      "##ス": 2713,
      "##ミ": 2714,
      "##サ": 2715,
      "##イ": 2716,
      "##ル": 2717,
      "##®": 2718,
      "##̃": 2719,
      "##à": 2720,
      "##ı": 2721,
      "##ì": 2722,
      "##습": 2723,
      "##니": 2724,
      "##다": 2725,
      "##ﬁ": 2726,
      "##ż": 2727,
      "##о": 2728,
      "##з": 2729,
      "##д": 2730,
      "##у": 2731,
      "##х": 2732,
      "##ч": 2733,
      "##и": 2734,
      "##с": 2735,
      "##т": 2736,
      "##е": 2737,
      "##л": 2738,
      "##°": 2739,
      "##ç": 2740,
      "##ò": 2741,
      "##ğ": 2742,
      "##×": 2743,
      "##ī": 2744,
      "##ί": 2745,
      "##ζ": 2746,
      "##α": 2747,
      "##ę": 2748,
      "##舒": 2749,
      "##丹": 2750,
      "##ö": 2751,
      "##а": 2752,
      "##н": 2753,
      "##й": 2754,
      "##в": 2755,
      "##г": 2756,
      "##ø": 2757,
      "##지": 2758,
      "##될": 2759,
      "##χ": 2760,
      "##ν": 2761,
      "##ω": 2762,
      "##̇": 2763,
      "##ذ": 2764,
      "##ا": 2765,
      "##ن": 2766,
      "##ت": 2767,
      "##د": 2768,
      "##ر": 2769,
      "##â": 2770,
      "##¬": 2771,
      "##ä": 2772,
      "##ă": 2773,
      "##º": 2774,
      "##": 2775,
      "##©": 2776,
      "##​": 2777,
      "##看": 2778,
      "##最": 2779,
      "##新": 2780,
      "##行": 2781,
      "##情": 2782,
      "##š": 2783,
      "##ạ": 2784,
      "##장": 2785,
      "##ك": 2786,
      "##ب": 2787,
      "##→": 2788,
      "##¨": 2789,
      "##ы": 2790,
      "##р": 2791,
      "##ь": 2792,
      "##−": 2793,
      "##️": 2794,
      "##🏻": 2795,
      "##🙏": 2796,
      "##주": 2797,
      "##세": 2798,
      "##요": 2799,
      "##日": 2800,
      "##会": 2801,
      "##议": 2802,
      "##加": 2803,
      "##息": 2804,
      "##的": 2805,
      "##可": 2806,
      "##能": 2807,
      "##性": 2808,
      "##由": 2809,
      "##此": 2810,
      "##前": 2811,
      "##æ": 2812,
      "##동": 2813,
      "##차": 2814,
      "##к": 2815,
      "##ş": 2816,
      "##◅": 2817,
      "##来": 2818,
      "##記": 2819,
      "##ï": 2820,
      "##ả": 2821,
      "##圳": 2822,
      "##市": 2823,
      "##晶": 2824,
      "##美": 2825,
      "##润": 2826,
      "##科": 2827,
      "##技": 2828,
      "##有": 2829,
      "##限": 2830,
      "##公": 2831,
      "##司": 2832,
      "##î": 2833,
      "##ặ": 2834,
      "##б": 2835,
      "##ō": 2836,
      "##ữ": 2837,
      "##或": 2838,
      "##而": 2839,
      "##歧": 2840,
      "##任": 2841,
      "##何": 2842,
      "##人": 2843,
      "##£": 2844,
      "##☀": 2845,
      "##ý": 2846,
      "##½": 2847,
      "##ā": 2848,
      "##і": 2849,
      "##😣": 2850,
      "##😢": 2851,
      "##⭐": 2852,
      "##🎅": 2853,
      "##✨": 2854,
      "##└": 2855,
      "##‏": 2856,
      "##‎": 2857,
      "##ё": 2858,
      "##ヒ": 2859,
      "##ー": 2860,
      "##ロ": 2861,
      "##伝": 2862,
      "##説": 2863,
      "##λ": 2864,
      "##ά": 2865,
      "##δ": 2866,
      "##π": 2867,
      "##ι": 2868,
      "##κ": 2869,
      "##ε": 2870,
      "##φ": 2871,
      "##ή": 2872,
      "##ς": 2873,
      "##ë": 2874,
      "##莞": 2875,
      "##寮": 2876,
      "##步": 2877,
      "##圈": 2878,
      "##服": 2879,
      "##饰": 2880,
      "##制": 2881,
      "##衣": 2882,
      "##厂": 2883,
      "##怎": 2884,
      "##么": 2885,
      "##读": 2886,
      "##ê": 2887,
      "##の": 2888,
      "##湯": 2889,
      "##¼": 2890,
      "##\u0002": 2891,
      "##山": 2892,
      "##电": 2893,
      "##子": 2894,
      "##商": 2895,
      "##务": 2896,
      "##专": 2897,
      "##员": 2898,
      "##招": 2899,
      "##聘": 2900,
      "##": 2901,
      "##咫": 2902,
      "##烏": 2903,
      "##ш": 2904,
      "##ю": 2905,
      "##я": 2906,
      "##п": 2907,
      "##ồ": 2908,
      "##": 2909,
      "##平": 2910,
      "##台": 2911,
      "##将": 2912,
      "##不": 2913,
      "##益": 2914,
      "##于": 2915,
      "##海": 2916,
      "##内": 2917,
      "##债": 2918,
      "##机": 2919,
      "##遇": 2920,
      "##融": 2921,
      "##资": 2922,
      "##い": 2923,
      "##リ": 2924,
      "##ビ": 2925,
      "##ン": 2926,
      "##グ": 2927,
      "##に": 2928,
      "##大": 2929,
      "##き": 2930,
      "##な": 2931,
      "##吹": 2932,
      "##抜": 2933,
      "##け": 2934,
      "##\u0000": 2935,
      "##ď": 2936,
      "##ě": 2937,
      "##👀": 2938,
      "##話": 2939,
      "##し": 2940,
      "##て": 2941,
      "##も": 2942,
      "##彼": 2943,
      "##女": 2944,
      "##意": 2945,
      "##思": 2946,
      "##は": 2947,
      "##固": 2948,
      "##く": 2949,
      "##œ": 2950,
      "##": 2951,
      "##🤞": 2952,
      "##ù": 2953,
      "##щ": 2954,
      "##ل": 2955,
      "##ح": 2956,
      "##م": 2957,
      "##☺": 2958,
      "##": 2959,
      "##﻿": 2960,
      "##🐶": 2961,
      "##🐕": 2962,
      "##❤": 2963,
      "##ą": 2964,
      "##跟": 2965,
      "##着": 2966,
      "##别": 2967,
      "##做": 2968,
      "##过": 2969,
      "##小": 2970,
      "##生": 2971,
      "##ł": 2972,
      "##🎤": 2973,
      "##🎸": 2974,
      "##源": 2975,
      "##政": 2976,
      "##翼": 2977,
      "##賛": 2978,
      "##¥": 2979,
      "##⇒": 2980,
      "##ο": 2981,
      "##γ": 2982,
      "##♡": 2983,
      "##국": 2984,
      "##인": 2985,
      "##통": 2986,
      "##제": 2987,
      "##\u001d": 2988,
      "##■": 2989,
      "##国": 2990,
      "##缆": 2991,
      "##分": 2992,
      "##接": 2993,
      "##箱": 2994,
      "##网": 2995,
      "##ő": 2996,
      "##τ": 2997,
      "##ô": 2998,
      "##ム": 2999,
      "##オ": 3000,
      "##锈": 3001,
      "##钢": 3002,
      "##罐": 3003,
      "##コ": 3004,
      "##株": 3005,
      "##式": 3006,
      "##社": 3007,
      "##": 3008,
      "##因": 3009,
      "##族": 3010,
      "##ň": 3011,
      "##年": 3012,
      "##月": 3013,
      "##ű": 3014,
      "##²": 3015,
      "##盛": 3016,
      "##首": 3017,
      "##席": 3018,
      "##经": 3019,
      "##济": 3020,
      "##学": 3021,
      "##家": 3022,
      "##哈": 3023,
      "##祖": 3024,
      "##斯": 3025,
      "##‍": 3026,
      "##🎨": 3027,
      "##ѓ": 3028,
      "##": 3029,
      "##🍫": 3030,
      "##η": 3031,
      "##ό": 3032,
      "##📱": 3033,
      "##ي": 3034,
      "##θ": 3035,
      "##贸": 3036,
      "##м": 3037,
      "##🇲": 3038,
      "##🇽": 3039,
      "##🏽": 3040,
      "##ń": 3041,
      "##ж": 3042,
      "##س": 3043,
      "##ع": 3044,
      "##ф": 3045,
      "##و": 3046,
      "##시": 3047,
      "##ц": 3048,
      "##║": 3049,
      "##ส": 3050,
      "##ถ": 3051,
      "##บ": 3052,
      "##ุ": 3053,
      "##ต": 3054,
      "##ร": 3055,
      "##ج": 3056,
      "##ئ": 3057,
      "##期": 3058,
      "##支": 3059,
      "##持": 3060,
      "##计": 3061,
      "##划": 3062,
      "##õ": 3063,
      "##": 3064,
      "##ƒ": 3065,
      "##🙌": 3066,
      "##入": 3067,
      "##れ": 3068,
      "##無": 3069,
      "##品": 3070,
      "##事": 3071,
      "##ご": 3072,
      "##連": 3073,
      "##絡": 3074,
      "##上": 3075,
      "##기": 3076,
      "##도": 3077,
      "##⌚": 3078,
      "##😍": 3079,
      "##💎": 3080,
      "##đ": 3081,
      "##😙": 3082,
      "##文": 3083,
      "##描": 3084,
      "##述": 3085,
      "##고": 3086,
      "##를": 3087,
      "##中": 3088,
      "##で": 3089,
      "##牛": 3090,
      "##视": 3091,
      "##频": 3092,
      "##跑": 3093,
      "##路": 3094,
      "##了": 3095,
      "##吗": 3096,
      "##ј": 3097,
      "##ấ": 3098,
      "##▬": 3099,
      "##ū": 3100,
      "##等": 3101,
      "##": 3102,
      "##血": 3103,
      "##μ": 3104,
      "##⚫": 3105,
      "##发": 3106,
      "##版": 3107,
      "##使": 3108,
      "##用": 3109,
      "##各": 3110,
      "##种": 3111,
      "##核": 3112,
      "##本": 3113,
      "##🇷": 3114,
      "##😨": 3115,
      "##β": 3116,
      "##υ": 3117,
      "##\b": 3118,
      "##お": 3119,
      "##か": 3120,
      "##る": 3121,
      "##ư": 3122,
      "##ờ": 3123,
      "##├": 3124,
      "##│": 3125,
      "##ة": 3126,
      "##あ": 3127,
      "##タ": 3128,
      "##ト": 3129,
      "##方": 3130,
      "##ら": 3131,
      "##が": 3132,
      "##り": 3133,
      "##🎈": 3134,
      "##ĝ": 3135,
      "##개": 3136,
      "##의": 3137,
      "##😞": 3138,
      "##🖤": 3139,
      "##💅": 3140,
      "##川": 3141,
      "##─": 3142,
      "##昌": 3143,
      "##村": 3144,
      "##と": 3145,
      "##う": 3146,
      "##ふ": 3147,
      "##素": 3148,
      "##材": 3149,
      "##こ": 3150,
      "##だ": 3151,
      "##わ": 3152,
      "##\u0010": 3153,
      "##👏": 3154,
      "##︎": 3155,
      "##雷": 3156,
      "##神": 3157,
      "##ơ": 3158,
      "##語": 3159,
      "##ز": 3160,
      "##ی": 3161,
      "##ž": 3162,
      "##善": 3163,
      "##ظ": 3164,
      "##ủ": 3165,
      "##★": 3166,
      "##": 3167,
      "##😉": 3168,
      "##û": 3169,
      "##ß": 3170,
      "##ə": 3171,
      "##̈": 3172,
      "##롬": 3173,
      "##비": 3174,
      "##아": 3175,
      "##联": 3176,
      "##储": 3177,
      "##样": 3178,
      "##今": 3179,
      "##后": 3180,
      "##就": 3181,
      "##走": 3182,
      "##部": 3183,
      "##队": 3184,
      "##多": 3185,
      "##亜": 3186,
      "##苦": 3187,
      "##婁": 3188,
      "##弟": 3189,
      "##酢": 3190,
      "##華": 3191,
      "##恵": 3192,
      "##慈": 3193,
      "##🇸": 3194,
      "##▷": 3195,
      "##창": 3196,
      "##업": 3197,
      "##자": 3198,
      "##와": 3199,
      "##🎼": 3200,
      "##🏼": 3201,
      "##ệ": 3202,
      "##｜": 3203,
      "##¢": 3204,
      "##♥": 3205,
      "##ق": 3206,
      "##💪": 3207,
      "##🔝": 3208,
      "##ո": 3209,
      "##ր": 3210,
      "##հ": 3211,
      "##դ": 3212,
      "##ա": 3213,
      "##ն": 3214,
      "##¦": 3215,
      "##🇴": 3216,
      "##🍻": 3217,
      "##ė": 3218,
      "##ρ": 3219,
      "##た": 3220,
      "##時": 3221,
      "##間": 3222,
      "##効": 3223,
      "##率": 3224,
      "##作": 3225,
      "##業": 3226,
      "##を": 3227,
      "##え": 3228,
      "##よ": 3229,
      "##🤪": 3230,
      "##🔪": 3231,
      "##💔": 3232,
      "##👁": 3233,
      "##👺": 3234,
      "##💉": 3235,
      "##": 3236,
      "##선": 3237,
      "##하": 3238,
      "##ć": 3239,
      "##下": 3240,
      "##简": 3241,
      "##称": 3242,
      "##ه": 3243,
      "##έ": 3244,
      "##˚": 3245,
      "##": 3246,
      "##格": 3247,
      "##改": 3248,
      "##定": 3249,
      "##►": 3250,
      "##ť": 3251,
      "##东": 3252,
      "##群": 3253,
      "##英": 3254,
      "##激": 3255,
      "##光": 3256,
      "##术": 3257,
      "##华": 3258,
      "##五": 3259,
      "##金": 3260,
      "##ї": 3261,
      "##😎": 3262,
      "##ث": 3263,
      "##": 3264,
      "##₄": 3265,
      "##绝": 3266,
      "##缘": 3267,
      "##料": 3268,
      "##キ": 3269,
      "##ブ": 3270,
      "##贅": 3271,
      "##沢": 3272,
      "##過": 3273,
      "##せ": 3274,
      "##ま": 3275,
      "##す": 3276,
      "##👈": 3277,
      "##린": 3278,
      "##신": 3279,
      "##문": 3280,
      "##은": 3281,
      "##世": 3282,
      "##界": 3283,
      "##魔": 3284,
      "##王": 3285,
      "##召": 3286,
      "##喚": 3287,
      "##少": 3288,
      "##奴": 3289,
      "##隷": 3290,
      "##術": 3291,
      "##ざ": 3292,
      "##👨": 3293,
      "##🏾": 3294,
      "##毕": 3295,
      "##业": 3296,
      "##📻": 3297,
      "##🎧": 3298,
      "##😁": 3299,
      "##℗": 3300,
      "##↓": 3301,
      "##都": 3302,
      "##没": 3303,
      "##成": 3304,
      "##功": 3305,
      "##σ": 3306,
      "##ŷ": 3307,
      "##ĭ": 3308,
      "##א": 3309,
      "##ס": 3310,
      "##י": 3311,
      "##נ": 3312,
      "##ג": 3313,
      "##▫": 3314,
      "##🕵": 3315,
      "##정": 3316,
      "##호": 3317,
      "##수": 3318,
      "##プ": 3319,
      "##ラ": 3320,
      "##バ": 3321,
      "##シ": 3322,
      "##ポ": 3323,
      "##覧": 3324,
      "##さ": 3325,
      "##ể": 3326,
      "##💜": 3327,
      "##著": 3328,
      "##権": 3329,
      "##そ": 3330,
      "##他": 3331,
      "##利": 3332,
      "##借": 3333,
      "##自": 3334,
      "##身": 3335,
      "##优": 3336,
      "##势": 3337,
      "##承": 3338,
      "##办": 3339,
      "##次": 3340,
      "##ん": 3341,
      "##ぱ": 3342,
      "##組": 3343,
      "##♀": 3344,
      "##": 3345,
      "##ў": 3346,
      "##💣": 3347,
      "##🔴": 3348,
      "##‬": 3349,
      "##😏": 3350,
      "##ų": 3351,
      "##ェ": 3352,
      "##ア": 3353,
      "##テ": 3354,
      "##😊": 3355,
      "##職": 3356,
      "##同": 3357,
      "##様": 3358,
      "##種": 3359,
      "##🎶": 3360,
      "##ố": 3361,
      "##ウ": 3362,
      "##⚕": 3363,
      "##👩": 3364,
      "##⚖": 3365,
      "##✈": 3366,
      "##🎄": 3367,
      "##峰": 3368,
      "##한": 3369,
      "##": 3370,
      "##是": 3371,
      "##消": 3372,
      "##费": 3373,
      "##者": 3374,
      "##设": 3375,
      "##备": 3376,
      "##典": 3377,
      "##型": 3378,
      "##命": 3379,
      "##周": 3380,
      "##ś": 3381,
      "##断": 3382,
      "##番": 3383,
      "##⠀": 3384,
      "##집": 3385,
      "##에": 3386,
      "##स": 3387,
      "##🍹": 3388,
      "##为": 3389,
      "##干": 3390,
      "##活": 3391,
      "##\u0007": 3392,
      "##ะ": 3393,
      "##ช": 3394,
      "##า": 3395,
      "##ั": 3396,
      "##ง": 3397,
      "##ค": 3398,
      "##์": 3399,
      "##◦": 3400,
      "##排": 3401,
      "##聚": 3402,
      "##苯": 3403,
      "##颗": 3404,
      "##粒": 3405,
      "##京": 3406,
      "##田": 3407,
      "##谷": 3408,
      "##区": 3409,
      "##⁠": 3410,
      "##℅": 3411,
      "##ƈ": 3412,
      "##\u0001": 3413,
      "##ớ": 3414,
      "##🍌": 3415,
      "##🍍": 3416,
      "##🍑": 3417,
      "##🍒": 3418,
      "##🍓": 3419,
      "##🍅": 3420,
      "##🍏": 3421,
      "##🍎": 3422,
      "##🍆": 3423,
      "##🌽": 3424,
      "##🍄": 3425,
      "##¤": 3426,
      "##ύ": 3427,
      "##ى": 3428,
      "##µ": 3429,
      "##居": 3430,
      "##😋": 3431,
      "##더": 3432,
      "##라": 3433,
      "##乎": 3434,
      "##暗": 3435,
      "##示": 3436,
      "##什": 3437,
      "##铁": 3438,
      "##💯": 3439,
      "##љ": 3440,
      "##њ": 3441,
      "##立": 3442,
      "##園": 3443,
      "##第": 3444,
      "##二": 3445,
      "##特": 3446,
      "##別": 3447,
      "##地": 3448,
      "##域": 3449,
      "##أ": 3450,
      "##ش": 3451,
      "##鲁": 3452,
      "##木": 3453,
      "##齐": 3454,
      "##": 3455,
      "##友": 3456,
      "##也": 3457,
      "##叮": 3458,
      "##嘱": 3459,
      "##我": 3460,
      "##在": 3461,
      "##好": 3462,
      "##☆": 3463,
      "##👇": 3464,
      "##喰": 3465,
      "##😂": 3466,
      "##ﬂ": 3467,
      "##⁩": 3468,
      "##😳": 3469,
      "##🤨": 3470,
      "##": 3471,
      "##⃣": 3472,
      "##💰": 3473,
      "##💚": 3474,
      "##浪": 3475,
      "##股": 3476,
      "##ป": 3477,
      "##ล": 3478,
      "##ไ": 3479,
      "##ท": 3480,
      "##ย": 3481,
      "##₆": 3482,
      "##绿": 3483,
      "##松": 3484,
      "##石": 3485,
      "##要": 3486,
      "##望": 3487,
      "##合": 3488,
      "##カ": 3489,
      "##マ": 3490,
      "##ズ": 3491,
      "##魅": 3492,
      "##力": 3493,
      "##ひ": 3494,
      "##つ": 3495,
      "##¯": 3496,
      "##용": 3497,
      "##할": 3498,
      "##果": 3499,
      "##您": 3500,
      "##繁": 3501,
      "##適": 3502,
      "##聯": 3503,
      "##權": 3504,
      "##規": 3505,
      "##膚": 3506,
      "##統": 3507,
      "##齡": 3508,
      "##殘": 3509,
      "##視": 3510,
      "##體": 3511,
      "##師": 3512,
      "##見": 3513,
      "##็": 3514,
      "##น": 3515,
      "##ผ": 3516,
      "##ู": 3517,
      "##้": 3518,
      "##ด": 3519,
      "##แ": 3520,
      "##车": 3521,
      "##水": 3522,
      "##ว": 3523,
      "##โ": 3524,
      "##พ": 3525,
      "##ธ": 3526,
      "##ิ": 3527,
      "##ศ": 3528,
      "##ี": 3529,
      "##武": 3530,
      "##鉄": 3531,
      "##道": 3532,
      "##譲": 3533,
      "##紹": 3534,
      "##介": 3535,
      "##物": 3536,
      "##件": 3537,
      "##御": 3538,
      "##隣": 3539,
      "##静": 3540,
      "##環": 3541,
      "##境": 3542,
      "##荘": 3543,
      "##場": 3544,
      "##所": 3545,
      "##ð": 3546,
      "##际": 3547,
      "##评": 3548,
      "##级": 3549,
      "##构": 3550,
      "##标": 3551,
      "##普": 3552,
      "##亿": 3553,
      "##达": 3554,
      "##瞻": 3555,
      "##整": 3556,
      "##负": 3557,
      "##面": 3558,
      "##이": 3559,
      "##❄": 3560,
      "##🏂": 3561,
      "##😥": 3562,
      "##": 3563,
      "##耳": 3564,
      "##喇": 3565,
      "##叭": 3566,
      "##セ": 3567,
      "##ị": 3568,
      "##┬": 3569,
      "##ص": 3570,
      "##▒": 3571,
      "##ů": 3572,
      "##🧟": 3573,
      "##ř": 3574,
      "##🤶": 3575,
      "##坊": 3576,
      "##江": 3577,
      "##": 3578,
      "##ȏ": 3579,
      "##心": 3580,
      "##왔": 3581,
      "##으": 3582,
      "##며": 3583,
      "##两": 3584,
      "##个": 3585,
      "##盟": 3586,
      "##研": 3587,
      "##院": 3588,
      "##陆": 3589,
      "##桥": 3590,
      "##影": 3591,
      "##节": 3592,
      "##目": 3593,
      "##⬇": 3594,
      "##😘": 3595,
      "##є": 3596,
      "##链": 3597,
      "##筷": 3598,
      "##➤": 3599,
      "##ț": 3600,
      "##✌": 3601,
      "##ط": 3602,
      "##": 3603,
      "##ב": 3604,
      "##ר": 3605,
      "##ת": 3606,
      "##🍸": 3607,
      "##💙": 3608,
      "##😄": 3609,
      "##🍽": 3610,
      "##🌭": 3611,
      "##🍔": 3612,
      "##💕": 3613,
      "##ノ": 3614,
      "##ド": 3615,
      "##阳": 3616,
      "##\u001f": 3617,
      "##": 3618,
      "##ض": 3619,
      "##능": 3620,
      "##을": 3621,
      "##교": 3622,
      "##气": 3623,
      "##和": 3624,
      "##高": 3625,
      "##低": 3626,
      "##决": 3627,
      "##┐": 3628,
      "##调": 3629,
      "##至": 3630,
      "##对": 3631,
      "##邦": 3632,
      "##委": 3633,
      "##😀": 3634,
      "##～": 3635,
      "##": 3636,
      "##": 3637,
      "##✅": 3638,
      "##ţ": 3639,
      "##": 3640,
      "##榄": 3641,
      "##镇": 3642,
      "##众": 3643,
      "##通": 3644,
      "##械": 3645,
      "##¾": 3646,
      "##ف": 3647,
      "##ゾ": 3648,
      "##ニ": 3649,
      "##食": 3650,
      "##べ": 3651,
      "##म": 3652,
      "##र": 3653,
      "##ी": 3654,
      "##क": 3655,
      "##ा": 3656,
      "##ъ": 3657,
      "##提": 3658,
      "##供": 3659,
      "##全": 3660,
      "##板": 3661,
      "##块": 3662,
      "##": 3663,
      "##😅": 3664,
      "##😌": 3665,
      "##一": 3666,
      "##之": 3667,
      "##长": 3668,
      "##万": 3669,
      "##円": 3670,
      "##ừ": 3671,
      "##ξ": 3672,
      "##¹": 3673,
      "##遁": 3674,
      "##ء": 3675,
      "##ḷ": 3676,
      "##👅": 3677,
      "##ו": 3678,
      "##ן": 3679,
      "##는": 3680,
      "##语": 3681,
      "##⊃": 3682,
      "##❗": 3683,
      "##ื": 3684,
      "##อ": 3685,
      "##ѕ": 3686,
      "##": 3687,
      "##🎂": 3688,
      "##茶": 3689,
      "##👆": 3690,
      "##🏃": 3691,
      "##♂": 3692,
      "##⚽": 3693,
      "##🥅": 3694,
      "##ộ": 3695,
      "##塑": 3696,
      "##胶": 3697,
      "##管": 3698,
      "##🤗": 3699,
      "##̶": 3700,
      "##気": 3701,
      "##仲": 3702,
      "##良": 3703,
      "##🇪": 3704,
      "##動": 3705,
      "##販": 3706,
      "##売": 3707,
      "##拠": 3708,
      "##点": 3709,
      "##県": 3710,
      "##６": 3711,
      "##ヵ": 3712,
      "##➨": 3713,
      "##̥": 3714,
      "##🤠": 3715,
      "##📣": 3716,
      "##ळ": 3717,
      "##ि": 3718,
      "##̄": 3719,
      "##🥈": 3720,
      "##ː": 3721,
      "##戏": 3722,
      "##但": 3723,
      "##较": 3724,
      "##出": 3725,
      "##色": 3726,
      "##声": 3727,
      "##场": 3728,
      "##音": 3729,
      "##效": 3730,
      "##表": 3731,
      "##现": 3732,
      "##ม": 3733,
      "##ห": 3734,
      "##ก": 3735,
      "##จ": 3736,
      "##っ": 3737,
      "##矢": 3738,
      "##先": 3739,
      "##州": 3740,
      "##ジ": 3741,
      "##ョ": 3742,
      "##ッ": 3743,
      "##ピ": 3744,
      "##名": 3745,
      "##具": 3746,
      "##ώ": 3747,
      "##白": 3748,
      "##云": 3749,
      "##龙": 3750,
      "##轩": 3751,
      "##汽": 3752,
      "##护": 3753,
      "##理": 3754,
      "##˜": 3755,
      "##帽": 3756,
      "##頃": 3757,
      "##取": 3758,
      "##扱": 3759,
      "##じ": 3760,
      "##め": 3761,
      "##容": 3762,
      "##赦": 3763,
      "##パ": 3764,
      "##ザ": 3765,
      "##☕": 3766,
      "##안": 3767,
      "##": 3768,
      "##": 3769,
      "##ղ": 3770,
      "##վ": 3771,
      "##角": 3772,
      "##左": 3773,
      "##右": 3774,
      "##黑": 3775,
      "##法": 3776,
      "##师": 3777,
      "##应": 3778,
      "##主": 3779,
      "##卡": 3780,
      "##片": 3781,
      "##唤": 3782,
      "##葉": 3783,
      "##原": 3784,
      "##駅": 3785,
      "##游": 3786,
      "##突": 3787,
      "##显": 3788,
      "##试": 3789,
      "##听": 3790,
      "##必": 3791,
      "##工": 3792,
      "##전": 3793,
      "##智": 3794,
      "##辆": 3795,
      "##创": 3796,
      "##产": 3797,
      "##系": 3798,
      "##列": 3799,
      "##动": 3800,
      "##画": 3801,
      "##": 3802,
      "##": 3803,
      "##실": 3804,
      "##ē": 3805,
      "##ं": 3806,
      "##य": 3807,
      "##ु": 3808,
      "##्": 3809,
      "##त": 3810,
      "##보": 3811,
      "##가": 3812,
      "##客": 3813,
      "##返": 3814,
      "##坚": 3815,
      "##图": 3816,
      "##像": 3817,
      "##해": 3818,
      "##手": 3819,
      "##串": 3820,
      "##🏝": 3821,
      "##🕍": 3822,
      "##🌈": 3823,
      "##ข": 3824,
      "##以": 3825,
      "##免": 3826,
      "##尔": 3827,
      "##😜": 3828,
      "##來": 3829,
      "##失": 3830,
      "##去": 3831,
      "##信": 3832,
      "##": 3833,
      "##": 3834,
      "##🤩": 3835,
      "##ャ": 3836,
      "##み": 3837,
      "##包": 3838,
      "##雜": 3839,
      "##誌": 3840,
      "##ュ": 3841,
      "##括": 3842,
      "##布": 3843,
      "##纳": 3844,
      "##德": 3845,
      "##言": 3846,
      "##论": 3847,
      "##現": 3848,
      "##況": 3849,
      "##差": 3850,
      "##異": 3851,
      "##優": 3852,
      "##致": 3853,
      "##진": 3854,
      "##내": 3855,
      "##버": 3856,
      "##스": 3857,
      "##安": 3858,
      "##涂": 3859,
      "##氏": 3860,
      "##店": 3861,
      "##ɑ": 3862,
      "##芊": 3863,
      "##森": 3864,
      "##ְ": 3865,
      "##ד": 3866,
      "##ִ": 3867,
      "##ַ": 3868,
      "##̌": 3869,
      "##乏": 3870,
      "##明": 3871,
      "##确": 3872,
      "##号": 3873,
      "##开": 3874,
      "##岗": 3875,
      "##位": 3876,
      "##💫": 3877,
      "##裕": 3878,
      "##企": 3879,
      "##相": 3880,
      "##关": 3881,
      "##代": 3882,
      "##嘉": 3883,
      "##宾": 3884,
      "##＜": 3885,
      "##徴": 3886,
      "##＞": 3887,
      "##♪": 3888,
      "##♫": 3889,
      "##": 3890,
      "##时": 3891,
      "##间": 3892,
      "##晚": 3893,
      "##讯": 3894,
      "##ち": 3895,
      "##汚": 3896,
      "##落": 3897,
      "##≤": 3898,
      "##💻": 3899,
      "##辺": 3900,
      "##ホ": 3901,
      "##陕": 3902,
      "##西": 3903,
      "##省": 3904,
      "##兰": 3905,
      "##县": 3906,
      "##农": 3907,
      "##🎉": 3908,
      "##案": 3909,
      "##项": 3910,
      "##指": 3911,
      "##否": 3912,
      "##到": 3913,
      "##监": 3914,
      "##验": 3915,
      "##收": 3916,
      "##准": 3917,
      "##사": 3918,
      "##ỗ": 3919,
      "##設": 3920,
      "##\u0003": 3921,
      "##💃": 3922,
      "##": 3923,
      "##ŭ": 3924,
      "##🇹": 3925,
      "##ღ": 3926,
      "##体": 3927,
      "##弱": 3928,
      "##🔋": 3929,
      "##َ": 3930,
      "##ِ": 3931,
      "##ّ": 3932,
      "##👍": 3933,
      "##👧": 3934,
      "##👦": 3935,
      "##‭": 3936,
      "##부": 3937,
      "##ÿ": 3938,
      "##😆": 3939,
      "##ự": 3940,
      "##": 3941,
      "##ș": 3942,
      "##头": 3943,
      "##依": 3944,
      "##然": 3945,
      "##酷": 3946,
      "##炫": 3947,
      "##外": 3948,
      "##双": 3949,
      "##ʖ": 3950,
      "##": 3951,
      "##": 3952,
      "##💋": 3953,
      "##̀": 3954,
      "##🌟": 3955,
      "##📔": 3956,
      "##📿": 3957,
      "##🔥": 3958,
      "##ど": 3959,
      "##専": 3960,
      "##門": 3961,
      "##💥": 3962,
      "##経": 3963,
      "##営": 3964,
      "##🤘": 3965,
      "##腐": 3966,
      "##💞": 3967,
      "##盘": 3968,
      "##ṭ": 3969,
      "##🌹": 3970,
      "##🌺": 3971,
      "##证": 3972,
      "##实": 3973,
      "##ˇ": 3974,
      "##¸": 3975,
      "##量": 3976,
      "##营": 3977,
      "##完": 3978,
      "##🎬": 3979,
      "##🅻": 3980,
      "##🅰": 3981,
      "##🅾": 3982,
      "##卖": 3983,
      "##疲": 3984,
      "##软": 3985,
      "##妖": 3986,
      "##怪": 3987,
      "##天": 3988,
      "##狗": 3989,
      "##底": 3990,
      "##如": 3991,
      "##领": 3992,
      "##团": 3993,
      "##含": 3994,
      "##佩": 3995,
      "##戴": 3996,
      "##适": 3997,
      "##度": 3998,
      "##款": 3999,
      "##须": 4000,
      "##重": 4001,
      "##注": 4002,
      "##们": 4003,
      "##常": 4004,
      "##努": 4005,
      "##推": 4006,
      "##预": 4007,
      "##임": 4008,
      "##방": 4009,
      "##📽": 4010,
      "##🍯": 4011,
      "##軒": 4012,
      "##島": 4013,
      "##ク": 4014,
      "##ナ": 4015,
      "##ใ": 4016,
      "##👋": 4017,
      "##細": 4018,
      "##规": 4019,
      "##模": 4020,
      "##ῖ": 4021,
      "##琪": 4022,
      "##玻": 4023,
      "##璃": 4024,
      "##デ": 4025,
      "##😭": 4026,
      "##➠": 4027,
      "##خ": 4028,
      "##共": 4029,
      "##流": 4030,
      "##🏆": 4031,
      "##": 4032,
      "##😱": 4033,
      "##雄": 4034,
      "##ỹ": 4035,
      "##🇨": 4036,
      "##🇳": 4037,
      "##🎊": 4038,
      "##▪": 4039,
      "##랜": 4040,
      "##즈": 4041,
      "##": 4042,
      "##📸": 4043,
      "##ĉ": 4044,
      "##👉": 4045,
      "##": 4046,
      "##🧚": 4047,
      "##̨": 4048,
      "##谩": 4049,
      "##ǵ": 4050,
      "##ね": 4051,
      "##後": 4052,
      "##弊": 4053,
      "##送": 4054,
      "##ế": 4055,
      "##": 4056,
      "##💬": 4057,
      "##癃": 4058,
      "##チ": 4059,
      "##": 4060,
      "##😇": 4061,
      "##◗": 4062,
      "##存": 4063,
      "##": 4064,
      "##เ": 4065,
      "##▻": 4066,
      "##₂": 4067,
      "##書": 4068,
      "##籍": 4069,
      "##": 4070,
      "##選": 4071,
      "##択": 4072,
      "##归": 4073,
      "##还": 4074,
      "##极": 4075,
      "##赖": 4076,
      "##🇺": 4077,
      "##🇾": 4078,
      "##╠": 4079,
      "##🏀": 4080,
      "##🏈": 4081,
      "##⚾": 4082,
      "##🎾": 4083,
      "##🏐": 4084,
      "##🏉": 4085,
      "##템": 4086,
      "##这": 4087,
      "##候": 4088,
      "##古": 4089,
      "##些": 4090,
      "##象": 4091,
      "##直": 4092,
      "##说": 4093,
      "##吃": 4094,
      "##掉": 4095,
      "##太": 4096,
      "##亮": 4097,
      "##锋": 4098,
      "##": 4099,
      "##属": 4100,
      "##ό": 4101,
      "##ђ": 4102,
      "##希": 4103,
      "##ば": 4104,
      "##変": 4105,
      "##更": 4106,
      "##": 4107,
      "##่": 4108,
      "##ำ": 4109,
      "##": 4110,
      "##": 4111,
      "##": 4112,
      "##뢰": 4113,
      "##讲": 4114,
      "##话": 4115,
      "##施": 4116,
      "##压": 4117,
      "##": 4118,
      "##": 4119,
      "##♛": 4120,
      "##ט": 4121,
      "##📲": 4122,
      "##🇦": 4123,
      "##ײ": 4124,
      "##ל": 4125,
      "##☔": 4126,
      "##": 4127,
      "##": 4128,
      "##": 4129,
      "##印": 4130,
      "##속": 4131,
      "##터": 4132,
      "##প": 4133,
      "##ল": 4134,
      "##🆕": 4135,
      "##纪": 4136,
      "##念": 4137,
      "##册": 4138,
      "##丈": 4139,
      "##夫": 4140,
      "##": 4141,
      "##杆": 4142,
      "##破": 4143,
      "##鋼": 4144,
      "##狼": 4145,
      "##状": 4146,
      "##態": 4147,
      "##届": 4148,
      "##◄": 4149,
      "##설": 4150,
      "##명": 4151,
      "##회": 4152,
      "##ụ": 4153,
      "##출": 4154,
      "##ứ": 4155,
      "##元": 4156,
      "##❣": 4157,
      "##ẩ": 4158,
      "##զ": 4159,
      "##գ": 4160,
      "##յ": 4161,
      "##ի": 4162,
      "##ؙ": 4163,
      "##洗": 4164,
      "##皂": 4165,
      "##輪": 4166,
      "##眼": 4167,
      "##√": 4168,
      "##题": 4169,
      "##章": 4170,
      "##ک": 4171,
      "##室": 4172,
      "##装": 4173,
      "##修": 4174,
      "##": 4175,
      "##🍷": 4176,
      "##덕": 4177,
      "##궁": 4178,
      "##酶": 4179,
      "##그": 4180,
      "##陳": 4181,
      "##蘭": 4182,
      "##彬": 4183,
      "##橡": 4184,
      "##ề": 4185,
      "##히": 4186,
      "##ĺ": 4187,
      "##ᾶ": 4188,
      "##礼": 4189,
      "##瓷": 4190,
      "##某": 4191,
      "##建": 4192,
      "##築": 4193,
      "##計": 4194,
      "##級": 4195,
      "##感": 4196,
      "##ம": 4197,
      "##ி": 4198,
      "##ழ": 4199,
      "##்": 4200,
      "##℠": 4201,
      "##령": 4202,
      "##💖": 4203,
      "##🥇": 4204,
      "##🥊": 4205,
      "##ィ": 4206,
      "##": 4207,
      "##ὴ": 4208,
      "##🅴": 4209,
      "##🆁": 4210,
      "##筒": 4211,
      "##夹": 4212,
      "##⚪": 4213,
      "##맹": 4214,
      "##점": 4215,
      "##ה": 4216,
      "##ש": 4217,
      "##ָ": 4218,
      "##ֵ": 4219,
      "##ｅ": 4220,
      "##ｔ": 4221,
      "##津": 4222,
      "##托": 4223,
      "##单": 4224,
      "##행": 4225,
      "##여": 4226,
      "##頼": 4227,
      "##로": 4228,
      "##⏱": 4229,
      "##": 4230,
      "##传": 4231,
      "##近": 4232,
      "##几": 4233,
      "##策": 4234,
      "##释": 4235,
      "##放": 4236,
      "##糊": 4237,
      "##清": 4238,
      "##幅": 4239,
      "##🤔": 4240,
      "##ณ": 4241,
      "##✉": 4242,
      "##ษ": 4243,
      "##ὰ": 4244,
      "##集": 4245,
      "##گ": 4246,
      "##": 4247,
      "##천": 4248,
      "##当": 4249,
      "##很": 4250,
      "##珍": 4251,
      "##惜": 4252,
      "##己": 4253,
      "##兵": 4254,
      "##锻": 4255,
      "##炼": 4256,
      "##申": 4257,
      "##込": 4258,
      "##続": 4259,
      "##编": 4260,
      "##辑": 4261,
      "##إ": 4262,
      "##荐": 4263,
      "##端": 4264,
      "##且": 4265,
      "##及": 4266,
      "##错": 4267,
      "##🌃": 4268,
      "##儒": 4269,
      "##판": 4270,
      "##銃": 4271,
      "##ペ": 4272,
      "##受": 4273,
      "##化": 4274,
      "##碳": 4275,
      "##硼": 4276,
      "##掃": 4277,
      "##除": 4278,
      "##調": 4279,
      "##약": 4280,
      "##官": 4281,
      "##轮": 4282,
      "##器": 4283,
      "##运": 4284,
      "##输": 4285,
      "##搬": 4286,
      "##玩": 4287,
      "##初": 4288,
      "##ほ": 4289,
      "##乗": 4290,
      "##河": 4291,
      "##福": 4292,
      "##黄": 4293,
      "##回": 4294,
      "##ṛ": 4295,
      "##报": 4296,
      "##伟": 4297,
      "##🎣": 4298,
      "##向": 4299,
      "##": 4300,
      "##": 4301,
      "##": 4302,
      "##": 4303,
      "##발": 4304,
      "##급": 4305,
      "##纸": 4306,
      "##﷽": 4307,
      "##╨": 4308,
      "##吧": 4309,
      "##求": 4310,
      "##私": 4311,
      "##験": 4312,
      "##竹": 4313,
      "##篮": 4314,
      "##早": 4315,
      "##起": 4316,
      "##衞": 4317,
      "##ҫ": 4318,
      "##⛰": 4319,
      "##ậ": 4320,
      "##↴": 4321,
      "##": 4322,
      "##😒": 4323,
      "##ľ": 4324,
      "##❘": 4325,
      "##": 4326,
      "##": 4327,
      "##🏴": 4328,
      "##󠁧": 4329,
      "##󠁢": 4330,
      "##󠁥": 4331,
      "##󠁮": 4332,
      "##󠁿": 4333,
      "##花": 4334,
      "##保": 4335,
      "##育": 4336,
      "##ở": 4337,
      "##換": 4338,
      "##油": 4339,
      "##杯": 4340,
      "##⚠": 4341,
      "##ケ": 4342,
      "##困": 4343,
      "##难": 4344,
      "##э": 4345,
      "##校": 4346,
      "##ե": 4347,
      "##է": 4348,
      "##ハ": 4349,
      "##ネ": 4350,
      "##😃": 4351,
      "##": 4352,
      "##র": 4353,
      "##際": 4354,
      "##幸": 4355,
      "##開": 4356,
      "##認": 4357,
      "##蘿": 4358,
      "##💡": 4359,
      "##産": 4360,
      "##豆": 4361,
      "##遺": 4362,
      "##替": 4363,
      "##ק": 4364,
      "##פ": 4365,
      "##צ": 4366,
      "##╜": 4367,
      "##屋": 4368,
      "##封": 4369,
      "##采": 4370,
      "##ज": 4371,
      "##👐": 4372,
      "##🍋": 4373,
      "##🎁": 4374,
      "##⇓": 4375,
      "##ŕ": 4376,
      "##棒": 4377,
      "##΄": 4378,
      "##珠": 4379,
      "##销": 4380,
      "##售": 4381,
      "##ם": 4382,
      "##其": 4383,
      "##碎": 4384,
      "##🍿": 4385,
      "##남": 4386,
      "##聽": 4387,
      "##": 4388,
      "##ầ": 4389,
      "##😲": 4390,
      "##从": 4391,
      "##测": 4392,
      "##哪": 4393,
      "##够": 4394,
      "##顺": 4395,
      "##寺": 4396,
      "##💗": 4397,
      "##민": 4398,
      "##降": 4399,
      "##统": 4400,
      "##": 4401,
      "##想": 4402,
      "##连": 4403,
      "##驾": 4404,
      "##驶": 4405,
      "##类": 4406,
      "##": 4407,
      "##慮": 4408,
      "##故": 4409,
      "##夏": 4410,
      "##루": 4411,
      "##어": 4412,
      "##면": 4413,
      "##서": 4414,
      "##∇": 4415,
      "##＾": 4416,
      "##兀": 4417,
      "##南": 4418,
      "##購": 4419,
      "##寄": 4420,
      "##知": 4421,
      "##货": 4422,
      "##仓": 4423,
      "##转": 4424,
      "##弯": 4425,
      "##四": 4426,
      "##考": 4427,
      "##侧": 4428,
      "##停": 4429,
      "##曲": 4430,
      "##线": 4431,
      "##倒": 4432,
      "##库": 4433,
      "##坡": 4434,
      "##与": 4435,
      "##三": 4436,
      "##照": 4437,
      "##交": 4438,
      "##志": 4439,
      "##解": 4440,
      "##巧": 4441,
      "##门": 4442,
      "##史": 4443,
      "##辉": 4444,
      "##教": 4445,
      "##程": 4446,
      "##识": 4447,
      "##态": 4448,
      "##ａ": 4449,
      "##ｉ": 4450,
      "##ｓ": 4451,
      "##ｖ": 4452,
      "##ｐ": 4453,
      "##🙅": 4454,
      "##响": 4455,
      "##射": 4456,
      "##击": 4457,
      "##🐸": 4458,
      "##": 4459,
      "##雑": 4460,
      "##掲": 4461,
      "##載": 4462,
      "##為": 4463,
      "##禁": 4464,
      "##報": 4465,
      "##일": 4466,
      "##대": 4467,
      "##삼": 4468,
      "##거": 4469,
      "##리": 4470,
      "##げ": 4471,
      "##楽": 4472,
      "##ཽ": 4473,
      "##🕊": 4474,
      "##❅": 4475,
      "##": 4476,
      "##🎗": 4477,
      "##ﬀ": 4478,
      "##ź": 4479,
      "##축": 4480,
      "##ฺ": 4481,
      "##": 4482,
      "##": 4483,
      "##🍀": 4484,
      "##麿": 4485,
      "##ֶ": 4486,
      "##贡": 4487,
      "##ภ": 4488,
      "##ἰ": 4489,
      "##공": 4490,
      "##소": 4491,
      "##箇": 4492,
      "##メ": 4493,
      "##衆": 4494,
      "##泵": 4495,
      "##坛": 4496,
      "##摆": 4497,
      "##臂": 4498,
      "##强": 4499,
      "##ẻ": 4500,
      "##∀": 4501,
      "##｀": 4502,
      "##🌊": 4503,
      "##": 4504,
      "##🇧": 4505,
      "##柔": 4506,
      "##紙": 4507,
      "##巾": 4508,
      "##우": 4509,
      "##저": 4510,
      "##💓": 4511,
      "##旨": 4512,
      "##硬": 4513,
      "##🌸": 4514,
      "##🌿": 4515,
      "##珞": 4516,
      "##ず": 4517,
      "##": 4518,
      "##ẫ": 4519,
      "##ฤ": 4520,
      "##⛄": 4521,
      "##飼": 4522,
      "##員": 4523,
      "##💆": 4524,
      "##ガ": 4525,
      "##역": 4526,
      "##獲": 4527,
      "##務": 4528,
      "##請": 4529,
      "##電": 4530,
      "##과": 4531,
      "##絵": 4532,
      "##穏": 4533,
      "##や": 4534,
      "##街": 4535,
      "##钳": 4536,
      "##沂": 4537,
      "##伏": 4538,
      "##羲": 4539,
      "##🚲": 4540,
      "##ẕ": 4541,
      "##󠁳": 4542,
      "##󠁣": 4543,
      "##󠁴": 4544,
      "##拥": 4545,
      "##雅": 4546,
      "##乐": 4547,
      "##风": 4548,
      "##扮": 4549,
      "##演": 4550,
      "##🦁": 4551,
      "##⚰": 4552,
      "##里": 4553,
      "##比": 4554,
      "##贫": 4555,
      "##類": 4556,
      "##製": 4557,
      "##造": 4558,
      "##∅": 4559,
      "##ẹ": 4560,
      "##양": 4561,
      "##🧛": 4562,
      "##🦹": 4563,
      "##寻": 4564,
      "##敬": 4565,
      "##城": 4566,
      "##尸": 4567,
      "##鬼": 4568,
      "##升": 4569,
      "##梯": 4570,
      "##艾": 4571,
      "##架": 4572,
      "##⏳": 4573,
      "##ɪ": 4574,
      "##尘": 4575,
      "##配": 4576,
      "##\u0019": 4577,
      "##閲": 4578,
      "##": 4579,
      "##✔": 4580,
      "##酸": 4581,
      "##혜": 4582,
      "##옹": 4583,
      "##帰": 4584,
      "##េ": 4585,
      "##ន": 4586,
      "##罪": 4587,
      "##غ": 4588,
      "##空": 4589,
      "##缩": 4590,
      "##🍤": 4591,
      "##🍜": 4592,
      "##竜": 4593,
      "##炎": 4594,
      "##肘": 4595,
      "##🥦": 4596,
      "##🥔": 4597,
      "##🍠": 4598,
      "##반": 4599,
      "##": 4600,
      "##음": 4601,
      "##🐾": 4602,
      "##🤓": 4603,
      "##🌱": 4604,
      "##": 4605,
      "##중": 4606,
      "##학": 4607,
      "##입": 4608,
      "##구": 4609,
      "##🐩": 4610,
      "##🐈": 4611,
      "##ϊ": 4612,
      "##仁": 4613,
      "##웃": 4614,
      "##份": 4615,
      "##告": 4616,
      "##治": 4617,
      "##疗": 4618,
      "##紧": 4619,
      "##鏡": 4620,
      "##": 4621,
      "##進": 4622,
      "##湖": 4623,
      "##": 4624,
      "##💭": 4625,
      "##ؤ": 4626,
      "##≥": 4627,
      "##⁰": 4628,
      "##📺": 4629,
      "##守": 4630,
      "##民": 4631,
      "##律": 4632,
      "##住": 4633,
      "##宅": 4634,
      "##募": 4635,
      "##決": 4636,
      "##援": 4637,
      "##助": 4638,
      "##🛍": 4639,
      "##球": 4640,
      "##⏩": 4641,
      "##ボ": 4642,
      "##舎": 4643,
      "##構": 4644,
      "##幼": 4645,
      "##児": 4646,
      "##➡": 4647,
      "##": 4648,
      "de": 4649,
      "##os": 4650,
      "##en": 4651,
      "##er": 4652,
      "##ar": 4653,
      "##es": 4654,
      "##as": 4655,
      "##on": 4656,
      "##ci": 4657,
      "##or": 4658,
      "##ue": 4659,
      "##an": 4660,
      "##ad": 4661,
      "la": 4662,
      "en": 4663,
      "##al": 4664,
      "es": 4665,
      "el": 4666,
      "que": 4667,
      "##ent": 4668,
      "##ti": 4669,
      "con": 4670,
      "un": 4671,
      "##ón": 4672,
      "##re": 4673,
      "##ta": 4674,
      "##om": 4675,
      "##is": 4676,
      "##id": 4677,
      "##in": 4678,
      "##ic": 4679,
      "##ra": 4680,
      "se": 4681,
      "##ro": 4682,
      "##te": 4683,
      "##ción": 4684,
      "los": 4685,
      "par": 4686,
      "in": 4687,
      "re": 4688,
      "##do": 4689,
      "##to": 4690,
      "##am": 4691,
      "su": 4692,
      "##le": 4693,
      "com": 4694,
      "##un": 4695,
      "del": 4696,
      "al": 4697,
      "por": 4698,
      "##ol": 4699,
      "##ado": 4700,
      "las": 4701,
      "para": 4702,
      "##ri": 4703,
      "##ec": 4704,
      "no": 4705,
      "##ente": 4706,
      "ha": 4707,
      "##de": 4708,
      "##ación": 4709,
      "##tu": 4710,
      "una": 4711,
      "##mp": 4712,
      "##cion": 4713,
      "##di": 4714,
      "cu": 4715,
      "##tr": 4716,
      "pro": 4717,
      "##ía": 4718,
      "##il": 4719,
      "per": 4720,
      "##lo": 4721,
      "##cu": 4722,
      "##la": 4723,
      "me": 4724,
      "si": 4725,
      "##ter": 4726,
      "##res": 4727,
      "des": 4728,
      "##ás": 4729,
      "##io": 4730,
      "##ab": 4731,
      "##idad": 4732,
      "lo": 4733,
      "##ui": 4734,
      "##tos": 4735,
      "##ada": 4736,
      "di": 4737,
      "##ma": 4738,
      "##ch": 4739,
      "##us": 4740,
      "##ia": 4741,
      "##cia": 4742,
      "##ien": 4743,
      "##od": 4744,
      "ac": 4745,
      "est": 4746,
      "##mi": 4747,
      "mu": 4748,
      "##el": 4749,
      "##go": 4750,
      "##ran": 4751,
      "##tiv": 4752,
      "##bi": 4753,
      "ex": 4754,
      "como": 4755,
      "##iz": 4756,
      "##tor": 4757,
      "##ca": 4758,
      "##ento": 4759,
      "##ales": 4760,
      "##bre": 4761,
      "##ues": 4762,
      "##mos": 4763,
      "##ciones": 4764,
      "##ando": 4765,
      "más": 4766,
      "##tar": 4767,
      "an": 4768,
      "20": 4769,
      "##gu": 4770,
      "##ica": 4771,
      "##mo": 4772,
      "##ici": 4773,
      "##ce": 4774,
      "ser": 4775,
      "##era": 4776,
      "##pa": 4777,
      "so": 4778,
      "##co": 4779,
      "##aj": 4780,
      "##ados": 4781,
      "##tra": 4782,
      "##ten": 4783,
      "##que": 4784,
      "##dad": 4785,
      "##da": 4786,
      "le": 4787,
      "##tas": 4788,
      "##ie": 4789,
      "as": 4790,
      "esta": 4791,
      "##ul": 4792,
      "##ido": 4793,
      "##tro": 4794,
      "ma": 4795,
      "ap": 4796,
      "##án": 4797,
      "te": 4798,
      "res": 4799,
      "tra": 4800,
      "##iv": 4801,
      "##ir": 4802,
      "##tes": 4803,
      "cons": 4804,
      "dis": 4805,
      "##bl": 4806,
      "ar": 4807,
      "##ico": 4808,
      "##ión": 4809,
      "##orm": 4810,
      "pue": 4811,
      "##ero": 4812,
      "pre": 4813,
      "##uc": 4814,
      "comp": 4815,
      "sus": 4816,
      "pa": 4817,
      "201": 4818,
      "##ador": 4819,
      "este": 4820,
      "##ras": 4821,
      "##tan": 4822,
      "pr": 4823,
      "ten": 4824,
      "##mente": 4825,
      "##tal": 4826,
      "ca": 4827,
      "to": 4828,
      "mar": 4829,
      "##ib": 4830,
      "man": 4831,
      "car": 4832,
      "##per": 4833,
      "co": 4834,
      "##cer": 4835,
      "##po": 4836,
      "pero": 4837,
      "##se": 4838,
      "##ez": 4839,
      "##um": 4840,
      "tod": 4841,
      "##ida": 4842,
      "mi": 4843,
      "sin": 4844,
      "##qui": 4845,
      "##én": 4846,
      "##ios": 4847,
      "cas": 4848,
      "##entes": 4849,
      "##tre": 4850,
      "añ": 4851,
      "##pe": 4852,
      "##encia": 4853,
      "##ga": 4854,
      "pres": 4855,
      "inter": 4856,
      "imp": 4857,
      "po": 4858,
      "##los": 4859,
      "##uer": 4860,
      "##gar": 4861,
      "inf": 4862,
      "##ion": 4863,
      "ver": 4864,
      "##gun": 4865,
      "##con": 4866,
      "##son": 4867,
      "tu": 4868,
      "##lan": 4869,
      "##tros": 4870,
      "cor": 4871,
      "cam": 4872,
      "pri": 4873,
      "na": 4874,
      "tien": 4875,
      "son": 4876,
      "ci": 4877,
      "##és": 4878,
      "##aliz": 4879,
      "##adas": 4880,
      "sal": 4881,
      "##ces": 4882,
      "##min": 4883,
      "##amos": 4884,
      "##lar": 4885,
      "##tin": 4886,
      "pas": 4887,
      "nues": 4888,
      "##vi": 4889,
      "##ru": 4890,
      "sol": 4891,
      "person": 4892,
      "##uev": 4893,
      "ob": 4894,
      "sobre": 4895,
      "##las": 4896,
      "##ens": 4897,
      "us": 4898,
      "##ac": 4899,
      "##qu": 4900,
      "entre": 4901,
      "##je": 4902,
      "tam": 4903,
      "emp": 4904,
      "##ís": 4905,
      "##fer": 4906,
      "##ba": 4907,
      "##ores": 4908,
      "mis": 4909,
      "##ver": 4910,
      "##za": 4911,
      "##miento": 4912,
      "mo": 4913,
      "##ig": 4914,
      "ya": 4915,
      "ch": 4916,
      "##duc": 4917,
      "nos": 4918,
      "##amente": 4919,
      "qui": 4920,
      "am": 4921,
      "cre": 4922,
      "lle": 4923,
      "##entos": 4924,
      "##ble": 4925,
      "much": 4926,
      "##ario": 4927,
      "##enta": 4928,
      "##cias": 4929,
      "##ana": 4930,
      "pod": 4931,
      "##por": 4932,
      "todo": 4933,
      "au": 4934,
      "##baj": 4935,
      "##im": 4936,
      "##tic": 4937,
      "##pon": 4938,
      "pe": 4939,
      "nuev": 4940,
      "ins": 4941,
      "##cial": 4942,
      "##les": 4943,
      "##fic": 4944,
      "muy": 4945,
      "fin": 4946,
      "pos": 4947,
      "ab": 4948,
      "ad": 4949,
      "##ina": 4950,
      "##der": 4951,
      "##pañ": 4952,
      "##ur": 4953,
      "##ve": 4954,
      "cal": 4955,
      "##ora": 4956,
      "mej": 4957,
      "deb": 4958,
      "##cl": 4959,
      "hab": 4960,
      "prim": 4961,
      "##den": 4962,
      "or": 4963,
      "col": 4964,
      "lu": 4965,
      "##eces": 4966,
      "##emos": 4967,
      "##na": 4968,
      "esc": 4969,
      "##til": 4970,
      "du": 4971,
      "tambi": 4972,
      "##par": 4973,
      "trabaj": 4974,
      "gran": 4975,
      "ti": 4976,
      "también": 4977,
      "medi": 4978,
      "##cional": 4979,
      "##no": 4980,
      "##cio": 4981,
      "desde": 4982,
      "##ech": 4983,
      "tan": 4984,
      "##tivo": 4985,
      "##mas": 4986,
      "##jo": 4987,
      "parti": 4988,
      "##me": 4989,
      "##endo": 4990,
      "##tica": 4991,
      "##des": 4992,
      "##ías": 4993,
      "for": 4994,
      "##car": 4995,
      "##tura": 4996,
      "cuando": 4997,
      "##ún": 4998,
      "está": 4999,
      "hay": 5000,
      "##li": 5001,
      "mun": 5002,
      "##dos": 5003,
      "ni": 5004,
      "##ano": 5005,
      "##gra": 5006,
      "##ista": 5007,
      "##em": 5008,
      "##ante": 5009,
      "##gos": 5010,
      "##tri": 5011,
      "##eb": 5012,
      "bu": 5013,
      "gra": 5014,
      "##fici": 5015,
      "san": 5016,
      "puede": 5017,
      "años": 5018,
      "##ño": 5019,
      "##rec": 5020,
      "##esti": 5021,
      "##pos": 5022,
      "pu": 5023,
      "##00": 5024,
      "##ín": 5025,
      "##gui": 5026,
      "todos": 5027,
      "fue": 5028,
      "##ias": 5029,
      "gen": 5030,
      "has": 5031,
      "##ven": 5032,
      "da": 5033,
      "##gr": 5034,
      "##oy": 5035,
      "can": 5036,
      "##idades": 5037,
      "may": 5038,
      "ter": 5039,
      "inform": 5040,
      "cual": 5041,
      "pol": 5042,
      "##gen": 5043,
      "##gan": 5044,
      "dos": 5045,
      "don": 5046,
      "##tado": 5047,
      "##cip": 5048,
      "fun": 5049,
      "##jer": 5050,
      "##ud": 5051,
      "serv": 5052,
      "ne": 5053,
      "##arios": 5054,
      "##ena": 5055,
      "hacer": 5056,
      "mejor": 5057,
      "##icos": 5058,
      "reg": 5059,
      "cos": 5060,
      "##fec": 5061,
      "men": 5062,
      "tiene": 5063,
      "así": 5064,
      "19": 5065,
      "prop": 5066,
      "##ren": 5067,
      "hasta": 5068,
      "##idos": 5069,
      "##du": 5070,
      "cono": 5071,
      "neces": 5072,
      "ro": 5073,
      "##ros": 5074,
      "##ami": 5075,
      "exp": 5076,
      "li": 5077,
      "qu": 5078,
      "ju": 5079,
      "##vo": 5080,
      "##pi": 5081,
      "##lic": 5082,
      "algun": 5083,
      "##rá": 5084,
      "val": 5085,
      "##so": 5086,
      "##iste": 5087,
      "##tiva": 5088,
      "han": 5089,
      "bien": 5090,
      "produc": 5091,
      "pla": 5092,
      "##able": 5093,
      "plan": 5094,
      "##zo": 5095,
      "##pu": 5096,
      "mil": 5097,
      "##titu": 5098,
      "cada": 5099,
      "##tras": 5100,
      "ah": 5101,
      "##mb": 5102,
      "ve": 5103,
      "tie": 5104,
      "##ones": 5105,
      "gener": 5106,
      "deci": 5107,
      "tiemp": 5108,
      "vis": 5109,
      "donde": 5110,
      "##tur": 5111,
      "parte": 5112,
      "min": 5113,
      "tran": 5114,
      "##iones": 5115,
      "cer": 5116,
      "go": 5117,
      "ay": 5118,
      "##adores": 5119,
      "estu": 5120,
      "##pec": 5121,
      "ade": 5122,
      "##can": 5123,
      "fa": 5124,
      "realiz": 5125,
      "día": 5126,
      "segu": 5127,
      "servici": 5128,
      "##og": 5129,
      "sab": 5130,
      "direc": 5131,
      "porque": 5132,
      "ll": 5133,
      "##lti": 5134,
      "##teri": 5135,
      "##ja": 5136,
      "##aron": 5137,
      "##va": 5138,
      "##ícu": 5139,
      "espe": 5140,
      "##almente": 5141,
      "##man": 5142,
      "do": 5143,
      "lib": 5144,
      "##tico": 5145,
      "##uel": 5146,
      "##tante": 5147,
      "##das": 5148,
      "##cur": 5149,
      "##aba": 5150,
      "conf": 5151,
      "##icas": 5152,
      "cent": 5153,
      "vez": 5154,
      "forma": 5155,
      "esto": 5156,
      "##tó": 5157,
      "rec": 5158,
      "comun": 5159,
      "##ará": 5160,
      "op": 5161,
      "vi": 5162,
      "hace": 5163,
      "ra": 5164,
      "##ies": 5165,
      "##bier": 5166,
      "tiempo": 5167,
      "uno": 5168,
      "##rante": 5169,
      "incl": 5170,
      "##más": 5171,
      "##udad": 5172,
      "##gún": 5173,
      "##vis": 5174,
      "##ara": 5175,
      "contra": 5176,
      "##ino": 5177,
      "200": 5178,
      "ciudad": 5179,
      "##ér": 5180,
      "empres": 5181,
      "dic": 5182,
      "sec": 5183,
      "##emp": 5184,
      "año": 5185,
      "##eros": 5186,
      "fu": 5187,
      "prof": 5188,
      "cr": 5189,
      "##quier": 5190,
      "yo": 5191,
      "##ona": 5192,
      "##eo": 5193,
      "##tación": 5194,
      "có": 5195,
      "españ": 5196,
      "of": 5197,
      "##arro": 5198,
      "##amiento": 5199,
      "trans": 5200,
      "mon": 5201,
      "buen": 5202,
      "mas": 5203,
      "her": 5204,
      "##ilidad": 5205,
      "vida": 5206,
      "impor": 5207,
      "##nos": 5208,
      "##arse": 5209,
      "bas": 5210,
      "mad": 5211,
      "##unto": 5212,
      "##ismo": 5213,
      "##tivos": 5214,
      "##ños": 5215,
      "rep": 5216,
      "##rech": 5217,
      "##ían": 5218,
      "##úbl": 5219,
      "his": 5220,
      "util": 5221,
      "fuer": 5222,
      "actu": 5223,
      "##tir": 5224,
      "bar": 5225,
      "va": 5226,
      "form": 5227,
      "personas": 5228,
      "##tis": 5229,
      "##antes": 5230,
      "##eron": 5231,
      "equi": 5232,
      "##dic": 5233,
      "información": 5234,
      "reci": 5235,
      "##omb": 5236,
      "##xi": 5237,
      "ven": 5238,
      "##if": 5239,
      "##toria": 5240,
      "##cios": 5241,
      "##lec": 5242,
      "pues": 5243,
      "##arrol": 5244,
      "durante": 5245,
      "otros": 5246,
      "##éc": 5247,
      "##it": 5248,
      "sig": 5249,
      "desarrol": 5250,
      "##alidad": 5251,
      "##ers": 5252,
      "##ton": 5253,
      "##cas": 5254,
      "mes": 5255,
      "den": 5256,
      "encu": 5257,
      "##idas": 5258,
      "##ible": 5259,
      "##ine": 5260,
      "##ita": 5261,
      "mayor": 5262,
      "mundo": 5263,
      "cab": 5264,
      "prin": 5265,
      "pon": 5266,
      "mismo": 5267,
      "derech": 5268,
      "país": 5269,
      "viv": 5270,
      "##ición": 5271,
      "lugar": 5272,
      "gu": 5273,
      "estado": 5274,
      "estudi": 5275,
      "baj": 5276,
      "era": 5277,
      "trabajo": 5278,
      "ba": 5279,
      "bus": 5280,
      "##yec": 5281,
      "ev": 5282,
      "solo": 5283,
      "además": 5284,
      "aun": 5285,
      "##sión": 5286,
      "utiliz": 5287,
      "##et": 5288,
      "##ticas": 5289,
      "siemp": 5290,
      "siempre": 5291,
      "tras": 5292,
      "super": 5293,
      "eso": 5294,
      "princip": 5295,
      "mom": 5296,
      "pes": 5297,
      "tanto": 5298,
      "##trar": 5299,
      "##cil": 5300,
      "##uego": 5301,
      "acu": 5302,
      "hi": 5303,
      "10": 5304,
      "##jos": 5305,
      "hor": 5306,
      "difer": 5307,
      "qué": 5308,
      "##ea": 5309,
      "bo": 5310,
      "encon": 5311,
      "mujer": 5312,
      "públ": 5313,
      "últi": 5314,
      "polí": 5315,
      "siste": 5316,
      "fo": 5317,
      "##ña": 5318,
      "mer": 5319,
      "les": 5320,
      "nuestro": 5321,
      "##itar": 5322,
      "publ": 5323,
      "##gua": 5324,
      "cuenta": 5325,
      "sent": 5326,
      "nuestra": 5327,
      "ref": 5328,
      "##ific": 5329,
      "##anos": 5330,
      "vol": 5331,
      "mé": 5332,
      "están": 5333,
      "tom": 5334,
      "##ombre": 5335,
      "he": 5336,
      "mucho": 5337,
      "##pues": 5338,
      "encuent": 5339,
      "estos": 5340,
      "##ing": 5341,
      "tar": 5342,
      "cul": 5343,
      "##uy": 5344,
      "exper": 5345,
      "web": 5346,
      "mal": 5347,
      "##tores": 5348,
      "##ceso": 5349,
      "hech": 5350,
      "ahora": 5351,
      "profes": 5352,
      "##bo": 5353,
      "tener": 5354,
      "##aje": 5355,
      "quien": 5356,
      "comple": 5357,
      "##embre": 5358,
      "##ólo": 5359,
      "##tel": 5360,
      "##rig": 5361,
      "##ord": 5362,
      "##tad": 5363,
      "otro": 5364,
      "dec": 5365,
      "tr": 5366,
      "##tados": 5367,
      "tal": 5368,
      "hum": 5369,
      "permi": 5370,
      "elec": 5371,
      "rela": 5372,
      "def": 5373,
      "sa": 5374,
      "dej": 5375,
      "organ": 5376,
      "hoy": 5377,
      "caso": 5378,
      "ese": 5379,
      "toda": 5380,
      "fal": 5381,
      "##ciales": 5382,
      "##sa": 5383,
      "##ecu": 5384,
      "proyec": 5385,
      "##entar": 5386,
      "##amil": 5387,
      "resul": 5388,
      "despu": 5389,
      "##zar": 5390,
      "##ern": 5391,
      "gru": 5392,
      "nuevo": 5393,
      "##truc": 5394,
      "inv": 5395,
      "ag": 5396,
      "después": 5397,
      "##iendo": 5398,
      "pal": 5399,
      "llev": 5400,
      "##cha": 5401,
      "##cel": 5402,
      "##ús": 5403,
      "aunque": 5404,
      "activ": 5405,
      "todas": 5406,
      "llam": 5407,
      "##cen": 5408,
      "##cimiento": 5409,
      "cualquier": 5410,
      "art": 5411,
      "menos": 5412,
      "apar": 5413,
      "ho": 5414,
      "algo": 5415,
      "poco": 5416,
      "univ": 5417,
      "ley": 5418,
      "famil": 5419,
      "##teg": 5420,
      "##istas": 5421,
      "gus": 5422,
      "edi": 5423,
      "##aciones": 5424,
      "##rar": 5425,
      "##tamente": 5426,
      "esp": 5427,
      "sea": 5428,
      "##ece": 5429,
      "##cal": 5430,
      "escri": 5431,
      "antes": 5432,
      "##ito": 5433,
      "sido": 5434,
      "datos": 5435,
      "nacional": 5436,
      "podr": 5437,
      "progra": 5438,
      "pueden": 5439,
      "obje": 5440,
      "tipo": 5441,
      "##cidad": 5442,
      "##cido": 5443,
      "##cri": 5444,
      "momento": 5445,
      "##olog": 5446,
      "##ola": 5447,
      "fr": 5448,
      "af": 5449,
      "##argo": 5450,
      "casa": 5451,
      "##che": 5452,
      "##ril": 5453,
      "trav": 5454,
      "##bles": 5455,
      "cl": 5456,
      "jun": 5457,
      "##ticos": 5458,
      "primera": 5459,
      "poder": 5460,
      "os": 5461,
      "sólo": 5462,
      "días": 5463,
      "tri": 5464,
      "ofre": 5465,
      "ide": 5466,
      "pel": 5467,
      "##ene": 5468,
      "##vid": 5469,
      "##uro": 5470,
      "pi": 5471,
      "general": 5472,
      "contin": 5473,
      "ing": 5474,
      "##tec": 5475,
      "otra": 5476,
      "##olu": 5477,
      "var": 5478,
      "##ok": 5479,
      "2018": 5480,
      "univers": 5481,
      "proble": 5482,
      "##cado": 5483,
      "econ": 5484,
      "nov": 5485,
      "tres": 5486,
      "ir": 5487,
      "conse": 5488,
      "gobier": 5489,
      "estar": 5490,
      "ban": 5491,
      "15": 5492,
      "segun": 5493,
      "primer": 5494,
      "dar": 5495,
      "cómo": 5496,
      "ce": 5497,
      "trata": 5498,
      "##minis": 5499,
      "##óm": 5500,
      "gan": 5501,
      "##sos": 5502,
      "servicios": 5503,
      "##vil": 5504,
      "##ác": 5505,
      "través": 5506,
      "comer": 5507,
      "##omin": 5508,
      "##lación": 5509,
      "respon": 5510,
      "entr": 5511,
      "sistema": 5512,
      "esa": 5513,
      "estas": 5514,
      "##cep": 5515,
      "organiz": 5516,
      "señ": 5517,
      "ind": 5518,
      "ale": 5519,
      "nueva": 5520,
      "usu": 5521,
      "gar": 5522,
      "##quel": 5523,
      "##aria": 5524,
      "emb": 5525,
      "##ío": 5526,
      "especial": 5527,
      "conta": 5528,
      "efec": 5529,
      "##orma": 5530,
      "##quí": 5531,
      "manera": 5532,
      "av": 5533,
      "##ivel": 5534,
      "otras": 5535,
      "##gas": 5536,
      "tienen": 5537,
      "##cos": 5538,
      "había": 5539,
      "pens": 5540,
      "##uso": 5541,
      "##ed": 5542,
      "##ho": 5543,
      "oc": 5544,
      "##gi": 5545,
      "##bu": 5546,
      "##óg": 5547,
      "dise": 5548,
      "##dida": 5549,
      "12": 5550,
      "##ome": 5551,
      "gracias": 5552,
      "fran": 5553,
      "##tural": 5554,
      "pan": 5555,
      "presid": 5556,
      "unos": 5557,
      "##tivas": 5558,
      "autor": 5559,
      "ante": 5560,
      "medio": 5561,
      "nivel": 5562,
      "según": 5563,
      "##ge": 5564,
      "capa": 5565,
      "##dia": 5566,
      "social": 5567,
      "inc": 5568,
      "hecho": 5569,
      "nada": 5570,
      "aquel": 5571,
      "cur": 5572,
      "ellos": 5573,
      "##iencia": 5574,
      "##erv": 5575,
      "apro": 5576,
      "ami": 5577,
      "sub": 5578,
      "##erg": 5579,
      "##ya": 5580,
      "##guir": 5581,
      "situ": 5582,
      "fi": 5583,
      "decir": 5584,
      "##icación": 5585,
      "##zas": 5586,
      "uso": 5587,
      "##ior": 5588,
      "##pen": 5589,
      "on": 5590,
      "##ág": 5591,
      "##mientos": 5592,
      "gobierno": 5593,
      "present": 5594,
      "nuestros": 5595,
      "cli": 5596,
      "##ares": 5597,
      "temp": 5598,
      "consid": 5599,
      "tor": 5600,
      "historia": 5601,
      "tec": 5602,
      "##ual": 5603,
      "quier": 5604,
      "servicio": 5605,
      "##mento": 5606,
      "18": 5607,
      "##eno": 5608,
      "siti": 5609,
      "peque": 5610,
      "cambi": 5611,
      "##ridad": 5612,
      "interna": 5613,
      "aquí": 5614,
      "##ál": 5615,
      "centro": 5616,
      "##écn": 5617,
      "sí": 5618,
      "sigui": 5619,
      "cier": 5620,
      "##dido": 5621,
      "##encias": 5622,
      "debe": 5623,
      "mient": 5624,
      "##ep": 5625,
      "##cono": 5626,
      "sem": 5627,
      "mill": 5628,
      "mientras": 5629,
      "eje": 5630,
      "##ería": 5631,
      "nin": 5632,
      "muchos": 5633,
      "mod": 5634,
      "grupo": 5635,
      "ún": 5636,
      "nú": 5637,
      "ofici": 5638,
      "será": 5639,
      "##ha": 5640,
      "sino": 5641,
      "adminis": 5642,
      "##dades": 5643,
      "euro": 5644,
      "salud": 5645,
      "técn": 5646,
      "artícu": 5647,
      "recu": 5648,
      "mor": 5649,
      "##tener": 5650,
      "compar": 5651,
      "calidad": 5652,
      "##lica": 5653,
      "total": 5654,
      "##ard": 5655,
      "él": 5656,
      "##ban": 5657,
      "11": 5658,
      "##mbre": 5659,
      "30": 5660,
      "##ración": 5661,
      "seguridad": 5662,
      "algunos": 5663,
      "quer": 5664,
      "contro": 5665,
      "empresa": 5666,
      "interes": 5667,
      "##erdo": 5668,
      "inici": 5669,
      "investi": 5670,
      "##isten": 5671,
      "profesion": 5672,
      "vo": 5673,
      "españa": 5674,
      "anti": 5675,
      "##vor": 5676,
      "##cul": 5677,
      "##log": 5678,
      "##ment": 5679,
      "via": 5680,
      "ru": 5681,
      "qued": 5682,
      "##cie": 5683,
      "estable": 5684,
      "##mpl": 5685,
      "equipo": 5686,
      "##dr": 5687,
      "##fica": 5688,
      "##dio": 5689,
      "desarrollo": 5690,
      "institu": 5691,
      "##cionales": 5692,
      "ele": 5693,
      "##mar": 5694,
      "clar": 5695,
      "pasado": 5696,
      "ima": 5697,
      "muchas": 5698,
      "ejemp": 5699,
      "esper": 5700,
      "ella": 5701,
      "igu": 5702,
      "##gado": 5703,
      "conten": 5704,
      "dispon": 5705,
      "##omo": 5706,
      "gas": 5707,
      "clas": 5708,
      "fe": 5709,
      "tecn": 5710,
      "cosas": 5711,
      "##quil": 5712,
      "aten": 5713,
      "má": 5714,
      "##bir": 5715,
      "repres": 5716,
      "##tantes": 5717,
      "cris": 5718,
      "##ología": 5719,
      "##cular": 5720,
      "espa": 5721,
      "luego": 5722,
      "##inas": 5723,
      "pare": 5724,
      "orden": 5725,
      "verdad": 5726,
      "productos": 5727,
      "##má": 5728,
      "pad": 5729,
      "2017": 5730,
      "núm": 5731,
      "aplic": 5732,
      "horas": 5733,
      "jul": 5734,
      "##mon": 5735,
      "hu": 5736,
      "final": 5737,
      "rev": 5738,
      "##anza": 5739,
      "##ber": 5740,
      "pun": 5741,
      "##otros": 5742,
      "##pti": 5743,
      "tus": 5744,
      "condi": 5745,
      "habi": 5746,
      "##gación": 5747,
      "habl": 5748,
      "jue": 5749,
      "##adora": 5750,
      "th": 5751,
      "##torio": 5752,
      "agua": 5753,
      "pág": 5754,
      "importante": 5755,
      "##be": 5756,
      "is": 5757,
      "##ciendo": 5758,
      "##eza": 5759,
      "dentro": 5760,
      "##ial": 5761,
      "aut": 5762,
      "##erte": 5763,
      "esti": 5764,
      "leg": 5765,
      "pl": 5766,
      "2016": 5767,
      "##ts": 5768,
      "millones": 5769,
      "##rado": 5770,
      "continu": 5771,
      "disf": 5772,
      "##atro": 5773,
      "##rid": 5774,
      "fund": 5775,
      "lab": 5776,
      "sue": 5777,
      "##iembre": 5778,
      "hacia": 5779,
      "tur": 5780,
      "mujeres": 5781,
      "ta": 5782,
      "gente": 5783,
      "diver": 5784,
      "diferentes": 5785,
      "jo": 5786,
      "##tun": 5787,
      "##bio": 5788,
      "ol": 5789,
      "jus": 5790,
      "noviembre": 5791,
      "ayud": 5792,
      "compañ": 5793,
      "ase": 5794,
      "bol": 5795,
      "##cin": 5796,
      "##ted": 5797,
      "favor": 5798,
      "funcion": 5799,
      "##tera": 5800,
      "##ables": 5801,
      "##ció": 5802,
      "##terior": 5803,
      "sex": 5804,
      "inte": 5805,
      "veces": 5806,
      "consider": 5807,
      "##tada": 5808,
      "obs": 5809,
      "bajo": 5810,
      "vid": 5811,
      "ja": 5812,
      "sitio": 5813,
      "cuer": 5814,
      "conocer": 5815,
      "proyecto": 5816,
      "fl": 5817,
      "pró": 5818,
      "personal": 5819,
      "trad": 5820,
      "##dent": 5821,
      "estaba": 5822,
      "14": 5823,
      "real": 5824,
      "##tando": 5825,
      "##graf": 5826,
      "##entas": 5827,
      "regis": 5828,
      "##pital": 5829,
      "administra": 5830,
      "posible": 5831,
      "##bol": 5832,
      "respons": 5833,
      "##gn": 5834,
      "ambi": 5835,
      "pie": 5836,
      "distin": 5837,
      "##demos": 5838,
      "##eras": 5839,
      "2015": 5840,
      "mode": 5841,
      "proceso": 5842,
      "persona": 5843,
      "semana": 5844,
      "and": 5845,
      "13": 5846,
      "din": 5847,
      "nosotros": 5848,
      "política": 5849,
      "cin": 5850,
      "##oma": 5851,
      "all": 5852,
      "##icip": 5853,
      "puedes": 5854,
      "pregun": 5855,
      "mus": 5856,
      "##abor": 5857,
      "nombre": 5858,
      "llegar": 5859,
      "ello": 5860,
      "municip": 5861,
      "instal": 5862,
      "corre": 5863,
      "fil": 5864,
      "domin": 5865,
      "cir": 5866,
      "##uela": 5867,
      "##estión": 5868,
      "##tancia": 5869,
      "desa": 5870,
      "##cho": 5871,
      "descu": 5872,
      "selec": 5873,
      "sen": 5874,
      "##tubre": 5875,
      "experiencia": 5876,
      "000": 5877,
      "##ológ": 5878,
      "##rir": 5879,
      "encontrar": 5880,
      "disfru": 5881,
      "##ura": 5882,
      "##duci": 5883,
      "espec": 5884,
      "dijo": 5885,
      "libro": 5886,
      "octubre": 5887,
      "##itos": 5888,
      "casi": 5889,
      "depor": 5890,
      "programa": 5891,
      "##and": 5892,
      "##turas": 5893,
      "económ": 5894,
      "educ": 5895,
      "termin": 5896,
      "julio": 5897,
      "apren": 5898,
      "16": 5899,
      "misma": 5900,
      "derechos": 5901,
      "ejemplo": 5902,
      "color": 5903,
      "##ck": 5904,
      "recono": 5905,
      "##jas": 5906,
      "##tido": 5907,
      "##xico": 5908,
      "foto": 5909,
      "ej": 5910,
      "dici": 5911,
      "presidente": 5912,
      "minis": 5913,
      "et": 5914,
      "##uda": 5915,
      "##ió": 5916,
      "igual": 5917,
      "madrid": 5918,
      "derecho": 5919,
      "compr": 5920,
      "##illa": 5921,
      "grandes": 5922,
      "##inos": 5923,
      "acuerdo": 5924,
      "##aban": 5925,
      "particip": 5926,
      "amor": 5927,
      "puer": 5928,
      "vuel": 5929,
      "número": 5930,
      "##leb": 5931,
      "punto": 5932,
      "##cis": 5933,
      "natural": 5934,
      "haber": 5935,
      "##ajes": 5936,
      "lleg": 5937,
      "int": 5938,
      "niños": 5939,
      "agr": 5940,
      "diciembre": 5941,
      "docu": 5942,
      "##pul": 5943,
      "ori": 5944,
      "recom": 5945,
      "em": 5946,
      "sur": 5947,
      "tengo": 5948,
      "emple": 5949,
      "ur": 5950,
      "expres": 5951,
      "fá": 5952,
      "jug": 5953,
      "valor": 5954,
      "empresas": 5955,
      "enf": 5956,
      "hemos": 5957,
      "contac": 5958,
      "mos": 5959,
      "##eta": 5960,
      "acep": 5961,
      "realizar": 5962,
      "##ibilidad": 5963,
      "##ono": 5964,
      "##dor": 5965,
      "cá": 5966,
      "apoy": 5967,
      "embargo": 5968,
      "zona": 5969,
      "##ptiembre": 5970,
      "pin": 5971,
      "cri": 5972,
      "materi": 5973,
      "##iso": 5974,
      "public": 5975,
      "energ": 5976,
      "consul": 5977,
      "nego": 5978,
      "##zón": 5979,
      "mejores": 5980,
      "extra": 5981,
      "hombre": 5982,
      "septiembre": 5983,
      "##rero": 5984,
      "mie": 5985,
      "socie": 5986,
      "recur": 5987,
      "nun": 5988,
      "##ala": 5989,
      "##ecer": 5990,
      "##ental": 5991,
      "inver": 5992,
      "2014": 5993,
      "17": 5994,
      "carac": 5995,
      "fueron": 5996,
      "tenemos": 5997,
      "alim": 5998,
      "##th": 5999,
      "##ustri": 6000,
      "conver": 6001,
      "celeb": 6002,
      "respec": 6003,
      "asegu": 6004,
      "nunca": 6005,
      "##tá": 6006,
      "##taciones": 6007,
      "buena": 6008,
      "aso": 6009,
      "incluy": 6010,
      "incluso": 6011,
      "universidad": 6012,
      "##end": 6013,
      "25": 6014,
      "##vin": 6015,
      "##cina": 6016,
      "lín": 6017,
      "liber": 6018,
      "familia": 6019,
      "##ama": 6020,
      "mayo": 6021,
      "##oles": 6022,
      "br": 6023,
      "artículo": 6024,
      "##ps": 6025,
      "coment": 6026,
      "##imo": 6027,
      "minu": 6028,
      "cuan": 6029,
      "solici": 6030,
      "simp": 6031,
      "dios": 6032,
      "enton": 6033,
      "junio": 6034,
      "público": 6035,
      "##ensa": 6036,
      "mercado": 6037,
      "red": 6038,
      "##ist": 6039,
      "méxico": 6040,
      "noti": 6041,
      "intern": 6042,
      "##posición": 6043,
      "invi": 6044,
      "##isión": 6045,
      "relación": 6046,
      "##ximo": 6047,
      "2013": 6048,
      "indi": 6049,
      "desta": 6050,
      "prác": 6051,
      "finan": 6052,
      "palab": 6053,
      "entonces": 6054,
      "er": 6055,
      "prepar": 6056,
      "norm": 6057,
      "dif": 6058,
      "educación": 6059,
      "##dan": 6060,
      "pen": 6061,
      "mens": 6062,
      "##fico": 6063,
      "##bas": 6064,
      "control": 6065,
      "arg": 6066,
      "##ler": 6067,
      "parece": 6068,
      "##ós": 6069,
      "deber": 6070,
      "##ítu": 6071,
      "estados": 6072,
      "##tidad": 6073,
      "blan": 6074,
      "confi": 6075,
      "##ñas": 6076,
      "bal": 6077,
      "lí": 6078,
      "constitu": 6079,
      "cap": 6080,
      "##orte": 6081,
      "condiciones": 6082,
      "anun": 6083,
      "algunas": 6084,
      "marzo": 6085,
      "ai": 6086,
      "##fa": 6087,
      "cook": 6088,
      "hora": 6089,
      "rad": 6090,
      "tex": 6091,
      "refer": 6092,
      "ví": 6093,
      "internacional": 6094,
      "precio": 6095,
      "juego": 6096,
      "dirig": 6097,
      "abril": 6098,
      "acer": 6099,
      "ub": 6100,
      "industri": 6101,
      "enero": 6102,
      "mús": 6103,
      "##yo": 6104,
      "cambio": 6105,
      "comen": 6106,
      "aún": 6107,
      "##uir": 6108,
      "posi": 6109,
      "partido": 6110,
      "sociales": 6111,
      "fel": 6112,
      "##ombres": 6113,
      "meses": 6114,
      "caus": 6115,
      "unas": 6116,
      "ofrece": 6117,
      "##ke": 6118,
      "caracter": 6119,
      "encuentra": 6120,
      "##abilidad": 6121,
      "##pre": 6122,
      "##echa": 6123,
      "tele": 6124,
      "##ne": 6125,
      "van": 6126,
      "nave": 6127,
      "ejer": 6128,
      "podemos": 6129,
      "electr": 6130,
      "ident": 6131,
      "usted": 6132,
      "cuerpo": 6133,
      "garan": 6134,
      "junto": 6135,
      "##dir": 6136,
      "lado": 6137,
      "##rea": 6138,
      "perfec": 6139,
      "##irm": 6140,
      "tema": 6141,
      "secre": 6142,
      "##ub": 6143,
      "##termin": 6144,
      "##ex": 6145,
      "defin": 6146,
      "##ques": 6147,
      "##oso": 6148,
      "feb": 6149,
      "argent": 6150,
      "sociedad": 6151,
      "##olución": 6152,
      "alguna": 6153,
      "saber": 6154,
      "atención": 6155,
      "etc": 6156,
      "##erra": 6157,
      "diseño": 6158,
      "jos": 6159,
      "199": 6160,
      "creo": 6161,
      "alcan": 6162,
      "frente": 6163,
      "fuera": 6164,
      "cuatro": 6165,
      "##ric": 6166,
      "pelícu": 6167,
      "anim": 6168,
      "seguir": 6169,
      "aum": 6170,
      "##men": 6171,
      "actividades": 6172,
      "logr": 6173,
      "lan": 6174,
      "##posi": 6175,
      "dirección": 6176,
      "##mpli": 6177,
      "conc": 6178,
      "página": 6179,
      "##mor": 6180,
      "##ili": 6181,
      "protec": 6182,
      "##dose": 6183,
      "blog": 6184,
      "##fe": 6185,
      "med": 6186,
      "indic": 6187,
      "cookies": 6188,
      "##puesto": 6189,
      "compe": 6190,
      "alta": 6191,
      "estamos": 6192,
      "auto": 6193,
      "##ización": 6194,
      "il": 6195,
      "problemas": 6196,
      "##áp": 6197,
      "2012": 6198,
      "solu": 6199,
      "objetivo": 6200,
      "##pas": 6201,
      "##gosto": 6202,
      "##ivo": 6203,
      "opor": 6204,
      "bi": 6205,
      "sector": 6206,
      "serie": 6207,
      "bene": 6208,
      "##tual": 6209,
      "ga": 6210,
      "##bar": 6211,
      "##terio": 6212,
      "paso": 6213,
      "partir": 6214,
      "bel": 6215,
      "24": 6216,
      "ros": 6217,
      "fon": 6218,
      "gal": 6219,
      "vir": 6220,
      "oportun": 6221,
      "agosto": 6222,
      "##gres": 6223,
      "enfer": 6224,
      "detal": 6225,
      "mediante": 6226,
      "sign": 6227,
      "at": 6228,
      "internet": 6229,
      "##und": 6230,
      "usuario": 6231,
      "cru": 6232,
      "és": 6233,
      "##leg": 6234,
      "guer": 6235,
      "afec": 6236,
      "##izo": 6237,
      "##orn": 6238,
      "labor": 6239,
      "100": 6240,
      "estoy": 6241,
      "##var": 6242,
      "promo": 6243,
      "proce": 6244,
      "rom": 6245,
      "##ger": 6246,
      "loc": 6247,
      "obl": 6248,
      "vic": 6249,
      "##ifica": 6250,
      "amigos": 6251,
      "acceso": 6252,
      "obra": 6253,
      "espacio": 6254,
      "varios": 6255,
      "mues": 6256,
      "financi": 6257,
      "inde": 6258,
      "##respon": 6259,
      "##itas": 6260,
      "doc": 6261,
      "tend": 6262,
      "##dió": 6263,
      "noche": 6264,
      "determin": 6265,
      "dice": 6266,
      "##zos": 6267,
      "##tific": 6268,
      "situación": 6269,
      "mundi": 6270,
      "##diente": 6271,
      "febrero": 6272,
      "##tt": 6273,
      "propie": 6274,
      "ocas": 6275,
      "##bos": 6276,
      "producto": 6277,
      "##visión": 6278,
      "##uros": 6279,
      "##fi": 6280,
      "##crip": 6281,
      "##lam": 6282,
      "poner": 6283,
      "evi": 6284,
      "az": 6285,
      "escu": 6286,
      "colec": 6287,
      "##eric": 6288,
      "bueno": 6289,
      "##imiento": 6290,
      "##ral": 6291,
      "alum": 6292,
      "asoci": 6293,
      "##omía": 6294,
      "##alización": 6295,
      "atra": 6296,
      "sac": 6297,
      "##blo": 6298,
      "inten": 6299,
      "perio": 6300,
      "21": 6301,
      "##ula": 6302,
      "ado": 6303,
      "nuevos": 6304,
      "correspon": 6305,
      "siendo": 6306,
      "permite": 6307,
      "curso": 6308,
      "##pel": 6309,
      "reco": 6310,
      "problema": 6311,
      "distri": 6312,
      "último": 6313,
      "##arias": 6314,
      "electrón": 6315,
      "largo": 6316,
      "provin": 6317,
      "ráp": 6318,
      "orig": 6319,
      "##bado": 6320,
      "##mentos": 6321,
      "minutos": 6322,
      "the": 6323,
      "ps": 6324,
      "##jar": 6325,
      "mic": 6326,
      "00": 6327,
      "##siones": 6328,
      "har": 6329,
      "eleg": 6330,
      "sos": 6331,
      "destin": 6332,
      "imagen": 6333,
      "director": 6334,
      "conven": 6335,
      "##clus": 6336,
      "libre": 6337,
      "acom": 6338,
      "base": 6339,
      "tel": 6340,
      "cla": 6341,
      "falta": 6342,
      "##tán": 6343,
      "prue": 6344,
      "##ves": 6345,
      "##rio": 6346,
      "gestión": 6347,
      "español": 6348,
      "50": 6349,
      "tienes": 6350,
      "##lado": 6351,
      "##ducir": 6352,
      "especi": 6353,
      "declar": 6354,
      "capacidad": 6355,
      "descar": 6356,
      "##arlo": 6357,
      "sor": 6358,
      "empez": 6359,
      "segunda": 6360,
      "ayuda": 6361,
      "##gon": 6362,
      "##omos": 6363,
      "leer": 6364,
      "ries": 6365,
      "##porte": 6366,
      "represent": 6367,
      "env": 6368,
      "origin": 6369,
      "usuarios": 6370,
      "tempor": 6371,
      "actividad": 6372,
      "fácil": 6373,
      "proces": 6374,
      "##trucción": 6375,
      "benefici": 6376,
      "relacion": 6377,
      "ejecu": 6378,
      "fab": 6379,
      "mano": 6380,
      "##rera": 6381,
      "formación": 6382,
      "##val": 6383,
      "##istencia": 6384,
      "##unta": 6385,
      "##éis": 6386,
      "juegos": 6387,
      "##ile": 6388,
      "##anas": 6389,
      "estra": 6390,
      "realidad": 6391,
      "juan": 6392,
      "precios": 6393,
      "unidos": 6394,
      "##ificación": 6395,
      "abs": 6396,
      "dese": 6397,
      "resta": 6398,
      "##line": 6399,
      "soy": 6400,
      "reun": 6401,
      "2011": 6402,
      "tenía": 6403,
      "dinero": 6404,
      "ren": 6405,
      "pasar": 6406,
      "fre": 6407,
      "##ancia": 6408,
      "países": 6409,
      "##iene": 6410,
      "22": 6411,
      "siguiente": 6412,
      "##icia": 6413,
      "dan": 6414,
      "capital": 6415,
      "lec": 6416,
      "gol": 6417,
      "comunidad": 6418,
      "je": 6419,
      "##enas": 6420,
      "gusta": 6421,
      "##tiz": 6422,
      "ases": 6423,
      "nuevas": 6424,
      "gratis": 6425,
      "podría": 6426,
      "segundo": 6427,
      "fis": 6428,
      "línea": 6429,
      "##iva": 6430,
      "##gue": 6431,
      "sim": 6432,
      "##oría": 6433,
      "mundial": 6434,
      "##tón": 6435,
      "hos": 6436,
      "europe": 6437,
      "mir": 6438,
      "nuestras": 6439,
      "##gel": 6440,
      "##aja": 6441,
      "##tion": 6442,
      "explic": 6443,
      "fra": 6444,
      "conoci": 6445,
      "acab": 6446,
      "edu": 6447,
      "sil": 6448,
      "fer": 6449,
      "##cía": 6450,
      "nad": 6451,
      "vent": 6452,
      "impres": 6453,
      "fecha": 6454,
      "primero": 6455,
      "estudio": 6456,
      "resultados": 6457,
      "##alizar": 6458,
      "pueblo": 6459,
      "##cionar": 6460,
      "elem": 6461,
      "##are": 6462,
      "integr": 6463,
      "##tario": 6464,
      "fac": 6465,
      "##imos": 6466,
      "quienes": 6467,
      "protección": 6468,
      "modo": 6469,
      "encan": 6470,
      "simple": 6471,
      "agu": 6472,
      "algún": 6473,
      "acompañ": 6474,
      "gr": 6475,
      "investigación": 6476,
      "comunicación": 6477,
      "ocur": 6478,
      "viol": 6479,
      "seguro": 6480,
      "hombres": 6481,
      "eli": 6482,
      "manten": 6483,
      "hizo": 6484,
      "cha": 6485,
      "puntos": 6486,
      "dejar": 6487,
      "sens": 6488,
      "respecto": 6489,
      "priv": 6490,
      "##ítulo": 6491,
      "mó": 6492,
      "enten": 6493,
      "comb": 6494,
      "conj": 6495,
      "##iar": 6496,
      "cultura": 6497,
      "##tina": 6498,
      "##ísticas": 6499,
      "##gro": 6500,
      "modelo": 6501,
      "presente": 6502,
      "cerca": 6503,
      "sentido": 6504,
      "##alu": 6505,
      "##trado": 6506,
      "calle": 6507,
      "señal": 6508,
      "música": 6509,
      "##tran": 6510,
      "##tud": 6511,
      "##ide": 6512,
      "plata": 6513,
      "envi": 6514,
      "online": 6515,
      "ig": 6516,
      "claro": 6517,
      "desp": 6518,
      "esos": 6519,
      "ense": 6520,
      "méd": 6521,
      "avan": 6522,
      "casos": 6523,
      "cuar": 6524,
      "mater": 6525,
      "excel": 6526,
      "llevar": 6527,
      "recor": 6528,
      "fís": 6529,
      "dicho": 6530,
      "jur": 6531,
      "##dente": 6532,
      "mañ": 6533,
      "ningun": 6534,
      "cuanto": 6535,
      "profesional": 6536,
      "mejorar": 6537,
      "miemb": 6538,
      "suf": 6539,
      "23": 6540,
      "principal": 6541,
      "respues": 6542,
      "prev": 6543,
      "##tió": 6544,
      "marca": 6545,
      "necesario": 6546,
      "recursos": 6547,
      "##ducción": 6548,
      "bon": 6549,
      "conte": 6550,
      "##uales": 6551,
      "producción": 6552,
      "camino": 6553,
      "2010": 6554,
      "fundam": 6555,
      "conci": 6556,
      "##isis": 6557,
      "energía": 6558,
      "clientes": 6559,
      "josé": 6560,
      "movi": 6561,
      "fan": 6562,
      "medios": 6563,
      "alto": 6564,
      "partici": 6565,
      "ata": 6566,
      "arte": 6567,
      "mayoría": 6568,
      "crear": 6569,
      "##ich": 6570,
      "ejerci": 6571,
      "##quis": 6572,
      "tratamiento": 6573,
      "ingres": 6574,
      "video": 6575,
      "tarde": 6576,
      "concep": 6577,
      "herra": 6578,
      "##char": 6579,
      "dedic": 6580,
      "mol": 6581,
      "arch": 6582,
      "propor": 6583,
      "##van": 6584,
      "titu": 6585,
      "puesto": 6586,
      "##genes": 6587,
      "civ": 6588,
      "ningún": 6589,
      "herrami": 6590,
      "cinco": 6591,
      "futu": 6592,
      "popul": 6593,
      "propues": 6594,
      "##form": 6595,
      "superior": 6596,
      "hotel": 6597,
      "paci": 6598,
      "##tales": 6599,
      "idea": 6600,
      "##culo": 6601,
      "local": 6602,
      "incre": 6603,
      "lun": 6604,
      "rel": 6605,
      "vig": 6606,
      "abier": 6607,
      "dol": 6608,
      "feder": 6609,
      "debido": 6610,
      "beb": 6611,
      "hola": 6612,
      "haya": 6613,
      "alma": 6614,
      "pobl": 6615,
      "cine": 6616,
      "luz": 6617,
      "tierra": 6618,
      "ofer": 6619,
      "vista": 6620,
      "papel": 6621,
      "tér": 6622,
      "##ite": 6623,
      "mañana": 6624,
      "##érica": 6625,
      "##eas": 6626,
      "##rió": 6627,
      "opin": 6628,
      "##tbol": 6629,
      "categ": 6630,
      "##tero": 6631,
      "limp": 6632,
      "##diendo": 6633,
      "depen": 6634,
      "za": 6635,
      "fotos": 6636,
      "vamos": 6637,
      "hacen": 6638,
      "conv": 6639,
      "club": 6640,
      "##lares": 6641,
      "venta": 6642,
      "acción": 6643,
      "cuad": 6644,
      "tercer": 6645,
      "euros": 6646,
      "##oc": 6647,
      "##gre": 6648,
      "cumpl": 6649,
      "organización": 6650,
      "administración": 6651,
      "##rido": 6652,
      "##iado": 6653,
      "##cup": 6654,
      "##zado": 6655,
      "deben": 6656,
      "civil": 6657,
      "encar": 6658,
      "##tien": 6659,
      "##tín": 6660,
      "##mica": 6661,
      "##sas": 6662,
      "norte": 6663,
      "##tadas": 6664,
      "ampl": 6665,
      "##ting": 6666,
      "##grafía": 6667,
      "aplicación": 6668,
      "particular": 6669,
      "aj": 6670,
      "único": 6671,
      "contenido": 6672,
      "oper": 6673,
      "entrada": 6674,
      "##ier": 6675,
      "agrad": 6676,
      "estr": 6677,
      "##íamos": 6678,
      "cabo": 6679,
      "nu": 6680,
      "cel": 6681,
      "##icamente": 6682,
      "algui": 6683,
      "buenos": 6684,
      "##álisis": 6685,
      "poten": 6686,
      "##dimiento": 6687,
      "##one": 6688,
      "##ft": 6689,
      "##ordin": 6690,
      "##dientes": 6691,
      "bastante": 6692,
      "profesionales": 6693,
      "regu": 6694,
      "##iente": 6695,
      "pública": 6696,
      "##tiene": 6697,
      "##ivos": 6698,
      "##alo": 6699,
      "añad": 6700,
      "alguien": 6701,
      "##adamente": 6702,
      "varias": 6703,
      "sigue": 6704,
      "tecnología": 6705,
      "refle": 6706,
      "##ima": 6707,
      "grande": 6708,
      "##ilar": 6709,
      "nadie": 6710,
      "bás": 6711,
      "sorp": 6712,
      "edad": 6713,
      "ayudar": 6714,
      "colabor": 6715,
      "emo": 6716,
      "##lante": 6717,
      "##té": 6718,
      "tomar": 6719,
      "veh": 6720,
      "##dencia": 6721,
      "cierto": 6722,
      "madre": 6723,
      "necesita": 6724,
      "##xim": 6725,
      "##ror": 6726,
      "campo": 6727,
      "mí": 6728,
      "interior": 6729,
      "lin": 6730,
      "##rica": 6731,
      "allí": 6732,
      "alter": 6733,
      "proyectos": 6734,
      "ada": 6735,
      "propio": 6736,
      "argentina": 6737,
      "len": 6738,
      "últimos": 6739,
      "buscar": 6740,
      "joven": 6741,
      "anterior": 6742,
      "##taría": 6743,
      "cantidad": 6744,
      "contacto": 6745,
      "santa": 6746,
      "pareja": 6747,
      "pron": 6748,
      "intro": 6749,
      "haciendo": 6750,
      "nar": 6751,
      "##ilidades": 6752,
      "disfrutar": 6753,
      "terri": 6754,
      "##fo": 6755,
      "##ill": 6756,
      "acciones": 6757,
      "pueda": 6758,
      "opera": 6759,
      "hon": 6760,
      "##jes": 6761,
      "bor": 6762,
      "adecu": 6763,
      "actual": 6764,
      "ambiente": 6765,
      "constr": 6766,
      "perman": 6767,
      "barcel": 6768,
      "ellas": 6769,
      "obras": 6770,
      "quiere": 6771,
      "apor": 6772,
      "contr": 6773,
      "##gin": 6774,
      "##quiera": 6775,
      "estilo": 6776,
      "busc": 6777,
      "mantener": 6778,
      "evitar": 6779,
      "redes": 6780,
      "lar": 6781,
      "##ecen": 6782,
      "edición": 6783,
      "sencil": 6784,
      "##enci": 6785,
      "seg": 6786,
      "repar": 6787,
      "mucha": 6788,
      "##tamento": 6789,
      "consecu": 6790,
      "##vía": 6791,
      "##erva": 6792,
      "interés": 6793,
      "##ice": 6794,
      "demás": 6795,
      "##icidad": 6796,
      "aspec": 6797,
      "guerra": 6798,
      "contar": 6799,
      "palabras": 6800,
      "##ficiente": 6801,
      "padre": 6802,
      "hablar": 6803,
      "enferme": 6804,
      "cuales": 6805,
      "manif": 6806,
      "estudios": 6807,
      "esté": 6808,
      "dia": 6809,
      "##ífic": 6810,
      "medidas": 6811,
      "fir": 6812,
      "40": 6813,
      "##tividad": 6814,
      "modi": 6815,
      "obtener": 6816,
      "oficial": 6817,
      "##mir": 6818,
      "respe": 6819,
      "indepen": 6820,
      "nove": 6821,
      "sería": 6822,
      "##turales": 6823,
      "correo": 6824,
      "aire": 6825,
      "fes": 6826,
      "##ibles": 6827,
      "##illo": 6828,
      "siglo": 6829,
      "adap": 6830,
      "##lu": 6831,
      "comien": 6832,
      "ahí": 6833,
      "educa": 6834,
      "ministerio": 6835,
      "##ró": 6836,
      "cosa": 6837,
      "apoyo": 6838,
      "##ii": 6839,
      "medida": 6840,
      "libros": 6841,
      "piel": 6842,
      "igles": 6843,
      "##eos": 6844,
      "futuro": 6845,
      "crea": 6846,
      "elimin": 6847,
      "película": 6848,
      "temas": 6849,
      "media": 6850,
      "dor": 6851,
      "record": 6852,
      "resultado": 6853,
      "##dar": 6854,
      "análisis": 6855,
      "28": 6856,
      "correc": 6857,
      "compañía": 6858,
      "volver": 6859,
      "pantal": 6860,
      "esf": 6861,
      "##ilo": 6862,
      "duda": 6863,
      "cliente": 6864,
      "gui": 6865,
      "sá": 6866,
      "##osa": 6867,
      "quiero": 6868,
      "barcelona": 6869,
      "dado": 6870,
      "podrá": 6871,
      "utilizar": 6872,
      "asi": 6873,
      "vas": 6874,
      "prob": 6875,
      "escuela": 6876,
      "justi": 6877,
      "aquellos": 6878,
      "comprar": 6879,
      "##ándo": 6880,
      "jó": 6881,
      "##amientos": 6882,
      "somos": 6883,
      "significa": 6884,
      "adi": 6885,
      "construcción": 6886,
      "##rez": 6887,
      "26": 6888,
      "##ut": 6889,
      "##bal": 6890,
      "conseguir": 6891,
      "##venes": 6892,
      "propia": 6893,
      "última": 6894,
      "pul": 6895,
      "depar": 6896,
      "diseñ": 6897,
      "##rantes": 6898,
      "##ística": 6899,
      "vehícu": 6900,
      "##lor": 6901,
      "##bió": 6902,
      "##ienda": 6903,
      "disposi": 6904,
      "carrera": 6905,
      "##dedor": 6906,
      "tendr": 6907,
      "restau": 6908,
      "pesar": 6909,
      "cuid": 6910,
      "jóvenes": 6911,
      "cora": 6912,
      "recuper": 6913,
      "sean": 6914,
      "términ": 6915,
      "2009": 6916,
      "comenz": 6917,
      "ped": 6918,
      "estruc": 6919,
      "muerte": 6920,
      "próximo": 6921,
      "principales": 6922,
      "fuerza": 6923,
      "fies": 6924,
      "jes": 6925,
      "conform": 6926,
      "enseñ": 6927,
      "descub": 6928,
      "##monio": 6929,
      "material": 6930,
      "humanos": 6931,
      "27": 6932,
      "ubic": 6933,
      "jorn": 6934,
      "##ris": 6935,
      "##usión": 6936,
      "enfr": 6937,
      "imá": 6938,
      "ses": 6939,
      "histó": 6940,
      "##entación": 6941,
      "##adoras": 6942,
      "figu": 6943,
      "individ": 6944,
      "polic": 6945,
      "##bern": 6946,
      "##omas": 6947,
      "hijos": 6948,
      "sh": 6949,
      "pasa": 6950,
      "##éf": 6951,
      "produ": 6952,
      "incor": 6953,
      "viaje": 6954,
      "patri": 6955,
      "##ign": 6956,
      "trabajar": 6957,
      "limi": 6958,
      "libertad": 6959,
      "tradi": 6960,
      "difí": 6961,
      "muestra": 6962,
      "##có": 6963,
      "##cili": 6964,
      "encuentro": 6965,
      "imágenes": 6966,
      "exclus": 6967,
      "##ph": 6968,
      "fas": 6969,
      "población": 6970,
      "compra": 6971,
      "resto": 6972,
      "##media": 6973,
      "esas": 6974,
      "recomend": 6975,
      "éxi": 6976,
      "presu": 6977,
      "cara": 6978,
      "cad": 6979,
      "tama": 6980,
      "##iencias": 6981,
      "equipos": 6982,
      "supon": 6983,
      "ofrecer": 6984,
      "demas": 6985,
      "eran": 6986,
      "##onas": 6987,
      "##encial": 6988,
      "lleva": 6989,
      "tuvo": 6990,
      "recib": 6991,
      "resid": 6992,
      "visto": 6993,
      "evalu": 6994,
      "der": 6995,
      "##vención": 6996,
      "##tia": 6997,
      "enla": 6998,
      "campañ": 6999,
      "##iza": 7000,
      "##tivamente": 7001,
      "europa": 7002,
      "##esta": 7003,
      "usar": 7004,
      "án": 7005,
      "sé": 7006,
      "importantes": 7007,
      "##ila": 7008,
      "gratu": 7009,
      "oportunidad": 7010,
      "hijo": 7011,
      "realmente": 7012,
      "vin": 7013,
      "manos": 7014,
      "área": 7015,
      "rey": 7016,
      "entren": 7017,
      "vie": 7018,
      "concur": 7019,
      "elabor": 7020,
      "muer": 7021,
      "aprov": 7022,
      "dom": 7023,
      "##ete": 7024,
      "ww": 7025,
      "ambos": 7026,
      "móvil": 7027,
      "##trás": 7028,
      "##ches": 7029,
      "##rac": 7030,
      "##all": 7031,
      "grupos": 7032,
      "respuesta": 7033,
      "##cidos": 7034,
      "##tró": 7035,
      "busca": 7036,
      "##icaciones": 7037,
      "##rup": 7038,
      "teléf": 7039,
      "domingo": 7040,
      "##taron": 7041,
      "##licaciones": 7042,
      "sir": 7043,
      "agre": 7044,
      "noticias": 7045,
      "consu": 7046,
      "cocina": 7047,
      "versión": 7048,
      "##remos": 7049,
      "ayunta": 7050,
      "##ular": 7051,
      "sistemas": 7052,
      "clase": 7053,
      "puedo": 7054,
      "queda": 7055,
      "cambiar": 7056,
      "##reto": 7057,
      "##xic": 7058,
      "##todo": 7059,
      "##ka": 7060,
      "##ple": 7061,
      "acad": 7062,
      "región": 7063,
      "31": 7064,
      "estad": 7065,
      "preo": 7066,
      "estudiantes": 7067,
      "cient": 7068,
      "principio": 7069,
      "lic": 7070,
      "relaciones": 7071,
      "proteg": 7072,
      "central": 7073,
      "tes": 7074,
      "pago": 7075,
      "acce": 7076,
      "##grá": 7077,
      "deman": 7078,
      "participación": 7079,
      "##cripción": 7080,
      "elementos": 7081,
      "##quer": 7082,
      "inicia": 7083,
      "visita": 7084,
      "posibilidad": 7085,
      "exig": 7086,
      "temporada": 7087,
      "##tagon": 7088,
      "luis": 7089,
      "fuerte": 7090,
      "29": 7091,
      "##tamos": 7092,
      "##ell": 7093,
      "necesidad": 7094,
      "instituto": 7095,
      "riesgo": 7096,
      "carlos": 7097,
      "mec": 7098,
      "##nas": 7099,
      "ninguna": 7100,
      "##metros": 7101,
      "digi": 7102,
      "##cionado": 7103,
      "señor": 7104,
      "especialmente": 7105,
      "viene": 7106,
      "serán": 7107,
      "198": 7108,
      "códi": 7109,
      "dio": 7110,
      "##entemente": 7111,
      "venez": 7112,
      "gri": 7113,
      "##xima": 7114,
      "htt": 7115,
      "alre": 7116,
      "arm": 7117,
      "##tiendo": 7118,
      "inno": 7119,
      "cabeza": 7120,
      "exten": 7121,
      "##ria": 7122,
      "www": 7123,
      "##tía": 7124,
      "estrateg": 7125,
      "inclu": 7126,
      "tro": 7127,
      "primeros": 7128,
      "##entales": 7129,
      "maría": 7130,
      "nota": 7131,
      "recuer": 7132,
      "lista": 7133,
      "mara": 7134,
      "consejo": 7135,
      "justicia": 7136,
      "cub": 7137,
      "ojos": 7138,
      "presenta": 7139,
      "seman": 7140,
      "facili": 7141,
      "mismos": 7142,
      "##ense": 7143,
      "fondo": 7144,
      "##torno": 7145,
      "crí": 7146,
      "todavía": 7147,
      "##hi": 7148,
      "plazo": 7149,
      "función": 7150,
      "padres": 7151,
      "legis": 7152,
      "##rando": 7153,
      "sala": 7154,
      "mín": 7155,
      "##izar": 7156,
      "##rada": 7157,
      "digital": 7158,
      "presencia": 7159,
      "##ernes": 7160,
      "voy": 7161,
      "ayer": 7162,
      "##éctr": 7163,
      "cambios": 7164,
      "popular": 7165,
      "##book": 7166,
      "existe": 7167,
      "vesti": 7168,
      "ben": 7169,
      "economía": 7170,
      "pis": 7171,
      "quiz": 7172,
      "pers": 7173,
      "extre": 7174,
      "participar": 7175,
      "bur": 7176,
      "##lés": 7177,
      "tenido": 7178,
      "rod": 7179,
      "incorpor": 7180,
      "acon": 7181,
      "##bajo": 7182,
      "efectos": 7183,
      "##iga": 7184,
      "peso": 7185,
      "salir": 7186,
      "cic": 7187,
      "sexo": 7188,
      "radio": 7189,
      "viernes": 7190,
      "acces": 7191,
      "baja": 7192,
      "características": 7193,
      "informa": 7194,
      "##teriores": 7195,
      "##cam": 7196,
      "recibir": 7197,
      "materia": 7198,
      "paz": 7199,
      "conduc": 7200,
      "conjunto": 7201,
      "trabajadores": 7202,
      "##dez": 7203,
      "##torias": 7204,
      "##ari": 7205,
      "pequeño": 7206,
      "prem": 7207,
      "blo": 7208,
      "enci": 7209,
      "catal": 7210,
      "distribu": 7211,
      "siguientes": 7212,
      "provincia": 7213,
      "marco": 7214,
      "comisión": 7215,
      "miembros": 7216,
      "##ki": 7217,
      "asociación": 7218,
      "iglesia": 7219,
      "##fil": 7220,
      "electrónico": 7221,
      "##don": 7222,
      "demo": 7223,
      "##ug": 7224,
      "ton": 7225,
      "##tarse": 7226,
      "inglés": 7227,
      "##ware": 7228,
      "víde": 7229,
      "mexic": 7230,
      "##greso": 7231,
      "existen": 7232,
      "lig": 7233,
      "éxito": 7234,
      "num": 7235,
      "##rel": 7236,
      "##tino": 7237,
      "##ría": 7238,
      "arri": 7239,
      "mag": 7240,
      "foro": 7241,
      "face": 7242,
      "##ándose": 7243,
      "opción": 7244,
      "##forma": 7245,
      "maes": 7246,
      "mane": 7247,
      "glo": 7248,
      "título": 7249,
      "preten": 7250,
      "efecto": 7251,
      "ampli": 7252,
      "##entan": 7253,
      "conocimiento": 7254,
      "guar": 7255,
      "negocio": 7256,
      "##ry": 7257,
      "##édi": 7258,
      "ayuntamiento": 7259,
      "far": 7260,
      "prueba": 7261,
      "##mara": 7262,
      "##dica": 7263,
      "cruz": 7264,
      "impac": 7265,
      "##cados": 7266,
      "mez": 7267,
      "personales": 7268,
      "##poco": 7269,
      "verano": 7270,
      "##americ": 7271,
      "española": 7272,
      "totalmente": 7273,
      "sabe": 7274,
      "necesidades": 7275,
      "vivir": 7276,
      "colomb": 7277,
      "comunic": 7278,
      "inm": 7279,
      "2008": 7280,
      "épo": 7281,
      "quieres": 7282,
      "incluye": 7283,
      "ingen": 7284,
      "cargo": 7285,
      "tampoco": 7286,
      "artis": 7287,
      "razón": 7288,
      "conec": 7289,
      "monta": 7290,
      "contenidos": 7291,
      "bra": 7292,
      "moder": 7293,
      "ideal": 7294,
      "##ines": 7295,
      "carác": 7296,
      "protagon": 7297,
      "zapa": 7298,
      "carácter": 7299,
      "negro": 7300,
      "única": 7301,
      "##vier": 7302,
      "opciones": 7303,
      "corte": 7304,
      "interpre": 7305,
      "actualmente": 7306,
      "comentarios": 7307,
      "period": 7308,
      "##torial": 7309,
      "lon": 7310,
      "observ": 7311,
      "aprovech": 7312,
      "multi": 7313,
      "materiales": 7314,
      "inicio": 7315,
      "suce": 7316,
      "##idores": 7317,
      "puedan": 7318,
      "eléctr": 7319,
      "bibl": 7320,
      "entrega": 7321,
      "hacerlo": 7322,
      "provo": 7323,
      "edifici": 7324,
      "##ws": 7325,
      "plante": 7326,
      "corazón": 7327,
      "##itario": 7328,
      "hom": 7329,
      "tab": 7330,
      "artículos": 7331,
      "demos": 7332,
      "##arán": 7333,
      "compartir": 7334,
      "norma": 7335,
      "dó": 7336,
      "texto": 7337,
      "quin": 7338,
      "gi": 7339,
      "##pl": 7340,
      "común": 7341,
      "kil": 7342,
      "partes": 7343,
      "##diz": 7344,
      "frecu": 7345,
      "convo": 7346,
      "##reas": 7347,
      "mayores": 7348,
      "audi": 7349,
      "creación": 7350,
      "evento": 7351,
      "##vación": 7352,
      "perten": 7353,
      "comercial": 7354,
      "colombia": 7355,
      "tendrá": 7356,
      "##guen": 7357,
      "completo": 7358,
      "camp": 7359,
      "##rí": 7360,
      "##ático": 7361,
      "##acción": 7362,
      "##ticamente": 7363,
      "pien": 7364,
      "difícil": 7365,
      "intel": 7366,
      "##via": 7367,
      "##bil": 7368,
      "esfuer": 7369,
      "crecimiento": 7370,
      "##úa": 7371,
      "blanco": 7372,
      "memor": 7373,
      "acerca": 7374,
      "##tería": 7375,
      "60": 7376,
      "pudi": 7377,
      "responsabilidad": 7378,
      "menor": 7379,
      "líder": 7380,
      "configu": 7381,
      "taller": 7382,
      "velo": 7383,
      "cultural": 7384,
      "movimiento": 7385,
      "premi": 7386,
      "colo": 7387,
      "segam": 7388,
      "niño": 7389,
      "chile": 7390,
      "seis": 7391,
      "revis": 7392,
      "##illas": 7393,
      "##alizado": 7394,
      "post": 7395,
      "naturaleza": 7396,
      "aus": 7397,
      "##ferencia": 7398,
      "##ciar": 7399,
      "diario": 7400,
      "jugar": 7401,
      "sábado": 7402,
      "naveg": 7403,
      "##ner": 7404,
      "ital": 7405,
      "ajus": 7406,
      "##udo": 7407,
      "plaza": 7408,
      "metros": 7409,
      "lugares": 7410,
      "iz": 7411,
      "alumnos": 7412,
      "2007": 7413,
      "original": 7414,
      "terc": 7415,
      "##torios": 7416,
      "contri": 7417,
      "##ieza": 7418,
      "bras": 7419,
      "##pia": 7420,
      "quién": 7421,
      "##umen": 7422,
      "municipal": 7423,
      "separ": 7424,
      "##ificar": 7425,
      "formas": 7426,
      "##ys": 7427,
      "segui": 7428,
      "hici": 7429,
      "antigu": 7430,
      "cámara": 7431,
      "gobern": 7432,
      "tenga": 7433,
      "fabric": 7434,
      "hid": 7435,
      "##mes": 7436,
      "encontra": 7437,
      "código": 7438,
      "##ardo": 7439,
      "comprom": 7440,
      "ín": 7441,
      "prome": 7442,
      "ri": 7443,
      "##ática": 7444,
      "políticas": 7445,
      "técnico": 7446,
      "policía": 7447,
      "dipu": 7448,
      "selección": 7449,
      "alrededor": 7450,
      "pelig": 7451,
      "##ogle": 7452,
      "recl": 7453,
      "fern": 7454,
      "bienes": 7455,
      "pensar": 7456,
      "industria": 7457,
      "eta": 7458,
      "denun": 7459,
      "sum": 7460,
      "##ritu": 7461,
      "trib": 7462,
      "riv": 7463,
      "##ical": 7464,
      "ideas": 7465,
      "víc": 7466,
      "circu": 7467,
      "##etas": 7468,
      "##taria": 7469,
      "trá": 7470,
      "google": 7471,
      "inmedia": 7472,
      "buenas": 7473,
      "lis": 7474,
      "deja": 7475,
      "##gó": 7476,
      "##ulas": 7477,
      "tienda": 7478,
      "hogar": 7479,
      "transporte": 7480,
      "##tida": 7481,
      "importancia": 7482,
      "##cra": 7483,
      "##tora": 7484,
      "combin": 7485,
      "dev": 7486,
      "##enda": 7487,
      "raz": 7488,
      "ep": 7489,
      "programas": 7490,
      "##cida": 7491,
      "##ork": 7492,
      "##gada": 7493,
      "oblig": 7494,
      "colores": 7495,
      "##ciona": 7496,
      "origen": 7497,
      "requier": 7498,
      "teléfono": 7499,
      "fiscal": 7500,
      "##dentes": 7501,
      "conserv": 7502,
      "lunes": 7503,
      "utiliza": 7504,
      "encuentran": 7505,
      "conce": 7506,
      "modific": 7507,
      "##bilidad": 7508,
      "gén": 7509,
      "##íos": 7510,
      "consig": 7511,
      "dolor": 7512,
      "##culos": 7513,
      "##titud": 7514,
      "valores": 7515,
      "lanz": 7516,
      "decisión": 7517,
      "presentación": 7518,
      "olvid": 7519,
      "competen": 7520,
      "tamaño": 7521,
      "35": 7522,
      "unidad": 7523,
      "brin": 7524,
      "volun": 7525,
      "tú": 7526,
      "momentos": 7527,
      "satis": 7528,
      "##au": 7529,
      "##ron": 7530,
      "obten": 7531,
      "planta": 7532,
      "ejercicio": 7533,
      "##ieron": 7534,
      "transform": 7535,
      "##ído": 7536,
      "ger": 7537,
      "responsable": 7538,
      "autom": 7539,
      "excelente": 7540,
      "herramientas": 7541,
      "pagar": 7542,
      "desarrollar": 7543,
      "dé": 7544,
      "coleg": 7545,
      "dra": 7546,
      "salida": 7547,
      "##iano": 7548,
      "referencia": 7549,
      "ace": 7550,
      "hubi": 7551,
      "vaca": 7552,
      "##dra": 7553,
      "##col": 7554,
      "regres": 7555,
      "centros": 7556,
      "excep": 7557,
      "informe": 7558,
      "##mico": 7559,
      "hospital": 7560,
      "infan": 7561,
      "fru": 7562,
      "campe": 7563,
      "##uelo": 7564,
      "mensaje": 7565,
      "deba": 7566,
      "defini": 7567,
      "##rico": 7568,
      "##mbi": 7569,
      "campaña": 7570,
      "alcal": 7571,
      "##ee": 7572,
      "época": 7573,
      "herm": 7574,
      "ram": 7575,
      "intelig": 7576,
      "toma": 7577,
      "defensa": 7578,
      "garanti": 7579,
      "##rios": 7580,
      "parque": 7581,
      "mig": 7582,
      "llega": 7583,
      "procesos": 7584,
      "trabajos": 7585,
      "facebook": 7586,
      "crédi": 7587,
      "conoce": 7588,
      "impul": 7589,
      "sorpren": 7590,
      "encontr": 7591,
      "##iedad": 7592,
      "técnicas": 7593,
      "propiedad": 7594,
      "elegir": 7595,
      "luc": 7596,
      "crisis": 7597,
      "comercio": 7598,
      "manifes": 7599,
      "oro": 7600,
      "diferencia": 7601,
      "aprender": 7602,
      "premio": 7603,
      "evid": 7604,
      "profun": 7605,
      "departamento": 7606,
      "sentir": 7607,
      "relig": 7608,
      "anton": 7609,
      "económico": 7610,
      "allá": 7611,
      "jesús": 7612,
      "mesa": 7613,
      "militar": 7614,
      "máximo": 7615,
      "##ética": 7616,
      "##estion": 7617,
      "objetivos": 7618,
      "psic": 7619,
      "perder": 7620,
      "técnica": 7621,
      "rus": 7622,
      "clás": 7623,
      "##lad": 7624,
      "suficiente": 7625,
      "##zan": 7626,
      "pantalla": 7627,
      "artes": 7628,
      "causa": 7629,
      "##ff": 7630,
      "práctica": 7631,
      "##útbol": 7632,
      "ara": 7633,
      "##20": 7634,
      "izquier": 7635,
      "tw": 7636,
      "registro": 7637,
      "ámbi": 7638,
      "candida": 7639,
      "simplemente": 7640,
      "demasiado": 7641,
      "detalles": 7642,
      "humano": 7643,
      "##cción": 7644,
      "consumo": 7645,
      "##ífico": 7646,
      "espera": 7647,
      "tribun": 7648,
      "arti": 7649,
      "pros": 7650,
      "tarje": 7651,
      "##ár": 7652,
      "coordin": 7653,
      "disposición": 7654,
      "doble": 7655,
      "##yas": 7656,
      "pregunta": 7657,
      "fútbol": 7658,
      "jam": 7659,
      "comida": 7660,
      "197": 7661,
      "##olver": 7662,
      "##alizada": 7663,
      "repúbl": 7664,
      "empleo": 7665,
      "compren": 7666,
      "suel": 7667,
      "vari": 7668,
      "dep": 7669,
      "posición": 7670,
      "contrario": 7671,
      "##tron": 7672,
      "documento": 7673,
      "corpor": 7674,
      "##vieron": 7675,
      "velocidad": 7676,
      "eres": 7677,
      "reserv": 7678,
      "podrás": 7679,
      "pequeña": 7680,
      "pier": 7681,
      "##esa": 7682,
      "nie": 7683,
      "##ty": 7684,
      "dibu": 7685,
      "##cla": 7686,
      "avis": 7687,
      "palabra": 7688,
      "impos": 7689,
      "competi": 7690,
      "ganar": 7691,
      "inversión": 7692,
      "estás": 7693,
      "alterna": 7694,
      "hermos": 7695,
      "entender": 7696,
      "##ormente": 7697,
      "adul": 7698,
      "##ológico": 7699,
      "habla": 7700,
      "autoridades": 7701,
      "playa": 7702,
      "ali": 7703,
      "república": 7704,
      "supuesto": 7705,
      "decor": 7706,
      "tre": 7707,
      "##ional": 7708,
      "adop": 7709,
      "directamente": 7710,
      "voz": 7711,
      "publicado": 7712,
      "partidos": 7713,
      "amigo": 7714,
      "famos": 7715,
      "##mite": 7716,
      "distintos": 7717,
      "##tilla": 7718,
      "##com": 7719,
      "queremos": 7720,
      "unión": 7721,
      "azul": 7722,
      "fras": 7723,
      "fuente": 7724,
      "##ismos": 7725,
      "instalaciones": 7726,
      "##óp": 7727,
      "##idor": 7728,
      "pequeños": 7729,
      "##echo": 7730,
      "ahor": 7731,
      "##dores": 7732,
      "jornada": 7733,
      "##ablo": 7734,
      "habían": 7735,
      "espero": 7736,
      "##uesto": 7737,
      "document": 7738,
      "absolu": 7739,
      "certific": 7740,
      "laboral": 7741,
      "##tiles": 7742,
      "instr": 7743,
      "categoría": 7744,
      "disponible": 7745,
      "semanas": 7746,
      "vía": 7747,
      "visi": 7748,
      "desarroll": 7749,
      "##cito": 7750,
      "vuelta": 7751,
      "solución": 7752,
      "moda": 7753,
      "bre": 7754,
      "fundación": 7755,
      "alimentos": 7756,
      "##rer": 7757,
      "llegó": 7758,
      "dig": 7759,
      "encima": 7760,
      "zonas": 7761,
      "aproxim": 7762,
      "##fas": 7763,
      "jard": 7764,
      "##logía": 7765,
      "char": 7766,
      "personajes": 7767,
      "prensa": 7768,
      "congreso": 7769,
      "##tará": 7770,
      "coche": 7771,
      "segura": 7772,
      "francis": 7773,
      "lograr": 7774,
      "##rados": 7775,
      "fron": 7776,
      "jugadores": 7777,
      "##oda": 7778,
      "festiv": 7779,
      "ge": 7780,
      "tempera": 7781,
      "##ciente": 7782,
      "experim": 7783,
      "imper": 7784,
      "resulta": 7785,
      "económica": 7786,
      "dólares": 7787,
      "esca": 7788,
      "vac": 7789,
      "salv": 7790,
      "américa": 7791,
      "río": 7792,
      "##tidades": 7793,
      "iba": 7794,
      "costa": 7795,
      "herman": 7796,
      "pocos": 7797,
      "finalmente": 7798,
      "bús": 7799,
      "##ablemente": 7800,
      "repro": 7801,
      "puerta": 7802,
      "martín": 7803,
      "niveles": 7804,
      "clic": 7805,
      "acto": 7806,
      "distancia": 7807,
      "apre": 7808,
      "##tidos": 7809,
      "asim": 7810,
      "modelos": 7811,
      "propias": 7812,
      "##pol": 7813,
      "adelante": 7814,
      "obliga": 7815,
      "##orías": 7816,
      "##table": 7817,
      "aplicaciones": 7818,
      "cristi": 7819,
      "##coles": 7820,
      "precis": 7821,
      "ropa": 7822,
      "ii": 7823,
      "esco": 7824,
      "estrel": 7825,
      "desapar": 7826,
      "##pir": 7827,
      "búsque": 7828,
      "##entado": 7829,
      "espacios": 7830,
      "motor": 7831,
      "##pal": 7832,
      "cumpli": 7833,
      "distintas": 7834,
      "prefer": 7835,
      "funciones": 7836,
      "##ónica": 7837,
      "##quina": 7838,
      "podrán": 7839,
      "500": 7840,
      "valencia": 7841,
      "sob": 7842,
      "opinión": 7843,
      "80": 7844,
      "completa": 7845,
      "##uye": 7846,
      "propon": 7847,
      "##ueves": 7848,
      "municipio": 7849,
      "##dico": 7850,
      "##tarios": 7851,
      "cumplir": 7852,
      "ór": 7853,
      "cump": 7854,
      "puerto": 7855,
      "hal": 7856,
      "##tancias": 7857,
      "tiempos": 7858,
      "36": 7859,
      "tipos": 7860,
      "disco": 7861,
      "llamado": 7862,
      "ilus": 7863,
      "flor": 7864,
      "##quitec": 7865,
      "maravil": 7866,
      "carta": 7867,
      "suje": 7868,
      "##él": 7869,
      "resolución": 7870,
      "adqui": 7871,
      "gre": 7872,
      "sp": 7873,
      "##ístico": 7874,
      "páginas": 7875,
      "lucha": 7876,
      "alo": 7877,
      "come": 7878,
      "##chas": 7879,
      "gua": 7880,
      "pér": 7881,
      "##edor": 7882,
      "jueves": 7883,
      "##pro": 7884,
      "##yos": 7885,
      "vues": 7886,
      "violencia": 7887,
      "##idamente": 7888,
      "jurí": 7889,
      "bri": 7890,
      "preci": 7891,
      "ciento": 7892,
      "baño": 7893,
      "aband": 7894,
      "imagin": 7895,
      "##vas": 7896,
      "presentar": 7897,
      "continuación": 7898,
      "banda": 7899,
      "objeto": 7900,
      "##mer": 7901,
      "locales": 7902,
      "arquitec": 7903,
      "anal": 7904,
      "realizado": 7905,
      "banco": 7906,
      "45": 7907,
      "político": 7908,
      "##ame": 7909,
      "eventos": 7910,
      "suelo": 7911,
      "estaban": 7912,
      "inci": 7913,
      "profesor": 7914,
      "términos": 7915,
      "marcha": 7916,
      "formul": 7917,
      "ingeni": 7918,
      "diez": 7919,
      "##día": 7920,
      "pais": 7921,
      "turismo": 7922,
      "familias": 7923,
      "##ajas": 7924,
      "llama": 7925,
      "##bia": 7926,
      "motivo": 7927,
      "##teca": 7928,
      "##arte": 7929,
      "km": 7930,
      "##ientes": 7931,
      "##hu": 7932,
      "pacientes": 7933,
      "escen": 7934,
      "oferta": 7935,
      "##oro": 7936,
      "##teriormente": 7937,
      "propuesta": 7938,
      "chica": 7939,
      "publicación": 7940,
      "amis": 7941,
      "grado": 7942,
      "##leta": 7943,
      "discu": 7944,
      "be": 7945,
      "pronto": 7946,
      "miér": 7947,
      "acceder": 7948,
      "familiar": 7949,
      "##tral": 7950,
      "levan": 7951,
      "tru": 7952,
      "arre": 7953,
      "clave": 7954,
      "##tador": 7955,
      "soft": 7956,
      "compromiso": 7957,
      "instrum": 7958,
      "dicha": 7959,
      "miércoles": 7960,
      "prove": 7961,
      "descargar": 7962,
      "antonio": 7963,
      "cuidado": 7964,
      "vícti": 7965,
      "entorno": 7966,
      "plataforma": 7967,
      "ocasión": 7968,
      "##teras": 7969,
      "desemp": 7970,
      "acci": 7971,
      "éste": 7972,
      "verde": 7973,
      "##pera": 7974,
      "consum": 7975,
      "org": 7976,
      "terceros": 7977,
      "judi": 7978,
      "90": 7979,
      "arro": 7980,
      "interesante": 7981,
      "superfici": 7982,
      "aspectos": 7983,
      "diferente": 7984,
      "lid": 7985,
      "##logo": 7986,
      "empren": 7987,
      "suerte": 7988,
      "escribir": 7989,
      "ka": 7990,
      "contrato": 7991,
      "mantenimiento": 7992,
      "nav": 7993,
      "reno": 7994,
      "program": 7995,
      "biblio": 7996,
      "veci": 7997,
      "almacen": 7998,
      "##asa": 7999,
      "sección": 8000,
      "detec": 8001,
      "##ól": 8002,
      "podía": 8003,
      "visitar": 8004,
      "##ese": 8005,
      "magn": 8006,
      "rele": 8007,
      "ciencia": 8008,
      "mul": 8009,
      "china": 8010,
      "animales": 8011,
      "alej": 8012,
      "publicidad": 8013,
      "cob": 8014,
      "sangre": 8015,
      "representa": 8016,
      "##ológica": 8017,
      "fiesta": 8018,
      "ciudades": 8019,
      "contemp": 8020,
      "conocido": 8021,
      "human": 8022,
      "concent": 8023,
      "escal": 8024,
      "naturales": 8025,
      "ron": 8026,
      "hechos": 8027,
      "incon": 8028,
      "grá": 8029,
      "ama": 8030,
      "##sidad": 8031,
      "entrar": 8032,
      "haga": 8033,
      "sosten": 8034,
      "sel": 8035,
      "carre": 8036,
      "amena": 8037,
      "públicos": 8038,
      "##itaria": 8039,
      "teatro": 8040,
      "ee": 8041,
      "ciudadanos": 8042,
      "cif": 8043,
      "convertir": 8044,
      "##vent": 8045,
      "destino": 8046,
      "exterior": 8047,
      "género": 8048,
      "##lin": 8049,
      "mostrar": 8050,
      "##ór": 8051,
      "pone": 8052,
      "##leo": 8053,
      "aprob": 8054,
      "##toral": 8055,
      "médico": 8056,
      "##orme": 8057,
      "compro": 8058,
      "entidad": 8059,
      "revista": 8060,
      "vacaciones": 8061,
      "extran": 8062,
      "principios": 8063,
      "normal": 8064,
      "bos": 8065,
      "amar": 8066,
      "internacionales": 8067,
      "vivienda": 8068,
      "descri": 8069,
      "##ip": 8070,
      "coo": 8071,
      "##ensión": 8072,
      "cursos": 8073,
      "##�n": 8074,
      "##ack": 8075,
      "priva": 8076,
      "kiló": 8077,
      "bes": 8078,
      "francisco": 8079,
      "##keting": 8080,
      "ré": 8081,
      "##ear": 8082,
      "##riendo": 8083,
      "70": 8084,
      "matri": 8085,
      "pelo": 8086,
      "ber": 8087,
      "##imen": 8088,
      "##ielo": 8089,
      "dem": 8090,
      "clases": 8091,
      "##vado": 8092,
      "beneficios": 8093,
      "fol": 8094,
      "##tible": 8095,
      "ocasiones": 8096,
      "software": 8097,
      "ec": 8098,
      "##rique": 8099,
      "conflic": 8100,
      "pid": 8101,
      "prac": 8102,
      "##izado": 8103,
      "guía": 8104,
      "##her": 8105,
      "cm": 8106,
      "películas": 8107,
      "##sar": 8108,
      "tratar": 8109,
      "rece": 8110,
      "escol": 8111,
      "memoria": 8112,
      "##dil": 8113,
      "##itan": 8114,
      "alf": 8115,
      "sitios": 8116,
      "legal": 8117,
      "##tique": 8118,
      "enfermedad": 8119,
      "búsqueda": 8120,
      "##íritu": 8121,
      "públicas": 8122,
      "negocios": 8123,
      "hol": 8124,
      "consulta": 8125,
      "perfil": 8126,
      "oficina": 8127,
      "concre": 8128,
      "pesos": 8129,
      "http": 8130,
      "pablo": 8131,
      "##ífica": 8132,
      "denomin": 8133,
      "##isa": 8134,
      "pic": 8135,
      "déc": 8136,
      "constante": 8137,
      "##mentar": 8138,
      "otor": 8139,
      "villa": 8140,
      "##enos": 8141,
      "instituciones": 8142,
      "reglam": 8143,
      "cuarto": 8144,
      "estructura": 8145,
      "##mán": 8146,
      "colegio": 8147,
      "actualidad": 8148,
      "realiza": 8149,
      "federal": 8150,
      "boca": 8151,
      "manuel": 8152,
      "##ónde": 8153,
      "contrib": 8154,
      "##terios": 8155,
      "win": 8156,
      "autón": 8157,
      "##uras": 8158,
      "##ix": 8159,
      "ruta": 8160,
      "196": 8161,
      "rol": 8162,
      "##ices": 8163,
      "##ficul": 8164,
      "urb": 8165,
      "compon": 8166,
      "normas": 8167,
      "##laz": 8168,
      "perfecto": 8169,
      "##uestos": 8170,
      "espíritu": 8171,
      "miguel": 8172,
      "##ósito": 8173,
      "##mul": 8174,
      "emi": 8175,
      "##dios": 8176,
      "televisión": 8177,
      "meta": 8178,
      "buscando": 8179,
      "ran": 8180,
      "siete": 8181,
      "##jero": 8182,
      "deberá": 8183,
      "efica": 8184,
      "confirm": 8185,
      "abog": 8186,
      "##cent": 8187,
      "amplia": 8188,
      "políticos": 8189,
      "deten": 8190,
      "dificul": 8191,
      "fortal": 8192,
      "pedro": 8193,
      "ár": 8194,
      "aleman": 8195,
      "cuyo": 8196,
      "pag": 8197,
      "##ye": 8198,
      "rápido": 8199,
      "miles": 8200,
      "reflex": 8201,
      "bril": 8202,
      "museo": 8203,
      "territorio": 8204,
      "concepto": 8205,
      "previs": 8206,
      "cualquiera": 8207,
      "##onia": 8208,
      "ámbito": 8209,
      "presupuesto": 8210,
      "reunión": 8211,
      "##bamos": 8212,
      "dónde": 8213,
      "##aría": 8214,
      "diversos": 8215,
      "victoria": 8216,
      "huel": 8217,
      "##ificado": 8218,
      "##ko": 8219,
      "mira": 8220,
      "especiales": 8221,
      "impacto": 8222,
      "áreas": 8223,
      "martes": 8224,
      "habrá": 8225,
      "##berto": 8226,
      "ocup": 8227,
      "deporte": 8228,
      "tradicional": 8229,
      "ras": 8230,
      "##capa": 8231,
      "capaz": 8232,
      "santia": 8233,
      "lectura": 8234,
      "##iana": 8235,
      "fines": 8236,
      "##gración": 8237,
      "miedo": 8238,
      "##ale": 8239,
      "exposición": 8240,
      "pena": 8241,
      "sín": 8242,
      "acadé": 8243,
      "##orge": 8244,
      "exac": 8245,
      "debemos": 8246,
      "aires": 8247,
      "##50": 8248,
      "venezuela": 8249,
      "##cionados": 8250,
      "barrio": 8251,
      "disponibles": 8252,
      "2006": 8253,
      "colaboración": 8254,
      "fuego": 8255,
      "bio": 8256,
      "generación": 8257,
      "avent": 8258,
      "funcionamiento": 8259,
      "fle": 8260,
      "##dieron": 8261,
      "##teros": 8262,
      "pruebas": 8263,
      "##unid": 8264,
      "manual": 8265,
      "europea": 8266,
      "marketing": 8267,
      "instalación": 8268,
      "##nes": 8269,
      "terren": 8270,
      "escrito": 8271,
      "física": 8272,
      "deri": 8273,
      "tercera": 8274,
      "##mail": 8275,
      "##mática": 8276,
      "estrategia": 8277,
      "empezar": 8278,
      "32": 8279,
      "##san": 8280,
      "casas": 8281,
      "evaluación": 8282,
      "comba": 8283,
      "vídeo": 8284,
      "##zada": 8285,
      "you": 8286,
      "altura": 8287,
      "preguntas": 8288,
      "imple": 8289,
      "ocu": 8290,
      "fres": 8291,
      "plantas": 8292,
      "fuerzas": 8293,
      "figura": 8294,
      "santiago": 8295,
      "##taba": 8296,
      "mitad": 8297,
      "dismin": 8298,
      "aprendiz": 8299,
      "ministro": 8300,
      "preocup": 8301,
      "garcía": 8302,
      "pedido": 8303,
      "teniendo": 8304,
      "festival": 8305,
      "compa": 8306,
      "industrial": 8307,
      "enlace": 8308,
      "canal": 8309,
      "sesión": 8310,
      "mam": 8311,
      "##ombi": 8312,
      "gon": 8313,
      "tí": 8314,
      "cuestión": 8315,
      "reserva": 8316,
      "justo": 8317,
      "há": 8318,
      "boliv": 8319,
      "soluciones": 8320,
      "adoles": 8321,
      "##istir": 8322,
      "posib": 8323,
      "##ísimo": 8324,
      "francia": 8325,
      "marcas": 8326,
      "llamada": 8327,
      "##cimientos": 8328,
      "chicas": 8329,
      "descono": 8330,
      "adolesc": 8331,
      "titular": 8332,
      "visión": 8333,
      "tir": 8334,
      "sho": 8335,
      "conex": 8336,
      "mala": 8337,
      "satisf": 8338,
      "repor": 8339,
      "asimismo": 8340,
      "firm": 8341,
      "intent": 8342,
      "##vista": 8343,
      "guard": 8344,
      "documentos": 8345,
      "decreto": 8346,
      "##ss": 8347,
      "isla": 8348,
      "madera": 8349,
      "feliz": 8350,
      "argu": 8351,
      "pac": 8352,
      "dicen": 8353,
      "micro": 8354,
      "##at": 8355,
      "estadounid": 8356,
      "##istentes": 8357,
      "concurso": 8358,
      "lengu": 8359,
      "tv": 8360,
      "estará": 8361,
      "diversas": 8362,
      "independiente": 8363,
      "colección": 8364,
      "##jado": 8365,
      "##ández": 8366,
      "dando": 8367,
      "##ds": 8368,
      "tribunal": 8369,
      "alquil": 8370,
      "tecnolog": 8371,
      "##pp": 8372,
      "##uicio": 8373,
      "confianza": 8374,
      "propios": 8375,
      "estuvo": 8376,
      "atrac": 8377,
      "##cor": 8378,
      "##uelas": 8379,
      "apenas": 8380,
      "videos": 8381,
      "ocho": 8382,
      "arriba": 8383,
      "etapa": 8384,
      "tranquil": 8385,
      "jefe": 8386,
      "aumento": 8387,
      "sede": 8388,
      "aper": 8389,
      "mente": 8390,
      "porno": 8391,
      "belle": 8392,
      "ál": 8393,
      "mone": 8394,
      "crédito": 8395,
      "amistad": 8396,
      "generales": 8397,
      "##teles": 8398,
      "##enso": 8399,
      "err": 8400,
      "01": 8401,
      "gras": 8402,
      "americ": 8403,
      "clín": 8404,
      "considera": 8405,
      "##iares": 8406,
      "vehículos": 8407,
      "kilómetros": 8408,
      "investig": 8409,
      "edificio": 8410,
      "twit": 8411,
      "iniciativa": 8412,
      "bloque": 8413,
      "izquierda": 8414,
      "atrás": 8415,
      "enviar": 8416,
      "cuba": 8417,
      "mate": 8418,
      "fuentes": 8419,
      "sacar": 8420,
      "caf": 8421,
      "admi": 8422,
      "33": 8423,
      "grave": 8424,
      "ángel": 8425,
      "##gio": 8426,
      "periodo": 8427,
      "##áticos": 8428,
      "tales": 8429,
      "##tirá": 8430,
      "recha": 8431,
      "##este": 8432,
      "regal": 8433,
      "esfuerzo": 8434,
      "vino": 8435,
      "##tus": 8436,
      "circ": 8437,
      "##istente": 8438,
      "##roso": 8439,
      "abrir": 8440,
      "##orta": 8441,
      "afirm": 8442,
      "golpe": 8443,
      "##éndose": 8444,
      "##aliza": 8445,
      "elecciones": 8446,
      "line": 8447,
      "latino": 8448,
      "sabemos": 8449,
      "nutri": 8450,
      "requis": 8451,
      "tamb": 8452,
      "intereses": 8453,
      "bro": 8454,
      "##ian": 8455,
      "##iores": 8456,
      "sua": 8457,
      "##íficos": 8458,
      "ene": 8459,
      "medic": 8460,
      "brasil": 8461,
      "agencia": 8462,
      "pala": 8463,
      "##ético": 8464,
      "ésta": 8465,
      "audio": 8466,
      "junta": 8467,
      "##gón": 8468,
      "mismas": 8469,
      "gusto": 8470,
      "##icul": 8471,
      "testi": 8472,
      "numeros": 8473,
      "usa": 8474,
      "aparece": 8475,
      "hubiera": 8476,
      "##elas": 8477,
      "caja": 8478,
      "escuch": 8479,
      "vivo": 8480,
      "mensajes": 8481,
      "comerciales": 8482,
      "copa": 8483,
      "comenzó": 8484,
      "##bla": 8485,
      "últimas": 8486,
      "ventas": 8487,
      "twitter": 8488,
      "##jeros": 8489,
      "fen": 8490,
      "##ance": 8491,
      "capi": 8492,
      "ecu": 8493,
      "nic": 8494,
      "calles": 8495,
      "registr": 8496,
      "archivos": 8497,
      "cumplimiento": 8498,
      "dr": 8499,
      "due": 8500,
      "riesgos": 8501,
      "concier": 8502,
      "hel": 8503,
      "nacionales": 8504,
      "tiendas": 8505,
      "recuerdo": 8506,
      "infantil": 8507,
      "enrique": 8508,
      "global": 8509,
      "##yun": 8510,
      "debería": 8511,
      "##uos": 8512,
      "descan": 8513,
      "ciencias": 8514,
      "nega": 8515,
      "torn": 8516,
      "fundamental": 8517,
      "xx": 8518,
      "##ír": 8519,
      "##tuvo": 8520,
      "##lez": 8521,
      "oscu": 8522,
      "domici": 8523,
      "cóm": 8524,
      "requiere": 8525,
      "solid": 8526,
      "repe": 8527,
      "##gimen": 8528,
      "solamente": 8529,
      "institución": 8530,
      "aceite": 8531,
      "quizás": 8532,
      "fic": 8533,
      "300": 8534,
      "espi": 8535,
      "cuya": 8536,
      "reforma": 8537,
      "líneas": 8538,
      "genera": 8539,
      "afir": 8540,
      "##untos": 8541,
      "anteriores": 8542,
      "pedir": 8543,
      "estan": 8544,
      "##aro": 8545,
      "derecha": 8546,
      "llu": 8547,
      "habitaciones": 8548,
      "##erno": 8549,
      "idi": 8550,
      "mejora": 8551,
      "fem": 8552,
      "completamente": 8553,
      "##lada": 8554,
      "hija": 8555,
      "quieren": 8556,
      "nº": 8557,
      "entra": 8558,
      "bomb": 8559,
      "##tim": 8560,
      "vehículo": 8561,
      "##tillo": 8562,
      "telef": 8563,
      "bil": 8564,
      "pobre": 8565,
      "rode": 8566,
      "##tuales": 8567,
      "establecer": 8568,
      "conocimientos": 8569,
      "navegación": 8570,
      "facul": 8571,
      "espos": 8572,
      "organizaciones": 8573,
      "##ks": 8574,
      "régimen": 8575,
      "##últi": 8576,
      "demanda": 8577,
      "aero": 8578,
      "familiares": 8579,
      "enfermedades": 8580,
      "diá": 8581,
      "directo": 8582,
      "34": 8583,
      "llegado": 8584,
      "entidades": 8585,
      "peor": 8586,
      "privacidad": 8587,
      "dudas": 8588,
      "sola": 8589,
      "pd": 8590,
      "lejos": 8591,
      "traduc": 8592,
      "promoción": 8593,
      "firma": 8594,
      "##iales": 8595,
      "reducir": 8596,
      "carga": 8597,
      "trabajando": 8598,
      "distribución": 8599,
      "##ela": 8600,
      "concl": 8601,
      "terror": 8602,
      "##drá": 8603,
      "##ramos": 8604,
      "permitir": 8605,
      "##quilib": 8606,
      "presión": 8607,
      "dele": 8608,
      "comprome": 8609,
      "prima": 8610,
      "##wa": 8611,
      "lech": 8612,
      "##inar": 8613,
      "log": 8614,
      "bru": 8615,
      "die": 8616,
      "respeto": 8617,
      "gonz": 8618,
      "##viv": 8619,
      "menores": 8620,
      "ganas": 8621,
      "##eran": 8622,
      "##bel": 8623,
      "##anía": 8624,
      "digo": 8625,
      "09": 8626,
      "viajes": 8627,
      "bara": 8628,
      "prácticas": 8629,
      "relev": 8630,
      "seguros": 8631,
      "planes": 8632,
      "permiten": 8633,
      "flu": 8634,
      "finales": 8635,
      "##cada": 8636,
      "##gados": 8637,
      "##una": 8638,
      "gastos": 8639,
      "reclam": 8640,
      "dispar": 8641,
      "envío": 8642,
      "ges": 8643,
      "##ópez": 8644,
      "jer": 8645,
      "humana": 8646,
      "##oo": 8647,
      "salón": 8648,
      "alguno": 8649,
      "##ky": 8650,
      "debes": 8651,
      "ofrec": 8652,
      "lópez": 8653,
      "pp": 8654,
      "ocul": 8655,
      "##gü": 8656,
      "dich": 8657,
      "cama": 8658,
      "##dencias": 8659,
      "larga": 8660,
      "convoca": 8661,
      "belleza": 8662,
      "rur": 8663,
      "aquella": 8664,
      "rit": 8665,
      "enfo": 8666,
      "personaje": 8667,
      "contex": 8668,
      "aprendizaje": 8669,
      "ed": 8670,
      "##ello": 8671,
      "abierto": 8672,
      "pasos": 8673,
      "##vió": 8674,
      "##blos": 8675,
      "cuentas": 8676,
      "ambas": 8677,
      "##cidas": 8678,
      "equip": 8679,
      "##estruc": 8680,
      "transpar": 8681,
      "etique": 8682,
      "abandon": 8683,
      "secund": 8684,
      "##tillas": 8685,
      "herramienta": 8686,
      "##duce": 8687,
      "ment": 8688,
      "##venida": 8689,
      "procedimiento": 8690,
      "tej": 8691,
      "competencia": 8692,
      "aloj": 8693,
      "fui": 8694,
      "tecnologías": 8695,
      "prom": 8696,
      "aquellas": 8697,
      "rue": 8698,
      "somb": 8699,
      "compos": 8700,
      "incluyendo": 8701,
      "comentario": 8702,
      "circun": 8703,
      "piezas": 8704,
      "recuerda": 8705,
      "york": 8706,
      "darle": 8707,
      "gratuita": 8708,
      "prevención": 8709,
      "solicitud": 8710,
      "perió": 8711,
      "primeras": 8712,
      "anunci": 8713,
      "alcanzar": 8714,
      "dificultad": 8715,
      "consejos": 8716,
      "##edores": 8717,
      "capaci": 8718,
      "pudo": 8719,
      "expertos": 8720,
      "integ": 8721,
      "infer": 8722,
      "abajo": 8723,
      "##ms": 8724,
      "mecan": 8725,
      "alimentación": 8726,
      "archivo": 8727,
      "bla": 8728,
      "fotografía": 8729,
      "##lio": 8730,
      "valle": 8731,
      "situaciones": 8732,
      "adver": 8733,
      "hubo": 8734,
      "habitación": 8735,
      "garantizar": 8736,
      "temperatura": 8737,
      "esperar": 8738,
      "calor": 8739,
      "##vera": 8740,
      "requer": 8741,
      "ana": 8742,
      "influ": 8743,
      "piedra": 8744,
      "cita": 8745,
      "inau": 8746,
      "decisiones": 8747,
      "vecinos": 8748,
      "agen": 8749,
      "##ira": 8750,
      "coin": 8751,
      "##ples": 8752,
      "##ht": 8753,
      "llegada": 8754,
      "ciclo": 8755,
      "cumple": 8756,
      "convir": 8757,
      "some": 8758,
      "veo": 8759,
      "sueño": 8760,
      "##ítulos": 8761,
      "##rán": 8762,
      "sevil": 8763,
      "sexual": 8764,
      "máxima": 8765,
      "ham": 8766,
      "##ker": 8767,
      "fase": 8768,
      "novela": 8769,
      "div": 8770,
      "quería": 8771,
      "reconocimiento": 8772,
      "##didas": 8773,
      "enorme": 8774,
      "despe": 8775,
      "pérdida": 8776,
      "##itarios": 8777,
      "reino": 8778,
      "corri": 8779,
      "##chez": 8780,
      "acog": 8781,
      "portal": 8782,
      "rojo": 8783,
      "##ly": 8784,
      "##ficaciones": 8785,
      "mínimo": 8786,
      "exter": 8787,
      "subs": 8788,
      "##uesta": 8789,
      "manda": 8790,
      "operación": 8791,
      "aspecto": 8792,
      "accesor": 8793,
      "honor": 8794,
      "variedad": 8795,
      "puertas": 8796,
      "cán": 8797,
      "ul": 8798,
      "sam": 8799,
      "obstante": 8800,
      "##tienen": 8801,
      "jugador": 8802,
      "sustitu": 8803,
      "##jan": 8804,
      "defen": 8805,
      "##guez": 8806,
      "secretario": 8807,
      "recorrido": 8808,
      "múlti": 8809,
      "sale": 8810,
      "##ficiencia": 8811,
      "restaurante": 8812,
      "explica": 8813,
      "##sal": 8814,
      "flores": 8815,
      "ano": 8816,
      "comienza": 8817,
      "debate": 8818,
      "contras": 8819,
      "embara": 8820,
      "aguas": 8821,
      "##ins": 8822,
      "pueblos": 8823,
      "escenario": 8824,
      "##enar": 8825,
      "sán": 8826,
      "ph": 8827,
      "##alizados": 8828,
      "colombi": 8829,
      "conden": 8830,
      "operaciones": 8831,
      "##vierte": 8832,
      "##cepción": 8833,
      "38": 8834,
      "patr": 8835,
      "consol": 8836,
      "##gaciones": 8837,
      "leyendo": 8838,
      "tarjeta": 8839,
      "##zca": 8840,
      "torre": 8841,
      "intentar": 8842,
      "gab": 8843,
      "ip": 8844,
      "##reras": 8845,
      "configuración": 8846,
      "león": 8847,
      "##mina": 8848,
      "noticia": 8849,
      "retir": 8850,
      "inaugu": 8851,
      "unidades": 8852,
      "##illos": 8853,
      "quí": 8854,
      "ido": 8855,
      "##isiones": 8856,
      "ofertas": 8857,
      "193": 8858,
      "abra": 8859,
      "pc": 8860,
      "premios": 8861,
      "##quilla": 8862,
      "##cad": 8863,
      "aproximadamente": 8864,
      "id": 8865,
      "##uebles": 8866,
      "experiencias": 8867,
      "rendimiento": 8868,
      "##idez": 8869,
      "piso": 8870,
      "##migo": 8871,
      "zapatos": 8872,
      "fom": 8873,
      "derro": 8874,
      "parlam": 8875,
      "consecuencia": 8876,
      "contiene": 8877,
      "##pes": 8878,
      "caí": 8879,
      "cuál": 8880,
      "posibilidades": 8881,
      "innovación": 8882,
      "metro": 8883,
      "sectores": 8884,
      "integral": 8885,
      "error": 8886,
      "capítulo": 8887,
      "##fía": 8888,
      "posibles": 8889,
      "##hib": 8890,
      "increí": 8891,
      "histórico": 8892,
      "formato": 8893,
      "asesor": 8894,
      "entrevista": 8895,
      "propuestas": 8896,
      "geo": 8897,
      "##arca": 8898,
      "moto": 8899,
      "complic": 8900,
      "compañeros": 8901,
      "rum": 8902,
      "vuelve": 8903,
      "hacía": 8904,
      "adicional": 8905,
      "##aa": 8906,
      "femen": 8907,
      "##gus": 8908,
      "##hn": 8909,
      "##cab": 8910,
      "liga": 8911,
      "bl": 8912,
      "##ánica": 8913,
      "principalmente": 8914,
      "generar": 8915,
      "##cés": 8916,
      "perú": 8917,
      "escuchar": 8918,
      "##10": 8919,
      "##si": 8920,
      "##ecía": 8921,
      "pequeñas": 8922,
      "continuar": 8923,
      "##rupción": 8924,
      "##olo": 8925,
      "fotograf": 8926,
      "tambien": 8927,
      "falle": 8928,
      "ib": 8929,
      "##éndo": 8930,
      "irre": 8931,
      "comporta": 8932,
      "infra": 8933,
      "adultos": 8934,
      "uru": 8935,
      "##irse": 8936,
      "desempe": 8937,
      "##menes": 8938,
      "##ime": 8939,
      "jorge": 8940,
      "terra": 8941,
      "comunidades": 8942,
      "hicieron": 8943,
      "##use": 8944,
      "resolver": 8945,
      "factores": 8946,
      "superficie": 8947,
      "##guay": 8948,
      "##ienen": 8949,
      "cerc": 8950,
      "clima": 8951,
      "##ioso": 8952,
      "identidad": 8953,
      "remo": 8954,
      "##imas": 8955,
      "imposible": 8956,
      "café": 8957,
      "triun": 8958,
      "tritur": 8959,
      "##triz": 8960,
      "costo": 8961,
      "suele": 8962,
      "dul": 8963,
      "intercam": 8964,
      "##tadores": 8965,
      "corto": 8966,
      "empa": 8967,
      "circuns": 8968,
      "castel": 8969,
      "informó": 8970,
      "recordar": 8971,
      "##áis": 8972,
      "##pan": 8973,
      "dim": 8974,
      "existencia": 8975,
      "revel": 8976,
      "vos": 8977,
      "##tí": 8978,
      "##tumb": 8979,
      "apun": 8980,
      "enfrent": 8981,
      "pec": 8982,
      "##abe": 8983,
      "apertura": 8984,
      "deseo": 8985,
      "tengan": 8986,
      "2005": 8987,
      "vul": 8988,
      "maravillos": 8989,
      "dispu": 8990,
      "constitución": 8991,
      "cuán": 8992,
      "juntos": 8993,
      "estim": 8994,
      "hermano": 8995,
      "santo": 8996,
      "explo": 8997,
      "litera": 8998,
      "historias": 8999,
      "constitucional": 9000,
      "ubicación": 9001,
      "alemania": 9002,
      "nación": 9003,
      "##puer": 9004,
      "doctor": 9005,
      "##umin": 9006,
      "farma": 9007,
      "##micos": 9008,
      "##hab": 9009,
      "##tedes": 9010,
      "método": 9011,
      "funciona": 9012,
      "##cre": 9013,
      "pese": 9014,
      "ustedes": 9015,
      "creado": 9016,
      "batal": 9017,
      "judicial": 9018,
      "relacionados": 9019,
      "duración": 9020,
      "dro": 9021,
      "aceptar": 9022,
      "hier": 9023,
      "##olucion": 9024,
      "realizó": 9025,
      "alm": 9026,
      "utilizando": 9027,
      "comenzar": 9028,
      "razones": 9029,
      "cál": 9030,
      "permanente": 9031,
      "48": 9032,
      "flo": 9033,
      "dur": 9034,
      "sup": 9035,
      "árbol": 9036,
      "dura": 9037,
      "##gamos": 9038,
      "siguen": 9039,
      "podrían": 9040,
      "comerci": 9041,
      "especie": 9042,
      "ataque": 9043,
      "##arnos": 9044,
      "acre": 9045,
      "acos": 9046,
      "sonido": 9047,
      "sencillo": 9048,
      "##cracia": 9049,
      "expresión": 9050,
      "##ígen": 9051,
      "##amor": 9052,
      "anuncios": 9053,
      "desper": 9054,
      "condición": 9055,
      "discur": 9056,
      "che": 9057,
      "##ivas": 9058,
      "elección": 9059,
      "editorial": 9060,
      "supone": 9061,
      "##iel": 9062,
      "reda": 9063,
      "david": 9064,
      "hacemos": 9065,
      "amplio": 9066,
      "recon": 9067,
      "soporte": 9068,
      "##ámica": 9069,
      "habría": 9070,
      "índic": 9071,
      "ofrecen": 9072,
      "detrás": 9073,
      "medicam": 9074,
      "mov": 9075,
      "cubier": 9076,
      "quis": 9077,
      "similar": 9078,
      "tera": 9079,
      "penal": 9080,
      "privado": 9081,
      "defens": 9082,
      "divid": 9083,
      "asistencia": 9084,
      "artistas": 9085,
      "quedó": 9086,
      "resistencia": 9087,
      "194": 9088,
      "rock": 9089,
      "haci": 9090,
      "##ase": 9091,
      "leyes": 9092,
      "cár": 9093,
      "nomb": 9094,
      "pasó": 9095,
      "blanca": 9096,
      "##puestos": 9097,
      "ejecutivo": 9098,
      "limpieza": 9099,
      "enter": 9100,
      "##ivamente": 9101,
      "detalle": 9102,
      "ingresos": 9103,
      "equilib": 9104,
      "reac": 9105,
      "patrimonio": 9106,
      "##del": 9107,
      "juz": 9108,
      "electoral": 9109,
      "prefi": 9110,
      "cadena": 9111,
      "suminis": 9112,
      "bases": 9113,
      "facultad": 9114,
      "actos": 9115,
      "##arial": 9116,
      "encanta": 9117,
      "armas": 9118,
      "oportunidades": 9119,
      "correspondiente": 9120,
      "##sion": 9121,
      "descon": 9122,
      "##pira": 9123,
      "##iles": 9124,
      "##ástico": 9125,
      "cop": 9126,
      "podido": 9127,
      "indica": 9128,
      "08": 9129,
      "precisamente": 9130,
      "##uri": 9131,
      "sánchez": 9132,
      "gama": 9133,
      "puestos": 9134,
      "requisitos": 9135,
      "cielo": 9136,
      "vale": 9137,
      "vive": 9138,
      "intelec": 9139,
      "gor": 9140,
      "sar": 9141,
      "construir": 9142,
      "##he": 9143,
      "perm": 9144,
      "descripción": 9145,
      "##ilares": 9146,
      "directa": 9147,
      "##ximos": 9148,
      "##ológicos": 9149,
      "fondos": 9150,
      "porta": 9151,
      "##resión": 9152,
      "secretaría": 9153,
      "proteger": 9154,
      "##erso": 9155,
      "tin": 9156,
      "ves": 9157,
      "dispositivos": 9158,
      "sevilla": 9159,
      "instruc": 9160,
      "planeta": 9161,
      "vera": 9162,
      "##didos": 9163,
      "##tio": 9164,
      "legisla": 9165,
      "fernando": 9166,
      "perj": 9167,
      "misión": 9168,
      "tren": 9169,
      "##udos": 9170,
      "##ade": 9171,
      "sabes": 9172,
      "39": 9173,
      "##echas": 9174,
      "cabe": 9175,
      "fantas": 9176,
      "ke": 9177,
      "rin": 9178,
      "potencia": 9179,
      "encontramos": 9180,
      "##arla": 9181,
      "regional": 9182,
      "dejó": 9183,
      "hará": 9184,
      "presentes": 9185,
      "##ere": 9186,
      "##mites": 9187,
      "cho": 9188,
      "técnicos": 9189,
      "ambiental": 9190,
      "produce": 9191,
      "canción": 9192,
      "##gular": 9193,
      "paque": 9194,
      "alco": 9195,
      "licencia": 9196,
      "miner": 9197,
      "coinci": 9198,
      "sorpres": 9199,
      "##cón": 9200,
      "objetos": 9201,
      "##emia": 9202,
      "lengua": 9203,
      "##misión": 9204,
      "##letas": 9205,
      "musical": 9206,
      "domicilio": 9207,
      "##uu": 9208,
      "clara": 9209,
      "literatura": 9210,
      "vil": 9211,
      "##mm": 9212,
      "##dado": 9213,
      "prior": 9214,
      "ubicado": 9215,
      "hermanos": 9216,
      "##dí": 9217,
      "##let": 9218,
      "duro": 9219,
      "ejér": 9220,
      "recog": 9221,
      "artista": 9222,
      "conexión": 9223,
      "aeropuer": 9224,
      "##crá": 9225,
      "##imientos": 9226,
      "##amen": 9227,
      "##iosa": 9228,
      "servir": 9229,
      "garantía": 9230,
      "consigui": 9231,
      "ofrecemos": 9232,
      "##ort": 9233,
      "##tem": 9234,
      "europeo": 9235,
      "infraestruc": 9236,
      "cont": 9237,
      "cató": 9238,
      "adelan": 9239,
      "portu": 9240,
      "traslad": 9241,
      "##íodo": 9242,
      "##gul": 9243,
      "##tieron": 9244,
      "liter": 9245,
      "labora": 9246,
      "asegurar": 9247,
      "rápida": 9248,
      "pé": 9249,
      "período": 9250,
      "canciones": 9251,
      "estación": 9252,
      "pot": 9253,
      "alcance": 9254,
      "antiguo": 9255,
      "##ísticos": 9256,
      "explor": 9257,
      "suma": 9258,
      "##tres": 9259,
      "miembro": 9260,
      "gestion": 9261,
      "aumentar": 9262,
      "##ot": 9263,
      "hayan": 9264,
      "##tismo": 9265,
      "futbol": 9266,
      "españoles": 9267,
      "ritmo": 9268,
      "bici": 9269,
      "expe": 9270,
      "transmi": 9271,
      "mostr": 9272,
      "promedio": 9273,
      "mac": 9274,
      "bolsa": 9275,
      "accesorios": 9276,
      "escon": 9277,
      "metal": 9278,
      "cabal": 9279,
      "cierre": 9280,
      "comit": 9281,
      "seres": 9282,
      "tenían": 9283,
      "pasando": 9284,
      "gir": 9285,
      "##cando": 9286,
      "introducción": 9287,
      "##ñar": 9288,
      "##venir": 9289,
      "agentes": 9290,
      "hipo": 9291,
      "rosa": 9292,
      "##viamente": 9293,
      "víctimas": 9294,
      "##ni": 9295,
      "señaló": 9296,
      "##eca": 9297,
      "iv": 9298,
      "##amble": 9299,
      "revolución": 9300,
      "##iera": 9301,
      "mur": 9302,
      "ago": 9303,
      "intervención": 9304,
      "propósito": 9305,
      "##eña": 9306,
      "descubrir": 9307,
      "trump": 9308,
      "aclar": 9309,
      "terreno": 9310,
      "estatal": 9311,
      "necesaria": 9312,
      "facil": 9313,
      "cree": 9314,
      "##cionamiento": 9315,
      "carne": 9316,
      "frances": 9317,
      "aplicar": 9318,
      "realización": 9319,
      "especta": 9320,
      "impresion": 9321,
      "##phone": 9322,
      "gustaría": 9323,
      "autores": 9324,
      "organismo": 9325,
      "controlar": 9326,
      "feria": 9327,
      "evolución": 9328,
      "sirve": 9329,
      "delante": 9330,
      "autoridad": 9331,
      "dispositivo": 9332,
      "perspec": 9333,
      "##tol": 9334,
      "##íz": 9335,
      "mantiene": 9336,
      "participantes": 9337,
      "##dimientos": 9338,
      "recibido": 9339,
      "##bili": 9340,
      "refier": 9341,
      "deportes": 9342,
      "##cula": 9343,
      "eliminar": 9344,
      "sabor": 9345,
      "parejas": 9346,
      "empleados": 9347,
      "juez": 9348,
      "rusia": 9349,
      "37": 9350,
      "conferencia": 9351,
      "estén": 9352,
      "cereb": 9353,
      "breve": 9354,
      "fich": 9355,
      "##tidas": 9356,
      "##iendas": 9357,
      "pies": 9358,
      "##onato": 9359,
      "acus": 9360,
      "relo": 9361,
      "privada": 9362,
      "arran": 9363,
      "##quinas": 9364,
      "múltiples": 9365,
      "finalidad": 9366,
      "##rano": 9367,
      "textos": 9368,
      "infec": 9369,
      "pose": 9370,
      "acaba": 9371,
      "net": 9372,
      "##úcar": 9373,
      "situado": 9374,
      "potencial": 9375,
      "siquiera": 9376,
      "expon": 9377,
      "vaya": 9378,
      "silen": 9379,
      "navidad": 9380,
      "desea": 9381,
      "escena": 9382,
      "transpor": 9383,
      "apare": 9384,
      "habitantes": 9385,
      "abierta": 9386,
      "fiestas": 9387,
      "##igo": 9388,
      "daño": 9389,
      "cerv": 9390,
      "llevó": 9391,
      "sensación": 9392,
      "debajo": 9393,
      "##arme": 9394,
      "##tudes": 9395,
      "##esión": 9396,
      "##lon": 9397,
      "##metro": 9398,
      "urban": 9399,
      "acepta": 9400,
      "solicitar": 9401,
      "manejo": 9402,
      "##ive": 9403,
      "##timos": 9404,
      "desaf": 9405,
      "##dedores": 9406,
      "atri": 9407,
      "niñas": 9408,
      "practic": 9409,
      "medicina": 9410,
      "juicio": 9411,
      "repu": 9412,
      "vita": 9413,
      "continúa": 9414,
      "parecer": 9415,
      "estadounidense": 9416,
      "alquiler": 9417,
      "##ters": 9418,
      "mirada": 9419,
      "##gal": 9420,
      "##onos": 9421,
      "##tigo": 9422,
      "reform": 9423,
      "ste": 9424,
      "cocin": 9425,
      "robo": 9426,
      "quedan": 9427,
      "peti": 9428,
      "extraordin": 9429,
      "sentencia": 9430,
      "pocas": 9431,
      "195": 9432,
      "terminar": 9433,
      "explicó": 9434,
      "mencion": 9435,
      "invierno": 9436,
      "término": 9437,
      "pleno": 9438,
      "chil": 9439,
      "convertido": 9440,
      "típ": 9441,
      "2000": 9442,
      "##bios": 9443,
      "alcalde": 9444,
      "##pón": 9445,
      "##wn": 9446,
      "tuvi": 9447,
      "reconocer": 9448,
      "mezcla": 9449,
      "subir": 9450,
      "adj": 9451,
      "recuperar": 9452,
      "asamble": 9453,
      "igualdad": 9454,
      "quizá": 9455,
      "44": 9456,
      "rico": 9457,
      "##tración": 9458,
      "tarea": 9459,
      "regular": 9460,
      "nombres": 9461,
      "masa": 9462,
      "desayun": 9463,
      "carb": 9464,
      "saben": 9465,
      "ocurre": 9466,
      "##gues": 9467,
      "##micas": 9468,
      "cau": 9469,
      "localidad": 9470,
      "establece": 9471,
      "pintura": 9472,
      "paciente": 9473,
      "windo": 9474,
      "zara": 9475,
      "##minación": 9476,
      "trabaja": 9477,
      "rodrí": 9478,
      "consegu": 9479,
      "próxima": 9480,
      "decoración": 9481,
      "torneo": 9482,
      "##pens": 9483,
      "declaración": 9484,
      "responder": 9485,
      "rodríguez": 9486,
      "categorías": 9487,
      "contexto": 9488,
      "##gica": 9489,
      "formar": 9490,
      "##enciales": 9491,
      "salvo": 9492,
      "regalo": 9493,
      "2004": 9494,
      "profund": 9495,
      "espectá": 9496,
      "preocu": 9497,
      "07": 9498,
      "expan": 9499,
      "alar": 9500,
      "trayec": 9501,
      "##estiones": 9502,
      "2003": 9503,
      "gastron": 9504,
      "arreg": 9505,
      "youtu": 9506,
      "espectacular": 9507,
      "##rael": 9508,
      "leche": 9509,
      "##roid": 9510,
      "campos": 9511,
      "emerg": 9512,
      "cuidad": 9513,
      "destacar": 9514,
      "##capacidad": 9515,
      "necesarios": 9516,
      "volumen": 9517,
      "beneficio": 9518,
      "##eles": 9519,
      "##inaria": 9520,
      "tribu": 9521,
      "##mentación": 9522,
      "federación": 9523,
      "francés": 9524,
      "movimientos": 9525,
      "##king": 9526,
      "matrimonio": 9527,
      "##ciaciones": 9528,
      "##ficos": 9529,
      "expor": 9530,
      "conforme": 9531,
      "##tom": 9532,
      "2019": 9533,
      "universo": 9534,
      "contactos": 9535,
      "cole": 9536,
      "peda": 9537,
      "tarif": 9538,
      "ais": 9539,
      "secu": 9540,
      "##uta": 9541,
      "vender": 9542,
      "argentino": 9543,
      "##osos": 9544,
      "discip": 9545,
      "coti": 9546,
      "grab": 9547,
      "celebra": 9548,
      "felici": 9549,
      "##tiende": 9550,
      "##izada": 9551,
      "pase": 9552,
      "latina": 9553,
      "asign": 9554,
      "israel": 9555,
      "conciencia": 9556,
      "encontrado": 9557,
      "torno": 9558,
      "enseñanza": 9559,
      "lóg": 9560,
      "dormi": 9561,
      "ric": 9562,
      "javier": 9563,
      "azúcar": 9564,
      "hábi": 9565,
      "consultar": 9566,
      "formulario": 9567,
      "reglamento": 9568,
      "reciente": 9569,
      "andal": 9570,
      "alb": 9571,
      "talleres": 9572,
      "vio": 9573,
      "aviso": 9574,
      "windows": 9575,
      "siento": 9576,
      "pdf": 9577,
      "llevan": 9578,
      "hig": 9579,
      "únicamente": 9580,
      "intención": 9581,
      "progres": 9582,
      "carretera": 9583,
      "profesores": 9584,
      "##ernas": 9585,
      "estraté": 9586,
      "biblioteca": 9587,
      "lenguaje": 9588,
      "proto": 9589,
      "jardín": 9590,
      "dejo": 9591,
      "perfecta": 9592,
      "contes": 9593,
      "deberán": 9594,
      "ingre": 9595,
      "físico": 9596,
      "errores": 9597,
      "chico": 9598,
      "dejado": 9599,
      "##ley": 9600,
      "pensamiento": 9601,
      "cristo": 9602,
      "posteriormente": 9603,
      "inteligencia": 9604,
      "tier": 9605,
      "colocar": 9606,
      "utilización": 9607,
      "ejército": 9608,
      "vistas": 9609,
      "médicos": 9610,
      "##tana": 9611,
      "alegr": 9612,
      "perdido": 9613,
      "asegura": 9614,
      "bienestar": 9615,
      "##yó": 9616,
      "consiste": 9617,
      "##dres": 9618,
      "pretende": 9619,
      "suelen": 9620,
      "daños": 9621,
      "puso": 9622,
      "presentado": 9623,
      "funcionarios": 9624,
      "##hat": 9625,
      "representantes": 9626,
      "rob": 9627,
      "##ficación": 9628,
      "42": 9629,
      "asu": 9630,
      "ejecución": 9631,
      "dispone": 9632,
      "restaurantes": 9633,
      "tendencia": 9634,
      "rápidamente": 9635,
      "##itor": 9636,
      "##ualmente": 9637,
      "analizar": 9638,
      "##enses": 9639,
      "05": 9640,
      "cancel": 9641,
      "##guar": 9642,
      "máquina": 9643,
      "iii": 9644,
      "motiv": 9645,
      "##máticas": 9646,
      "bebé": 9647,
      "celular": 9648,
      "02": 9649,
      "##dal": 9650,
      "##ã³": 9651,
      "seleccion": 9652,
      "conocida": 9653,
      "ingeniería": 9654,
      "gafas": 9655,
      "##gadas": 9656,
      "##edad": 9657,
      "cuentan": 9658,
      "voluntad": 9659,
      "air": 9660,
      "camis": 9661,
      "celebración": 9662,
      "peru": 9663,
      "empieza": 9664,
      "facilitar": 9665,
      "##adura": 9666,
      "entradas": 9667,
      "entregar": 9668,
      "incluyen": 9669,
      "propiedades": 9670,
      "cooper": 9671,
      "necesitas": 9672,
      "escolar": 9673,
      "##uf": 9674,
      "niña": 9675,
      "probar": 9676,
      "##chos": 9677,
      "motivos": 9678,
      "habilidades": 9679,
      "habitual": 9680,
      "abre": 9681,
      "pasada": 9682,
      "##eración": 9683,
      "recibe": 9684,
      "harry": 9685,
      "03": 9686,
      "oposición": 9687,
      "##zco": 9688,
      "##dis": 9689,
      "##cieron": 9690,
      "suces": 9691,
      "responsables": 9692,
      "resca": 9693,
      "funcional": 9694,
      "occi": 9695,
      "mapa": 9696,
      "horario": 9697,
      "constru": 9698,
      "escuelas": 9699,
      "dipl": 9700,
      "##ueso": 9701,
      "##quen": 9702,
      "visitas": 9703,
      "puesta": 9704,
      "aseguró": 9705,
      "04": 9706,
      "vál": 9707,
      "##todos": 9708,
      "administr": 9709,
      "55": 9710,
      "chicos": 9711,
      "navegador": 9712,
      "solar": 9713,
      "esperanza": 9714,
      "ilumin": 9715,
      "maestro": 9716,
      "41": 9717,
      "amp": 9718,
      "división": 9719,
      "consent": 9720,
      "new": 9721,
      "tareas": 9722,
      "abord": 9723,
      "dominio": 9724,
      "mani": 9725,
      "tantos": 9726,
      "tendrán": 9727,
      "venezol": 9728,
      "##ull": 9729,
      "útil": 9730,
      "##lano": 9731,
      "cáncer": 9732,
      "reducción": 9733,
      "fundamentales": 9734,
      "hablando": 9735,
      "conclus": 9736,
      "##cientes": 9737,
      "vein": 9738,
      "gonzá": 9739,
      "lad": 9740,
      "navegando": 9741,
      "comité": 9742,
      "email": 9743,
      "wil": 9744,
      "presentó": 9745,
      "números": 9746,
      "cd": 9747,
      "fren": 9748,
      "##enten": 9749,
      "mini": 9750,
      "elev": 9751,
      "compras": 9752,
      "john": 9753,
      "provincial": 9754,
      "consecuencias": 9755,
      "haz": 9756,
      "astu": 9757,
      "auton": 9758,
      "producir": 9759,
      "cabello": 9760,
      "mercados": 9761,
      "efectu": 9762,
      "adecuado": 9763,
      "punta": 9764,
      "cercan": 9765,
      "##fin": 9766,
      "añadir": 9767,
      "seguimiento": 9768,
      "aeropuerto": 9769,
      "andaluc": 9770,
      "06": 9771,
      "gonzález": 9772,
      "##quia": 9773,
      "gobernador": 9774,
      "frases": 9775,
      "suger": 9776,
      "crimin": 9777,
      "oficiales": 9778,
      "móviles": 9779,
      "actuación": 9780,
      "acuer": 9781,
      "##ude": 9782,
      "##ulo": 9783,
      "llamar": 9784,
      "destr": 9785,
      "frecuencia": 9786,
      "nor": 9787,
      "anual": 9788,
      "chi": 9789,
      "acumul": 9790,
      "culturales": 9791,
      "democracia": 9792,
      "italia": 9793,
      "britán": 9794,
      "##xa": 9795,
      "agricul": 9796,
      "recibió": 9797,
      "individual": 9798,
      "mel": 9799,
      "espal": 9800,
      "antigua": 9801,
      "gig": 9802,
      "estrategias": 9803,
      "##sen": 9804,
      "##rón": 9805,
      "##zz": 9806,
      "triste": 9807,
      "##uña": 9808,
      "invol": 9809,
      "supre": 9810,
      "convocatoria": 9811,
      "75": 9812,
      "eter": 9813,
      "##anda": 9814,
      "poderos": 9815,
      "pele": 9816,
      "índice": 9817,
      "chat": 9818,
      "star": 9819,
      "mercan": 9820,
      "##gráfica": 9821,
      "necesarias": 9822,
      "laborales": 9823,
      "##íficas": 9824,
      "tráfico": 9825,
      "##qué": 9826,
      "complejo": 9827,
      "suave": 9828,
      "hoteles": 9829,
      "##tista": 9830,
      "financiera": 9831,
      "fib": 9832,
      "##tología": 9833,
      "protes": 9834,
      "orgul": 9835,
      "autén": 9836,
      "youtube": 9837,
      "clasificación": 9838,
      "fenóm": 9839,
      "rein": 9840,
      "papa": 9841,
      "establecido": 9842,
      "##anzas": 9843,
      "comod": 9844,
      "desen": 9845,
      "##ivers": 9846,
      "utilizado": 9847,
      "novedades": 9848,
      "400": 9849,
      "##américa": 9850,
      "impar": 9851,
      "naciones": 9852,
      "posee": 9853,
      "rural": 9854,
      "ulti": 9855,
      "deportivo": 9856,
      "hern": 9857,
      "recientemente": 9858,
      "humor": 9859,
      "##yan": 9860,
      "concreto": 9861,
      "opiniones": 9862,
      "filoso": 9863,
      "sencilla": 9864,
      "wi": 9865,
      "desn": 9866,
      "viajar": 9867,
      "ordenador": 9868,
      "wa": 9869,
      "verdadero": 9870,
      "##ind": 9871,
      "segundos": 9872,
      "proporcion": 9873,
      "99": 9874,
      "##ity": 9875,
      "atender": 9876,
      "##quez": 9877,
      "viejo": 9878,
      "ine": 9879,
      "pilo": 9880,
      "enamor": 9881,
      "tol": 9882,
      "implic": 9883,
      "recién": 9884,
      "dieta": 9885,
      "incluido": 9886,
      "vestido": 9887,
      "##esper": 9888,
      "vigil": 9889,
      "asunto": 9890,
      "palacio": 9891,
      "increíble": 9892,
      "ensa": 9893,
      "bole": 9894,
      "retro": 9895,
      "elemento": 9896,
      "sole": 9897,
      "lee": 9898,
      "apos": 9899,
      "identific": 9900,
      "puente": 9901,
      "##tización": 9902,
      "democrá": 9903,
      "alcoh": 9904,
      "xvi": 9905,
      "apartado": 9906,
      "normativa": 9907,
      "distrito": 9908,
      "socio": 9909,
      "fuertes": 9910,
      "43": 9911,
      "cuadro": 9912,
      "andr": 9913,
      "colum": 9914,
      "inferior": 9915,
      "aler": 9916,
      "importa": 9917,
      "lor": 9918,
      "vemos": 9919,
      "https": 9920,
      "peligro": 9921,
      "##ciles": 9922,
      "empresarial": 9923,
      "crítica": 9924,
      "black": 9925,
      "tasa": 9926,
      "##bur": 9927,
      "respal": 9928,
      "caer": 9929,
      "seguramente": 9930,
      "observa": 9931,
      "próximos": 9932,
      "##éu": 9933,
      "lleno": 9934,
      "utilizamos": 9935,
      "aqui": 9936,
      "confir": 9937,
      "flex": 9938,
      "pérez": 9939,
      "frío": 9940,
      "eficiencia": 9941,
      "it": 9942,
      "sopor": 9943,
      "inspir": 9944,
      "manifies": 9945,
      "cuel": 9946,
      "##est": 9947,
      "incluir": 9948,
      "cierta": 9949,
      "viendo": 9950,
      "juvent": 9951,
      "series": 9952,
      "##endas": 9953,
      "japon": 9954,
      "##óstico": 9955,
      "##rito": 9956,
      "universal": 9957,
      "150": 9958,
      "humanidad": 9959,
      "reales": 9960,
      "tradición": 9961,
      "urg": 9962,
      "necesitan": 9963,
      "info": 9964,
      "piscina": 9965,
      "letras": 9966,
      "##duras": 9967,
      "placer": 9968,
      "corresponde": 9969,
      "uu": 9970,
      "teoría": 9971,
      "cór": 9972,
      "electrónica": 9973,
      "londres": 9974,
      "salvador": 9975,
[...]
